#version: 0.2
d e
e n
Ġ de
e s
o s
Ġ l
c i
Ġ p
Ġ c
Ġ a
e r
o n
a r
a s
Ġ s
o r
a l
Ġ e
Ã ³
a n
a d
i n
Ġ m
en t
Ġl a
u e
t i
r e
Ġ en
u n
Ġ y
Ã³ n
d i
q ue
Ġ t
a ci
Ġ es
Ġe l
Ã Ń
Ġc on
Ġ que
r o
i c
Ã ¡
o m
Ġ n
Ġ h
t a
Ġ un
r a
i s
i d
t e
Ġs e
Ġ f
Ġ in
o l
Ġ E
Ġl os
Ġ o
aci Ã³n
Ã ©
Ġ re
Ġ v
e c
t o
a m
u l
d o
Ġ C
r es
Ġde l
Ġp ar
r i
Ġ A
Ġ S
ent e
Ġa l
ad o
Ġs u
Ġc om
Ġ d
Ġ di
Ġ P
Ġp or
t er
l e
Ġl as
t u
Ġ L
Ġ (
Ġ g
b i
Ġp ro
ÃŃ a
m i
t r
a c
Ã ±
ci Ã³n
Ġ M
Ġpar a
Ġ 1
Ġun a
ti c
i a
ti v
on es
m p
ent o
u s
Ġ b
m a
Ġn o
i z
t os
Ġ D
id ad
ci a
q u
a b
ad a
Ġp er
Ġm e
i o
l o
Ã¡ s
Ġc u
Ġ 2
ic a
Ġa n
Ġde s
u c
i l
al es
t or
Ã º
u r
d a
Ġs i
Ġa c
i t
Ġe x
Ġ T
e l
t en
Ġ R
Ġt ra
Ġ i
m o
i ci
ad os
ent es
l a
Ġ I
f er
Ġcom o
de n
Ġes t
Ġ N
i r
g o
u m
t es
Ġl o
Ġ res
an te
Ġh a
Ġ H
d ad
g u
0 0
i v
t ro
er a
Ġ F
m e
Ġ ti
ĠE s
ÃŃ n
ic o
Ġm Ã¡s
s e
c o
de s
i Ã³n
Ã¡ n
o ci
mi ento
p o
u es
id a
ĠE n
an do
b re
ĠL a
Ġ B
p er
Ġcom p
c e
ci d
Ġ U
Ġt o
Ġp re
Ġ ci
Ġ G
t ra
en cia
m os
or m
ĠE l
r an
id o
c u
Ġa s
Ġcon s
al iz
in a
aci ones
a j
b l
Ġ "
c a
Ġp aci
Ġp ue
Ġs er
t as
Ġp o
qu i
m ente
Ġ ent
Ġ -
o g
t ar
r as
Ġdi s
b le
p a
) (
c h
Ġm a
Ġin f
or es
p e
Ġme di
Ġa p
Ġp res
Ġ 3
Ġ Ċ
ar i
u d
Ġes ta
m in
i g
Ġ V
on al
Ġa Ã±
c ul
r u
Ã© n
Ġs o
Ġc a
Ġo b
f ic
Ġ O
Ġm u
Ġs in
Ġc ar
am bi
Ġp r
Ġi mp
) .
d uc
v i
tu di
d os
Ġp a
c l
m b
en e
e mp
Ġ r
i m
ent os
ad as
. .
Ġsu s
tic a
Ġ J
Ġper s
Ã© s
ĠS e
f ec
Ġm an
t al
Ġtra ta
de r
am ente
ĠI n
Ġin ter
en ci
tiv o
Ġp os
Ġs on
m er
tic o
Ġes te
g n
Ġes tudi
i e
Ġc as
t in
Ġc l
Ġso bre
Ġ or
en s
ol og
Ġen fer
en er
Ġl e
t an
n a
Ġpaci entes
es ti
ti l
er s
p l
ter i
Ġ 4
Ġ j
Ġent re
g un
bi l
ÃŃ s
Ġs al
c on
Ġde b
ic os
Ãº n
Ġa r
Ġc or
) ,
Ġm o
ar io
ar a
Ġp ri
c es
u er
en do
on a
ĠaÃ± os
Ġa d
tr os
e z
g a
p or
p os
Ġ 5
ar ia
p on
t ri
Ã³ g
ec es
ci ones
Ġn i
p ec
ent a
Ġre aliz
or a
Ġpue de
Ġh ac
c er
Ġma y
Ġt e
Ġ2 0
Ġ bi
Ġtrata miento
tiv a
ÃŃ as
Ġc ol
j e
uc h
f ici
ic as
l an
Ġf or
ĠC on
Ġ u
di c
p i
an a
m as
e b
ĠU n
er v
h e
olog ÃŃa
ambi Ã©n
Ġenfer me
j er
v e
Ġe v
ul ar
al mente
Ġn e
Ġo f
ĠL os
ĠR e
ida des
Ġm Ã©
Ġh e
Ġin v
Ġme j
ti s
is te
v en
Ġper o
ro l
Ġa b
t om
Ġd os
l os
t ados
z a
is mo
Ġh i
on as
er o
Ġ ri
n o
Ġs ol
pe ci
ci p
Ġ 6
g an
Ġ us
v o
b aj
g ra
b a
Ġin s
Ġre c
d as
Ġl i
Ġd ur
Ġm en
j o
ĠA l
Ġ qu
re c
c ar
Ġa u
es i
r en
p it
2 0
Ġf un
Ġ Â
Ġh an
Ġ1 9
ĠN o
Ġmay or
pa Ã±
Ġs an
ar on
ol Ã³g
Ã© r
Ġpos i
Ġt en
Ġpro f
Ġt ambiÃ©n
Ġsal ud
Ã± o
t ado
al idad
Ġtra baj
id os
l as
tr as
qui er
Ġmu y
Ġre l
ari os
Ġl le
g r
p ar
Ġd a
Ġes peci
Ġn eces
esti g
Ġy a
d r
l ic
tu ra
Ġestudi o
Ġm uch
Ġpaci ente
Ã³ s
Ġc re
Ġ /
enci as
Ġfor ma
Ġ 0
Ġm i
Ġc o
tiv os
ar rol
ci on
Ġc ada
Ġ 8
Ġmej or
g ar
Ġ 7
ol or
i er
Ġn ue
Ġres ul
v is
Ġt an
ti tu
Ġt ras
as ta
m an
in g
c ri
ec h
p res
i f
am os
Ġg ener
r os
t aciÃ³n
os pit
Ġn ues
Ġdes de
gu i
ĠM e
Ġdur ante
da des
Ġh ab
Ġre g
Ġ 9
Ġf ue
Ġv al
Ġimp or
Ġest Ã¡
Ġ20 1
Ġe mp
z o
orm aciÃ³n
tic as
ad or
Ġp as
â Ģ
Ġdes arrol
d u
bil idad
u y
Ġpers onas
am i
e m
e a
ti r
Ġ2 00
g en
Ġdi a
Ġcl ÃŃn
an tes
Ġm g
m Ã¡s
tor es
t ante
Ġin cl
Ġ Y
Ġenferme dad
ar es
Ġp e
Ġdi fer
u ciÃ³n
ĠL as
l i
ĠC om
ĠD e
ad ores
di o
ar se
ĠA n
Ġha y
aci on
an o
tic os
Ġu til
Ġinv estig
g res
Ġv er
Ġa de
Ġpue den
Ġri es
Ġto do
g os
Ġb as
Ġti ene
tro l
ĠD E
Ġt ran
Ġd olor
Ã¡ l
Ġpro duc
Ġs oci
" ,
ab le
Ġf in
Ġh asta
Ġ1 0
ĠP or
Ġal gun
Ġe fec
Ġm ar
Ġcu ando
v a
iv el
Ġg ran
Ġpar te
Ġcu al
Ãº l
i ones
Ġdia gn
g Ãºn
Ġpres ent
Ã± os
p aci
u ro
p ues
p ia
Ġ do
E N
u en
C I
Ġv ida
Ġg ru
c re
Ġc ent
Ġo tros
Ġn os
Ġt u
s o
am il
v er
is ten
Ġn ivel
aci onal
iv ers
os a
00 0
Ġe mb
ĠA s
tu r
i as
Ġutil iz
Ġv is
Ã© c
ami ento
Ġtran s
i de
ĠP ro
Ġ âĢ
Ġc er
Ġ Ã¡
a y
Ġob s
Ġd on
Ġries go
Ġac tiv
Ġre ci
l am
ospit al
c as
ÃŃ an
Ġp u
E S
i b
Ãºl ti
R A
m ac
Ġan d
Ġ w
ci r
o c
Ġac tu
ten ciÃ³n
Ġs ÃŃn
Ġti emp
Ġt he
Ġc r
mi entos
ti on
ĠS al
is is
Ġpr in
" .
Ġde n
Ġpro ble
bl es
ĠS an
Ġsu per
Ã³ lo
Ġes tos
Ġcon trol
Ġm es
Ġas ÃŃ
Ġa y
x i
en en
Ġsi gn
Ġto dos
p u
Ġpri mer
Ġc an
l es
Ġa um
om a
Ġti po
Ġbi en
t h
te c
O N
p en
n os
Ã© l
Ġs iste
Ġcas o
ici o
Ġob je
is t
Ġtiemp o
ce p
O S
di co
ar go
ĠS i
Ġa gu
Ġc ambi
Ġ %
Ġf amil
c an
g ÃŃa
Ġcas os
Ġa fec
Ġca us
Ġprof esi
Ġd ÃŃa
Ġmu jer
Ġan ti
re a
den cia
ch a
Ġhac e
Ġf ac
re cu
tor ia
i ta
Ġp es
Ġdeb e
Ġre f
t re
Ġ [
Ġc al
ĠaÃ± o
Ġm is
i os
Ġf uer
tiv as
ces o
ÃŃ cul
Ġtan to
Ġcom un
Ġhac er
Ġex per
Ġprin cip
ten s
E R
Ġcomp le
Ġl u
j a
l ar
in o
v as
Ġpar ti
Ġ K
Ġ ra
Ġt er
en o
ue l
Ġg r
n e
Ġb aj
ch o
Ġpri m
Ġdon de
I C
Ġv ez
Ġcon f
Ġp i
ul a
un que
b er
Ġinf ec
on ales
e d
Ġas oci
e g
un to
Ġex pl
min is
Ġn orm
f il
ci s
tr uc
di a
Ã³s tico
ci o
Ġc am
Ġ x
Ġmen os
Ġser v
Ġf recu
Ġh or
Ġb uen
mi a
Ġal ter
Ġtrabaj o
m ent
l u
aci a
un d
ĠM ar
T A
v ers
al u
Ã¡ c
Ġ Q
Ġes c
er on
ĠEs paÃ±
Ġ ro
Ġse c
Ġcon tra
) :
Ġper mi
is ta
h a
Ġp ol
ter a
r g
Ã³ r
1 0
Ġda tos
ari as
ĠC u
Ġg en
Ġd ÃŃas
Ã¡n cer
Ġ W
ĠC ar
Ġo tras
or aciÃ³n
Ã©c n
ol a
ĠÂ ¿
cul ar
Ġ Ãºlti
v an
ĠUn ivers
om in
ac ter
Ġt ener
iz aciÃ³n
Ġest Ã¡n
ĠSal ud
Ġresul tados
Ġdi rec
a v
Ġf u
or d
Ġ qui
pu Ã©s
Ġ Ã
Ġinf ormaciÃ³n
Ġun o
y ec
e ta
u al
Ġc ab
Ġc os
Ġmedi c
ar Ã¡
ci na
Ġpo dr
Ġa m
A S
i en
p ro
Ġal im
Ġgru po
Ãº bl
Ġde re
an os
Ġpor que
ĠN e
Ã¡ r
Ġde f
g ur
Ġe dad
Ġcon oci
Ġm un
Ġg ra
i or
Ġni Ã±os
Ġp s
teri or
Ġd l
id as
ti fic
1 2
Ġm as
Ġti enen
Ġm al
Ġt om
Ġrec om
Ġ1 2
Ġm ismo
i fic
tor io
Ġh er
Ã³ m
Ġh um
i ciÃ³n
ab a
Ġimpor tante
e o
Ġp lan
g re
Ġpo bl
di ca
Ġm om
Ġobs erv
ĠP ara
Ġ1 5
Ġestudi os
Ġor gan
ec e
Ġus o
Ġc Ã¡ncer
ĠH e
Ġl es
ul as
Ġsiste ma
Ġgener al
aj e
Ġdo c
p s
Ġp l
Ġsi tu
Î ¼
ĠL e
os o
A R
ci as
.. .
Ġt era
Ġf orm
ĠD es
Ġpa ÃŃs
Ġsu b
Ġpre v
Ġe t
Ġt Ã©cn
o y
f ica
a t
ci onal
Ġsi gui
r on
te g
ri l
Ġa tenciÃ³n
Ġen con
it ar
Ġpro gra
Ã¡l isis
Ġ er
cu ent
Ġe j
Ġs ido
ĠmÃ© dico
Ġ z
Ġmujer es
Ġhor as
tom as
Ġse gÃºn
den te
O R
Ġdesarrol lo
Ġdiagn Ã³stico
ol es
oci tos
Ġo p
Ġs ab
Ġm ues
ven ciÃ³n
Ġh om
ter min
j os
Ã³ l
Î¼ l
Ġdes puÃ©s
ent al
Ġc e
Ġn a
Ġm or
Ġen cuent
e dad
1 9
a g
Ġe qui
c ur
Ġf al
m on
Ġpu bl
Ġap lic
Ġparti cip
Ġenferme dades
Ġm il
ech o
mer o
us iÃ³n
Ġinvestig aciÃ³n
z ar
Ġest as
Ġan tes
Ġ ur
Ġp la
Ġest ado
tri b
Ġcar acter
Ġtra v
Ġad minis
Ġan te
Ġs ent
ici os
Ã© u
b r
Ġa f
en d
Ġ1 3
t on
Ġsan it
in as
bi er
Ġa unque
if ica
Ġmes es
ci do
Ġa mb
Ġse gu
Ġlu gar
ta mente
Ġo tro
Ġv ol
Ġdifer entes
e t
Ġcon tin
ĠS in
Ġtrav Ã©s
tan cia
ol uciÃ³n
Ġmom ento
Ġman era
1 000
e mos
A L
Ġp ues
ĠS u
as e
Ġ1 8
Ġhi per
I D
Ġev alu
Ġr ad
Ġ1 4
os is
Ġrel aciÃ³n
Ġf ar
Ġt res
Ġp ul
ul ta
ĠclÃŃn ica
c om
Ġp al
Ġespeci al
ĠsÃŃn tomas
pec to
an cia
Ġm in
en a
c al
Ġmedi ante
us o
ĠM Ã©
in f
ta c
Ġn Ãº
am a
Ġc alidad
emp re
Ãº s
Ġsol o
c ent
Ġmedic am
Ġcu enta
i ble
d ro
m un
Ġde termin
Ġnues tro
i on
Ġs ens
Ã± a
Ġc Ã©l
ier e
Ġcomp ar
Ġap ar
paci dad
ent ÃŃ
Ġval or
m Ã¡
Ġin di
m ento
ul o
Ġpobl aciÃ³n
t Ã³
Ġrel acion
Ġpa t
Ġre vis
Ġproble mas
Ġcons i
Ġes ti
ĠEs te
Ġes to
m is
ĠE x
du cir
ĠA de
Ġres pon
Ġposi ble
Ġprim era
Ġf ÃŃs
Ġla b
Ġade mÃ¡s
ĠC l
ten er
que l
Ġap ro
Ġi r
ĠH ospital
Ġemb argo
.. ..
ic aciÃ³n
ci al
Ġsign ifica
ar c
Ġcu r
ĠC h
t ad
Ġc h
in e
Ġprofesi onales
Ġencon tr
Ġr en
I N
Ġto tal
Ġin dic
isten cia
Ġse a
ĠA c
di da
ĠEspaÃ± a
Ġpr ue
dic os
Ġp on
ci miento
Ġsi empre
u da
teri al
ĠAde mÃ¡s
v id
Ġse x
e v
g es
tan tes
Ġv iv
Ġfuer on
Ġpro p
Ġa h
ĠEs ta
Ġci ru
Ġt emp
Ġ3 0
r al
i ar
Ġ iz
Ġpro ce
Ġalgun os
pues ta
t Ã¡n
Ã³ mo
ĠâĢ ĵ
t ÃŃcul
Ġmuch o
u tri
Ġest ar
Ġo tra
A D
Ġdos is
ĠR es
I I
Ġrealiz ar
Ġlle v
pa t
ĠUnivers idad
g ue
Ġv ac
ĠS oci
Ġpo co
1 1
Ġactiv idad
Ġpro ceso
Ġha bi
Ġac u
Ġfac tores
Ġv eces
Ã© tica
Ġal ta
ra c
Ġi den
Ġs ue
Ġf r
Ġp Ãºbl
Ġincl uy
ĠcÃ©l ulas
ĠMe di
Ġin te
t s
Ġl lam
u mo
Ġse gun
Ġdis min
Ġt r
Ġes pec
la z
v il
Ġcer eb
f ÃŃa
te ÃŃn
Ġpers ona
ent ar
. ,
ic al
Ġcu er
t ada
iv a
ĠIn s
Ġv e
ÃŃ o
Ġel lo
y o
Ġpr Ã¡c
olÃ³g ico
te d
Ġto das
ĠA r
ec er
ĠC ol
Ġc ri
Ġesta ble
ĠT o
Ġpe que
Ġci entÃŃ
Ġin ici
lo b
Ġm on
Ġay ud
Ġc ul
ul aciÃ³n
den tes
Ġade cu
Ġ19 9
Ġej emp
Ġt ar
ĠnÃº mero
Ġ ]
ĠP ar
ri g
Ġs Ã³lo
I S
Ġel ec
Ġiz quier
m or
Ġse Ã±
Ġdis tin
tera pia
b res
ri m
gres o
duc ciÃ³n
m ica
is tas
Ġ1 1
l ec
Ġcual quier
Ġj u
ec u
Ġmedi o
Ġcontin u
b e
Ġp un
A N
Ġdi f
Ġh echo
om e
Ġpro yec
Ġt al
Ġ era
u ir
Ã¡ g
Ġre con
en es
Ġadminis tr
di ente
Ġnorm al
Ġv i
Ġ on
ĠIn ter
Ġe jer
Ġa quel
b o
Ġde tec
g as
Ġm ie
Ġdes cri
c os
Ġto da
Ġobje tivo
Ġefec tos
Ġ os
Ġpi el
pi ra
T E
aliz aciÃ³n
Ġh ospital
tur al
Ġe vi
d on
Ġcon di
ci l
fil os
f a
Ġpers onal
Ġnue vo
O M
di do
b as
i to
ab les
ĠâĢ ¢
Ġel los
Ġan al
ci n
Ġcon se
Ġa po
Ġex tra
esi ones
Ġv en
1 5
v es
Ġt um
l uc
ĠC a
Ġg u
Ġcr Ã³n
p le
Ġmun do
u dad
aci as
Ġm ic
Ġor ig
Ġa g
Ġdi ab
Ġ is
ĠV al
or al
Ġ1 6
Ġv ir
s os
Ġ2 5
er os
Ġcon o
ad r
Ġci er
Ġre cu
Ġequi po
Ġ Ã³
Ġ2 4
Ġtras tor
Ġaum ento
Ġsoci al
Ġh is
Ġpubl ic
Ġqu Ã©
s a
ent aciÃ³n
d ÃŃa
f ico
ĠU na
Ġm ad
Ġa mp
Ġmu er
e p
Ġconsi der
ĠD i
ic amente
ÃŃ tica
dro me
di s
Ġnues tra
Ġes e
em bre
Ġcuer po
ĠEn fer
al a
Ġun os
Ġe p
ĠC ent
Ġinf orm
Ġv as
ma t
Ġl ÃŃ
p as
olÃ³g ica
Ġmuch os
e as
es t
ĠM a
e x
Ã³ filos
Ġfun d
Ġre pres
ĠI N
ĠR o
Ġfun ciÃ³n
Ġ Ã©
ent ras
ĠD is
E C
Ġb ene
Ġserv icios
Ġde cir
Ġan Ã¡lisis
Ġrec ur
Ġsin o
Ġsu f
Ġcu an
Ġv a
ĠN acional
E M
Ġejemp lo
O L
ta b
Ã¡r mac
Ġg as
Ġfar mac
Ġrecom end
c or
Ġpo der
Ġs a
Ġes o
Ġci ento
Ġdeb er
g ado
or ma
Ġ X
pos iciÃ³n
Ġpres enta
Ġbaj o
Ġsigui entes
Ġt or
m ina
Ġre fer
i endo
gu al
Ġ Ãºn
Ġv ent
Ġmedicam entos
g e
Ġde j
Ġe duc
di r
ĠM an
dos e
Ġel ev
m ana
o p
ech a
Ġd ar
Ġal go
Ġa van
d omin
ti do
Ġcent ro
Ġdef in
Ġmo de
Ġes p
tu ras
Ġmayor ÃŃa
1 4
ĠmÃ© dicos
tu al
Ġdis pon
ÃŃs ticas
Ġden tro
Ġproble ma
Ġemb ara
Ġbene fici
Ġsi endo
Ġcambi os
Ġvac un
Ġciru gÃŃa
iv o
Ġo cas
g i
ĠL A
Ġm os
Ġc Ã³mo
esti Ã³n
ĠÂ «
ue go
ĠM on
Ġ5 0
1 3
Ġsitu aciÃ³n
Ġiden tific
ĠT ambiÃ©n
Ġ1 7
Ġsan gre
Ġpes o
Ġf Ã¡rmac
ĠP re
Ġnivel es
Ġs ÃŃ
Ġf aci
Ġf ormaciÃ³n
Ġh acia
Ġar tÃŃcul
ĠP a
ĠE N
i es
Ġde pen
Ã ĵ
bi r
d an
v os
tu d
Ġ *
z Ã³n
Ġ Z
Ġindi vid
Ġexper i
Ġejer ci
Ġcomp lic
: .
Ã¡ tica
t ina
Ġdi se
Ġin mun
fici encia
gur idad
Ġh al
Ġcar dio
Ġdeb en
or me
Ġcaus a
Ġin ci
mi l
Ġprogra ma
ec n
Ġespec ÃŃ
ĠCon s
T I
Ġmis ma
Ġl argo
qu il
ĠmÃ© to
Ġagu a
an za
Ġcol ab
u ra
olÃ³g icos
i al
ĠS erv
Ġhi po
tiv amente
Ãº rg
ta miento
Ġev oluciÃ³n
Ġm m
Ġres puesta
Ġpres encia
Ġm us
Ġalter aciones
ri r
ĠO r
Ġ1 00
g ia
Ġinfec ciÃ³n
Ġp ad
Ġemp le
Ġprofesi onal
ez a
Ġcar di
i tis
Ġh oy
Ġmues tra
ï ¿
ï¿ ½
ĠMedi cina
Ġres pira
av or
mer ÃŃa
E q
pres iÃ³n
Ġci r
- -
Ġre la
er n
res pon
Ġres pecto
Ġm ul
ti ene
Ġcomp a
ĠC i
c en
Ġm Eq
C M
Ġin cre
Ġes per
Ġfamil ia
Ġ k
tiv idad
Ġse gui
tr an
Ġmi entras
Ġmuch as
Ġgru pos
ol u
Ġmejor ar
Â »
adr id
ir m
x im
ĠP o
Ġactiv idades
m g
Ġcons ide
Ġdere cho
Ã¡ p
Ġqu ir
Ġpar tir
A C
Ġi de
Ġmen or
Ġefec to
ĠO b
1 8
Ġbas e
ic ar
1 7
Ġdi vers
Ġci udad
di ce
Ġne ga
b an
ab an
Ġ '
Ġper io
ĠT ra
is o
Ġp el
Ġcu mp
i bilidad
Ġm ol
Ġcons umo
u t
ĠC o
ĠD r
ĠIns titu
ac a
Ġb eb
ĠC as
Ġau tor
e mia
Ġur g
ĠE uro
1 6
ĠL o
y a
Ġb us
Ġv aria
Ã¡ tico
Ġps ic
5 0
Ġlo c
Ġac uer
tens iÃ³n
Ġse lec
ol o
ti a
e tes
fic os
Ġse man
Ġes paÃ±
I A
qu ÃŃ
Ġincl uso
ĠS o
h i
Ġof re
Ġre ac
Ġfr ente
Ġpodr ÃŃa
Ġn om
Ġneces ario
Ġcan ti
Ġap or
w w
Ġp ens
Ġev itar
Ġad ul
Ġcon duc
ad amente
or o
Ġfund am
Ġn utri
ar an
de z
Ġde mos
Ġ4 0
20 20
Ġe con
Ġpro b
bi Ã³
d ar
ĠU N
ĠP ero
Ġf avor
p Ã©u
Ġtrata mientos
j as
r in
ĠpaÃŃs es
Ġemp res
Ġcon ten
Ġ +
Ġinte gr
Ġan aliz
Ġren al
di al
Ġprincip al
Ġcomp ro
ĠM adrid
Ġl esiones
Ġal can
Ġz ona
f i
c el
Ġin fer
Ġest ra
ular es
p ir
r ic
Ġf l
Ġg an
Ġdeb ido
Ġsegui miento
Ġalgun as
T O
Ġhab er
Ġmie mb
Ġcor respon
Ġf i
Ġmay ores
Ġa se
h o
U E
Ġmil l
A M
Ġet c
ĠP R
Ġpul mon
Ġproduc tos
Ġpa p
tr ÃŃa
Ġcor rec
f o
Ġnue va
Ġdiab etes
tr ado
ĠG u
Ġpro por
p re
v ir
Ġproce di
Ġpro vo
ÃŃ t
Ġman if
Ġcom er
ch e
Ġcon tac
Ġes a
Ġ Ã©s
Ġm ec
v al
por te
Ġse mana
Ġe di
Ġah ora
Ġes truc
Ġsec und
ĠE S
a tro
Ġv ari
Ġau to
C R
Ġay uda
Ġfrecu encia
Ġca p
Ġdi rig
z as
i des
Ġp unto
Ġes tr
Ġorgan iz
de mos
Ġcon j
Ġin tra
Ġb o
ci os
Ġdesarrol l
Ġpre vi
Ġcons ul
Ġab s
Ġca pacidad
Ġpermi te
Ġcons ecu
Ġmedi a
i mo
Ġs os
Ġinter es
Ġe pi
i dente
y s
b in
t ales
ĠCom o
Ġcl ar
Ġt ecn
tu s
Ġsol ici
m bi
Ġte j
Ġli mi
Ġin de
Ġy o
Ġin t
Ġquir Ãºrg
e f
Ġalim entos
Ġfun cion
ĠP e
te l
Ġrealiz a
i cia
por t
Ġpr Ã³
Ġci n
Ġtra tar
ad ora
Ġpre gun
Ġgra ve
Ġcaracter ÃŃsticas
Ġprof es
ĠÃ ģ
Ġacuer do
Ġf o
Ġserv icio
Ġesti m
Ġor i
Ġinter n
Ġcons titu
ter o
Ġpro ces
Ġcon te
Ġpre cis
Ġh id
ue la
Ġp Ã©r
Ġt ro
vas cular
Ġbuen a
Ġpo ten
Ġf ib
Ġo cur
tor a
Ġne uro
ĠIn f
d or
Ġcu idad
t t
Ġfrecu ente
Ġmic ro
ri a
pat ÃŃa
Ġm Ã¡
ĠA d
ter io
Ġencuent ra
2 7
Ġgr ado
Ġseman as
Ġes cri
Ġest ad
E s
Ġhab ÃŃa
ac o
Ġde ci
ie bre
v enci
Ġi gual
ĠG ener
ul os
t aciones
Ġt ri
gra fÃŃa
Ġb lo
Ġreg is
Ã į
i tos
ĠtÃ©cn ica
ĠA L
tal idad
Ġresul tado
Ġdi fic
it ario
Ġal to
i Ã³
Ġap ren
3 0
Ġtera pÃ©u
m ico
ent an
u ales
Ġcab o
Ġse guridad
Ġsuper ior
cl us
Ġde ri
E D
Ġm er
Ġv arios
Ġpar e
Ġtom ar
pl as
Ã± as
bil idades
it h
ĠprÃ¡c tica
x to
p h
Ġcambi o
ec en
Ġl ado
el l
ĠP res
ter al
in al
di endo
Ġqui en
vi er
Ġactu al
Ġdiagn os
Ġg ras
il l
ĠC ON
o bier
Ġr Ã¡p
ĠsÃŃn drome
Ġexperi encia
i miento
tom ÃŃa
u ma
Ġv ÃŃa
quier e
cul ares
Ġma ter
x ico
ĠJ u
it y
CI ON
Ġnue vos
ific aciÃ³n
Ãĵ N
r ar
Ġinf lam
Ġprue bas
A P
s i
tes tin
Ġna tural
ĠC or
Ġprincip ales
olog ÃŃas
tor ios
ĠJ os
ĠC an
Ġan im
Ġcuan to
Ġi ma
di fic
ĠP er
as a
Ġimpor tancia
p ciÃ³n
n i
Ġneces idad
Ġt Ã³
s on
Ġfal ta
i ma
Ġt a
% )
ĠCu ando
Ġm Ãºs
Ġ% :
Ġgr acias
i ares
Ġan terior
ord in
c ado
Ġmuer te
Ġex iste
2 4
v iv
t adas
g er
Ġpro du
Ġref iere
Ġayud ar
Ġre co
ĠP aci
Ġinvestig adores
b ar
Ġcas i
Ġhis toria
oles c
Ġpres ente
Ġes paci
Ġpro gres
Ġmo der
re as
Ġfin al
Ġlo gr
Ġ ol
z os
Ġgran des
Ġpro teÃŃn
Ġvir us
ĠCent ro
co h
Ġf is
2 00
Ġcanti dad
Ã© tico
Ġcono cer
Ġman ten
Ġinter venciÃ³n
Ġen s
Ġac om
fici ente
p ti
mi o
ĠseÃ± al
Ġpre venciÃ³n
ĠtÃ©cn icas
Ġcent ros
um en
t ando
Ġhe mo
Ġmill ones
uy e
Ġpes ar
f r
Ġdi eta
Ġcons ulta
di os
Ġam bi
Ġl ÃŃn
og ra
on o
Ġp Ã¡g
u tr
ĠEs to
Ġbi o
ĠAs ÃŃ
Ġproyec to
Ã©r ica
Ġmedi das
Ġamb os
Ġpre par
Ġins u
Ġcor re
Ġf iebre
Ġe mo
Ġes f
fic as
Ġdes ta
g ada
Ġ2 2
Ġ ru
ĠE L
Ġcu ad
Ġj unto
Ġser Ã¡
Ġin tens
v ar
Ġb a
Ġpas ado
ent ado
ac e
tr Ã³n
Ġins titu
ĠT he
ĠIn v
Ġg us
ĠpÃ©r dida
Ġman tener
Ġecon Ã³m
Ġt ab
aliz ado
o d
Ġsign os
Ġsi mp
ĠÃºlti mos
tic ular
Ġcomp ren
Ġrealiz ado
Ġp an
Ġcons erv
ta ble
Ġcondi ciones
ĠP A
Ġc el
Ġni Ã±o
ri o
Ġun ivers
Ġpres iÃ³n
ĠT ras
Ġcl as
or n
Ġf lu
ie dad
h er
Ġcu atro
ĠfÃ¡rmac os
Ġsent ido
Ġh ospit
Ġdis f
Ġn aci
ĠclÃŃn ico
ĠÃºlti mo
Ġcu id
ĠInstitu to
per aciÃ³n
t Ã¡
da p
Ġtera pia
Ġcon cent
acion ales
Ġ2 8
ul tad
Ġw ith
ĠartÃŃcul o
v el
U L
Ġhom bres
ĠCl ÃŃn
Ġrad io
ĠV I
Ġejerci cio
ari ciÃ³n
tr ica
ĠfÃŃs ica
Ġespeci almente
Ġn ada
de ra
Ġex tre
Ġl ec
_ _
Ġc la
gu ra
Ġv ar
orm ente
Ġh ora
Ġd om
ĠÃ¡ rea
ac to
obier no
Ġnue vas
pues to
gu ir
Ġob ten
Ġmad re
Ġpr on
bi a
Ġde r
I L
ac teri
Ġcom bin
. -
f al
Ġ Ã©l
Ġ2 3
Ġman e
cid os
tes is
Ġl ig
Ġen c
Ġconoci miento
Ġ2 6
Ġad olesc
i bles
Ġpad res
n ea
Ġpro mo
t ÃŃn
Ġp ie
Ġpap el
cul o
Ġfac tor
Ġmin u
pi os
Ġapo yo
Ġce le
i min
olÃ³g icas
is mos
Ġar terial
Ġde cis
i te
cu p
ti tis
it al
Ġcon trib
Ġdes a
Ġconside ra
Ġacom paÃ±
Ġsoci ales
n as
Ġsegu ir
ĠM in
truc ciÃ³n
Ġ6 0
pos i
al l
g l
t ÃŃ
ĠGener al
! !
Ġproduc e
T R
ĠEspaÃ± ola
om as
Ġdere cha
Ġb lan
Ġpulmon ar
ci ente
ĠcrÃ³n ica
Ã± ana
Ġtrastor nos
il la
Ġsab er
Ġel em
teri os
Ġep iso
Ġob es
ĠL u
Ġalgun a
Ġdi cho
Ġmedi da
Ġexpl ic
ent ales
Ġnues tros
Ġorig en
Ġembara zo
xi mo
teri ormente
ul s
Ġcompa Ã±
Ġa dap
ĠCom un
Ġe fic
ĠD ur
aliz ada
Ġevalu aciÃ³n
Ġmode lo
Ġmo vi
m ol
iv os
ens a
ĠInv estig
Ġmo do
di Ã³
Ġa Ãºn
Ġal coh
Ġin icio
Ġo c
Ġh u
Ġdoc um
Ġ Ã³r
Ġmor talidad
Ġprue ba
tor ias
Ġser ie
ĠM un
Ġel la
ĠEs tudi
Ġun as
re z
Ġcom Ãºn
ĠServ icio
Ġ2 7
al th
Ġesta bl
pec tos
Ġindivid u
mi r
Ġexper im
inf ocitos
is l
Ġadministr aciÃ³n
an til
C O
Ġli b
Ġpar ece
ĠJ o
E P
Ġor al
d om
Ġre ducir
ĠclÃŃn icos
Ġre al
Ã¡n dose
ĠÃ¡ mbi
g io
Ġex isten
Ġaplic aciÃ³n
ca pacidad
L a
Ġ2 1
Ġcereb ro
ĠDes de
Ġizquier da
Ġcu ales
Ġhe mos
Ġbaj a
i den
Ã© ticos
f ac
Ġal gÃºn
2 5
Ġper man
Ġcomplic aciones
Ã¡ m
ĠM o
Ġprob able
ol ar
Ġcom en
Ġprev al
Ġ =
Ġab domin
Ã³lo go
Ġmedi cina
tic amente
Ġt ama
Ġsi g
ce dentes
v in
Ġsegun do
r ada
Ġel imin
Ġpa de
Ġref le
Ġa mi
Ġimpor tantes
Ġtr ad
Ġestra teg
Ġ Ãº
Ġcos as
Ġlle gar
t Ã³n
Ġaquel los
I O
Ġin greso
ĠF ran
Ġrecur sos
Ġa ten
Ġv an
ĠAs oci
Ġb ar
/ /
ens iÃ³n
Ġreg iÃ³n
ac h
ĠQ u
Ġac er
Ġres to
ur os
ĠEn tre
Ġsoci edad
ĠC O
par ta
Ġac ep
tr ic
Ġdes cu
Ġac ceso
ĠSe gÃºn
Ġhal laz
7 2
Ġcon ta
ĠF und
Ġa z
ol er
ĠDi rec
Ġrespon s
z ada
d in
Ġdiagnos tic
Ġest re
Ġus u
z ado
iz o
ĠJos Ã©
Ġadul tos
Ġprof un
Ġti pos
Ġcontac to
ĠCon se
Ġsu pon
ĠmÃ© dica
Ġme tab
Ġpresent an
Ġizquier do
Ġin gres
Ġrealiz Ã³
l io
en os
IC A
Ġens ay
Ġincl u
Ġmos tr
Ġ ÃŃn
Ġap ariciÃ³n
Ġv ia
ĠC ir
ra g
it aria
: //
Ġin icia
Ġinfec ciones
Ġma Ã±ana
ÃŃs tica
Ġrecon oci
Ġconcent r
Ġdifer encias
il a
ien da
Ġte ma
p m
ene mos
Ġval ores
Ġderi v
u p
Ġqu er
Ġin d
Ġas pectos
Ġj un
ĠC al
iz a
ĠSoci edad
Ġcre cimiento
Ġinde pen
Ġllev ar
ĠA S
or te
Ġcam po
t Ã©
ci Ã³
Ġtama Ã±o
v ent
Ġcas a
ĠA unque
in ar
Ġreci b
me dia
Ġdesarrol lar
Ġesf uer
ĠR ec
di entes
Ġpo demos
d al
Ġb Ã¡s
Ġfarmac Ã©u
Ġcon cep
Ġh tt
Ġm Ãºlti
Ġa us
ĠEs tados
Ġpro tec
er vi
% ,
I M
Ġ19 8
Ġmej ora
tan cias
Ġle g
ĠA m
ci ales
on e
ĠA C
Ġpla zo
ĠT A
ch os
Ġfu era
CI ÃĵN
que tas
on ces
Ġfamil iar
Ġpol ÃŃ
j us
Ġmul ti
6 8
Ġsu je
n es
p an
Ġfamil iares
Ġinter Ã©s
Ġnom bre
Ġmec an
Ġfaci l
or ÃŃa
Ġmo dific
Ġac ciÃ³n
ĠS E
Ġf ase
z ol
Ġpl ante
ĠDur ante
Ġin cor
port un
Ġcol or
Ġv arias
Ġacu de
ti o
i re
Ġel las
Ġt oma
in gun
ĠUn idos
ra mi
3 3
Ġg lob
Ġdis trib
Ġcomun icaciÃ³n
ic e
Ġf e
r Ã¡
Ġsuper fici
ur as
Ġf Ã¡
Ġpos t
ĠM u
Ġde m
g Ã©n
pi as
ic h
Ġdif ÃŃ
Ġo bl
Ġg luc
Ġurg encias
an as
ma to
Ġprimer os
Ġen er
er as
Ġapro xim
Ġl ar
Ġabdomin al
tu ro
ĠMÃ© xico
to c
ing Ãºn
Ġl uego
Ġex pres
ĠEs tos
Ġc og
k e
Ġ2 9
u do
Ġevi dencia
Ġp en
Ġcuad ro
de mi
Ġdoc tor
il ar
Ġin testin
Ġt Ã©r
b ra
ĠF echa
ven es
r era
Ġa t
us tri
ven ir
ĠM i
aliz ar
Ġinfer ior
ĠlÃŃ qu
Ġpat ologÃŃa
ĠH a
D A
Ġinsu ficiencia
% .
Ã¡ bi
it as
ĠP s
Ġel ab
Ġpas o
i p
Ġle ve
Ġpos terior
Ġagu da
0 4
Ġneces idades
Ġcin co
Ġm ÃŃn
Ġor den
ar ra
ĠP la
Ã³ venes
Ġan tic
Ġan s
Ġcomp on
Ġminu tos
b u
is ti
un ca
os as
Ġ )
Ġg l
Ãºbl ica
O C
Ġval oraciÃ³n
Ġo portun
Ġima gen
Ġdes car
Ġcon cl
7 0
m ar
Ġinci dencia
ĠSan idad
Ġ8 0
Ġocas iones
Ġent onces
ĠpÃºbl ica
Ġter min
an ci
ĠmÃ©to do
ci da
f orm
qu es
ĠÃ³r gan
Ġv ig
Ġsigui ente
Ġsegun da
Ġvaria bles
Ġencontr ar
Ġcri terios
Ġt h
Ġpresent ar
Ġre alidad
Ġn ingÃºn
Ġutiliz ar
Ġalcoh ol
Ġcon ci
ĠN a
ra x
ĠI I
Ġn ervi
Ġin h
ÃŃt ulo
ĠF ac
Ġf il
Ġ3 5
o x
Ġpon er
tin o
ent as
Ġla c
ĠJu an
Ġd ado
p es
ec ciÃ³n
tom a
Ġsue Ã±o
Ġrad i
3 8
Ã¡n d
ĠRe f
Ġcomp or
j u
gen es
Ġten dr
Ġher rami
2 2
ĠÃ į
Ġdom ici
A T
arc ÃŃa
Ġcon cre
i le
ĠA P
Ġv ita
i ente
m en
Ġo x
Ġdes e
ĠN av
ens o
Ġproces os
tu almente
Ġposi bilidad
en gu
tur ales
r ad
Ġase gur
Ġcon tr
Ġg estiÃ³n
) ;
Ãº a
uc ocitos
Ġreci ente
Ġcaus as
E l
Ġt enemos
Ġpue da
un ta
Ġli ber
Ġj Ã³venes
Ġes tu
eb ril
ĠCir u
Ġhum ano
Ġn ingun
tis mo
cion ar
Ġe ta
ĠA tenciÃ³n
Ġau tores
ci endo
ĠF C
ur al
min o
Ġe co
teri ores
Ġne u
Ġhac en
utr Ã³filos
Ġles iÃ³n
ĠMin is
cul os
esti on
Ġbas al
di z
Ġobl ig
Ġproduc ciÃ³n
it aciÃ³n
iz ar
Ġlab ora
Ġdes con
tiv e
ici dad
ĠÃ¡mbi to
Ġincor por
Ġre le
Ġpues to
mis iÃ³n
Ġtrastor no
or ar
Ġimp lan
Ġg aran
ig n
Ġeduc aciÃ³n
ĠAsoci aciÃ³n
Ġefic acia
Ġ3 6
Ġn acional
Ġt os
Ġal er
Ġsi mi
3 6
Ġb acteri
Ġcur so
tr ico
qu is
Ġre ducciÃ³n
Ġcor por
Ġencuent ran
i ores
arc el
de dor
g el
ĠFund aciÃ³n
Ġcomp e
ĠC am
ac es
vis iÃ³n
g lob
Ġcuidad os
ĠPaci ente
Ġre cep
0 3
ĠÃį n
Ġm io
j ar
Ġdismin uciÃ³n
Ġse cre
ĠA b
ĠH ay
c lo
ĠP ue
Ġprim aria
Ġbi la
ĠEnfer me
Ġmiemb ros
c Ã³
Ġesta ba
tr al
xi ma
vis ta
Ġsanit ario
Ġhe p
parta mento
Ġf rac
Ġde dic
Ġpres idente
Ġin tro
Ġperio do
Ġprogra mas
Ġhi jos
ĠG arcÃŃa
ps ia
Ġal l
Ġcele br
ci ona
Ġex ter
b ado
Ġrefer encia
pues tas
Ġtum or
Ġobes idad
Ġcolab oraciÃ³n
ĠE C
ern Ã¡n
ĠG ran
Ġcab eza
Ġpun tos
Ġpa u
tr aciÃ³n
ĠL infocitos
Ġmej ores
Ġa di
Ġfrecu entes
ĠÃįn dice
ĠT i
m entos
ar d
I R
Ġhay a
Ġcom ien
arcel ona
ĠP al
Ġhi jo
Ġsa tis
gr Ã¡
l la
l y
Ġvis ta
Ġde por
Ġpor cent
Ġdiagn Ã³s
l ica
pl es
Ġh Ã¡bi
Ġsanit arios
ĠA D
4 0
Ġv uel
Ã §
Ġsiste mas
Ġer an
Ġsu p
Ġconse guir
Ġm ens
ĠM or
Ġmedi os
in os
Ġconte xto
ĠlÃŃn ea
ist ente
Ġconstitu y
ĠÃ¡ reas
tion s
Ġj us
Ġrevis iÃ³n
Ġpal ab
Ġimp lic
Ġhabi tual
Ġm ental
ĠB ar
Ġ9 0
Ġ <
tar se
Ġ7 0
ĠT e
Ġpl ac
ici ones
Ġante cedentes
ent s
ĠQ UE
Ġamp li
Ġhum anos
Ġestr Ã©s
Ġtej ido
ĠD ia
Ġw eb
aj o
ernÃ¡n dez
tr um
Ã© mica
Ġcuid ado
Ġexpl ica
Ġcor a
ĠEnfer merÃŃa
ti dos
Ġdes tac
Ġen do
Ġobje tivos
7 6
ĠEuro pe
l ante
tin g
Ġpre o
Ġex am
Ġd Ã©
ĠCu ba
Ġrealiz aciÃ³n
Ġcent ral
Ġte le
Ġans iedad
ol e
aj es
ĠÃ³ se
Ġh orm
i mos
Ġs ome
Ġli bre
Ġespaci o
Ġac on
Ġad vers
Ġrelacion ados
f e
Ġimp res
Ġse an
iz ado
2 1
enci al
ĠL i
tar io
Ġpo d
ĠNe utrÃ³filos
Ġconten ido
Ġa isl
Ġpri v
Ġg ente
ĠP rim
ĠF ar
gr ado
U S
Ġpro ducir
ul io
Ġob tener
Ġpar ticular
Ġent or
ĠB o
ĠP CR
Ġp ier
Ġco ordin
ĠA u
Ġf ru
I EN
el a
Ġmane jo
ĠfÃ¡ cil
Ġmis mos
Ġex posiciÃ³n
Ġfin anci
Ġpreval encia
Ġqui enes
Ġbenefici os
Ġcor on
Ġn unca
Ġcu b
ĠpÃ¡g inas
Ġten go
im ismo
Ġv ers
Ġprocedi miento
l er
te o
Ġn um
Ġper ÃŃo
gu ÃŃn
Ġ >
Ġ ul
gen o
Ġdistin tos
ĠI C
d L
Ġo fici
ĠPro teÃŃn
ru po
2 3
ĠdifÃŃ cil
Ġcereb ral
Ġre un
ti z
re dedor
ĠS a
Ġd in
Ġdifer encia
Ġa jus
ĠmÃ©to dos
Ġde presiÃ³n
ĠF e
Ġcump l
Ġdej ar
ĠB arcelona
.... ....
ĠCiru gÃŃa
is iÃ³n
Ġdis posi
Ġhallaz gos
Ġsimi lar
ĠÃ© xi
0 5
tar ia
ĠP os
ĠMon ocitos
ul ina
Ġparticip aciÃ³n
Ġpre venir
Ġalim entaciÃ³n
Ġtar de
ĠMar tÃŃn
2 6
Ġalim ent
Ġsue le
Ġj ue
Ġl engu
Ġcar dÃŃa
Ġmedicam ento
Ġdirec tor
Ġ3 3
Ġlab or
Ġs om
Ġre d
m icos
Ġdur aciÃ³n
ir ma
Ġasoci aciÃ³n
ĠMar ÃŃa
dic as
r ado
tar on
Ġv ÃŃ
cion ales
Ġform as
a p
Ġf um
r ero
ĠP lan
tin ina
ĠU rg
Ġimp acto
Ġsex ual
Ġorgan ismo
e ar
Ġg ri
Ġfu turo
Ġcom ent
D O
Ġcar a
Ġv o
Ġprop io
Ġenfer merÃŃa
ĠclÃŃn icas
Ġlu z
Ġmen ores
E L
Ġcomun idad
Ġb an
e os
Ġde cl
Ġsus titu
ne t
ĠÃºlti ma
Ã³lo gos
Ġinf orme
b ol
Ġo per
i ado
Ġsens aciÃ³n
Ġdes p
Ġrecom ienda
Ġsitu aciones
ci pl
Ġal um
Ġl inf
H g
un a
Ġpro pia
me dio
M A
ĠC r
i onal
2 8
Ġsimp le
gra ma
Ġpue dan
ĠVI H
Ġman o
ĠN O
Ġproduc to
Ġin media
Ã £
Ġac ci
Ġtras pl
cul a
fer encia
Ġper fil
Ġsanit aria
Ġinf antil
ĠP ol
Ġrel aciones
tu bre
Ġcomp rim
Ġent en
Ġ3 1
Ġanti biÃ³
Ġma gn
Ġb ron
Ġnos o
Ġca pa
ĠB as
7 5
on g
Ġle y
om ÃŃa
rol Ã³g
Ġvi ol
Ġcora zÃ³n
ter ol
es iÃ³n
Ġdi cha
ar to
ĠD eb
Ġsex o
Ġm ama
Ġposi bles
V ID
Ġemp ez
no v
Ġadolesc entes
ĠOb s
v ÃŃa
to p
se Ã±
g on
Ġsec tor
Ġfun cional
Ġprev io
ĠaÃ± ad
Ġdi ce
ĠÃºn ico
Ġten ido
Ġconj unto
Ġafec ta
me tros
Ġsos pec
Ġma terial
Ġpr os
ĠÃ¡ cido
Ġar tic
Ġque d
Ġno che
Ġlo cal
Ġ9 5
Ã ¼
Ġca teg
ÃŃcul a
ĠS er
o C
Ġcomp ues
mÃ¡ tica
ĠfÃŃs ico
ici p
ĠB i
ti onal
Ġtum ores
en ce
gue z
Ġfundam ental
ier on
Ġalter na
Ġop in
Ġcardio vascular
Ġab or
ĠpÃºbl ico
Ġrespira toria
Ã£ o
Ġg Ã©n
ĠE v
Ġdemos trado
Ġanim ales
Ġinter ac
Ġcog ni
ĠD ÃŃa
ĠA N
Ġres pec
Ġ3 4
x ic
Ġneces ita
Ġcol on
Ġs ac
Ġadecu ada
ch as
Ġd or
ĠS on
U N
it ro
ĠMinis terio
Ġinf lu
ĠB uen
Ġser ÃŃa
o f
ĠMun dial
Ġsin tom
ĠH i
Ġ201 0
h id
Ġz onas
Ã¡ ci
Ġactu alidad
Ġt es
qu er
lo gÃŃa
Ġm l
Ġa quÃŃ
den cias
Ġpre co
Ġconf irm
ĠInvestig aciÃ³n
Ġlab oral
tas io
ri Ã³
Ġexper tos
ĠÃº til
8 0
Ã ¨
Ġmo tivo
Ġespecial ista
Ġas pecto
ĠClÃŃn ica
de l
ĠHe mo
Ġclar o
ist entes
âĢ ĵ
ĠAl gun
Ġvis iÃ³n
Ġins trum
ĠUn idad
Ġactu almente
it an
Ġm am
ĠG obierno
Ġs uel
Ġre duc
vi eron
ĠC OM
Ġh aci
Ġinf l
Ġtro mb
ĠOr gan
ĠÃ©xi to
Ġsu ficiente
Ġdi jo
Ã³l ica
Ġtemp era
il lo
Ġgra ves
ĠUrg encias
Ġac e
Ã³g eno
Ġpodr ÃŃan
glob ina
Ġor ina
Ġnoso tros
ar Ã¡n
ci dad
Ġmar cha
Ġind ustri
T U
um on
Ġsu r
Ġestudi antes
Ġdis capacidad
qu ia
Ġcr isis
Ġt oler
Ġt us
Ġal rededor
Ġg o
ĠInter n
ĠL D
Ġcon ver
I V
Ġes cas
Ġa bier
ĠS iste
Ġre pro
Ġh o
Ġti t
Ġprimer o
ĠproteÃŃn as
cep ciÃ³n
venci ones
cri to
mer ic
k in
7 9
ĠCar los
Ġas isten
Ġintern acional
Ġ201 2
on z
ĠEuro pa
Ġf a
ti enen
Ġadecu ado
un ciÃ³n
Ġal ar
ges ta
Ġ3 8
Ġde tal
Ġhiper tensiÃ³n
le z
Ġsan guÃŃn
Ġten ÃŃa
Ġa ta
Ġdistin tas
Ġincluy e
E n
Ġhe mor
a de
tÃ¡n ea
Ġprev ia
P S
Ġes os
m es
b ina
ĠcientÃŃ fica
Ġpro l
Ġcla ve
Ġd omin
2 9
Ġ ran
Ġman os
Ġsol u
Ġs ist
Ġvol un
Ġg es
Ã³ mi
ĠmÃºlti ples
Ġter ri
Ġaum entar
Ġ3 7
Ġhom bre
Ġa tra
p ara
Ġofre ce
i tor
Ġeduc a
ti Ã³
Ġsu g
Ġlle va
ĠRe g
quil ib
Ġsol uciÃ³n
Ġaproxim adamente
Ġse is
Ġf eb
Ġmejor ÃŃa
Ġvalor ar
Ġpers on
Ġcomple ta
Ġemp e
Ġporcent aje
Ġentor no
Ġcol ec
8 6
ĠRef iere
til la
Ġevalu ar
Ġblo que
Ã© mico
8 2
Ġas istencia
am er
k s
Ġus ted
Ġnorm ales
Ġp rac
Ġre du
ĠC H
ha bil
Ġden omin
Ġ200 9
Ġp las
ĠRes ul
Ġ il
ĠNe uro
Ġe ti
Ġins tal
viv encia
bi o
Ġsig lo
Ġt asa
ĠT a
Ġf en
Ġdemos tr
Ġde mÃ¡s
Ġl l
Ġre pe
Ġf er
Ġdivers os
ac eta
ĠLe y
tor ial
Ġsatis fac
ĠH ab
clus iones
Ġelem entos
im er
cri pciÃ³n
Ġtras l
Ġsi gue
or ÃŃas
8 5
r ido
Ġcier to
Ġespecial istas
Ġm enci
Ġhe pa
ĠI mp
Ġac ciones
Ġ201 1
Ã¡c ter
Ġdetermin ar
Ġries gos
Ġprotec ciÃ³n
ec re
Ġesta mos
ĠespaÃ± ol
G O
os in
Ġcardi aca
Ġpublic ado
ĠN ue
di miento
Ġl uch
Ġin dica
Ġper ten
ol id
ami entos
Ġhab lar
Ġde man
Ġju g
IC O
ĠperÃŃo do
Ġtu vo
Ġ4 5
pe z
Ġb ra
Ġestruc tura
p aciÃ³n
Ã¡ ticos
ier en
ar lo
m acia
I n
ĠI II
ĠA le
ĠUnivers itario
Ġesc uch
Ġer r
Ġhospit ales
Ġparticip antes
Ġh ig
Q u
p ica
Ġconsecu encia
ti da
Ġv Ã³mi
ĠSoci al
Ġri t
Ġm it
Ġener gÃŃa
Ġd Ã©c
ĠG onz
es tes
Ġcomun ic
ran a
Ġprincip almente
ĠConse jo
a u
Ġda Ã±o
titu d
6 0
Ġglob al
Ġreci bir
Ġex cel
Ġci f
M S
Ġa ire
Ġ â
Ġ201 3
Ġrecomend aciones
ĠAs imismo
Ġaus encia
s u
z Ã³
ĠI s
Ġe uro
Ġ200 8
dom en
es tar
Ã³l ico
ador as
Ġhtt p
i entes
Ġest Ã©
re g
' ,
ĠD er
Ġh ist
u ido
I B
uy en
Ġcar Ã¡cter
dr ÃŃ
Ġb or
Ġrevis ta
Ġorgan izaciÃ³n
Ġacer ca
Ã©r g
U R
am po
? ?
Ġsi m
Ġobs tante
Ġpa ti
Ġfun ciones
Ġrepres ent
Ġent ren
tu ales
Ġgras a
iv as
mi te
d l
Ġelec tro
Ġcorpor al
gu en
Ġaum enta
Ġempres a
Ġd ro
quier en
Ġre quiere
Ġper f
Ġcir c
Ġpreco z
Ġresul ta
ĠR a
ĠA g
mÃ¡ genes
Ġtrabaj ar
z an
Ġpro teg
Ġmay o
es or
Ġlib ro
Ġh izo
ĠT C
Ġin yec
Ġlle g
ogra fÃŃa
Ġexpl oraciÃ³n
Ġdi ar
Ġdi ci
Ġpeque Ã±os
V I
mer g
laz an
mat ologÃŃa
Ġfamil ias
Ġpar tes
Ġte mas
Ġpas ar
Ġ201 5
Ġasoci ado
ĠEstudi o
ran e
Ġprincip io
Ġningun a
Ġapo y
Ġmiemb ro
Ġe de
Ġu b
Ġposi tivo
Ġfuer za
vi embre
c ciÃ³n
Ġen car
me tro
Ġrespons able
Ġdetec ciÃ³n
p ens
car di
8 1
Ġpro vin
Ġs enci
Ġ q
ĠE duc
Ġpat ologÃŃas
ĠEs c
Ġproyec tos
ĠcientÃŃ ficos
Ġjun io
Ġempres as
Ġmovi miento
n al
Ġcer ca
Ġincre mento
Ġestabl ecer
ĠA cu
Ġinter pre
ĠP Ãºblica
Ġpeque Ã±o
Ġlabora torio
ĠJ a
Ġen seÃ±
Ġten ÃŃan
Ġinici al
Ġasoci ada
Ġutiliz aciÃ³n
3 5
Ġmar c
a te
Ġe uros
Ġ201 4
Ġpo p
Ġposi ciÃ³n
amer ic
Ġrecu er
c era
ĠEs tado
ues tra
Ġpro toc
Ġap re
cl er
ros is
Ġpas a
Ġconoci mientos
Ġpro ba
r Ã³
T P
Ġrepres enta
Ġadminis tra
al e
E G
ĠPrim aria
Ġepi demi
Ġelec trÃ³n
Ġen ero
id ores
Ġ200 7
es ta
ĠCol om
Ġvacun a
fica z
ĠO n
Ġn as
Ġidentific ar
ĠC rea
aceta mol
Ġobje to
ĠV er
ĠY o
ĠR u
Ġus ar
aliz ados
an ce
Ġun idad
Ġdici embre
-- --
ĠEs tas
Ġf em
Ġesfuer zo
v era
Ġp in
Ġne ur
Ġvol umen
ĠV P
aj a
Ġ200 6
ulta des
qui era
ĠH er
mil ares
Ġdi g
Ġdescu b
Ġf echa
Ġl um
Ġpare ja
Ġter cer
C A
Ġc m
ĠSiste ma
Ġen lazan
Ġdis nea
ric ular
tr icos
ĠLe ucocitos
mer os
Ġrec ord
Ġde terior
ti ble
ĠÂ ¡
ĠÃºn ica
ĠLu is
osin Ã³filos
b lo
Ġdise Ã±
Ġin gesta
Ġamb as
pos o
Ġas i
Ġi mÃ¡genes
Ġt ales
EN TE
7 1
Ġc erv
pti embre
] .
ĠCO VID
Ġutiliz a
Ġ7 5
ĠM Ã¡s
an d
ĠDE L
ĠAn te
Ġli mp
Ġpermi tir
Ġ4 8
ĠQ ue
t y
olog y
ww w
ĠG r
Ġpre domin
Ġide a
Ġinflam aciÃ³n
Ġhab ÃŃan
ĠD a
es e
Ġdefin i
Ġmar zo
ĠIntern acional
c r
di Ã¡
N A
O G
Ġf on
aci Ã³
mis o
Ġindepen diente
Ġtecn ologÃŃa
Ġcolab or
Ġsuel en
ĠAd minis
D E
Ġres istencia
or k
Ġinter ior
Ġeuro pe
Ġesto y
diz aje
Ġasoci ados
Ġpreo cup
ÃŃ do
Ġdivers as
Ġsuperfici e
Ã¡ lez
bl io
Ġpresent aciÃ³n
Ġb ol
Ġcon ven
R E
Ġcons iste
Ġpos e
ic ular
Ġa gra
Ġo jos
to d
ĠM uch
Ġev olu
Ġinv as
P T
Ġmm Hg
ĠG rupo
Ġselec cion
ÃŃ tico
drÃŃ guez
Ġcam paÃ±
Ġpul m
Ġdific ultad
S A
P A
Ġ3 2
ĠAn ton
Ġt ur
3 4
Ġqu ÃŃ
Ġdistrib uciÃ³n
en as
co pia
Ġdomici lio
Ã ł
ĠD oc
Ġe ficaz
ĠCon greso
Ġcon tiene
in ec
ues ta
Ġpue des
ĠNav arra
Ġedi ciÃ³n
Ġcompar aciÃ³n
Ġ201 6
Ġincluy en
Ġper fec
tri z
Ġoc tubre
ĠPro f
ĠÃ³rgan os
ĠEs peci
Ġp le
Ġrele v
ĠtÃ³ rax
ĠMu jer
Ġbila teral
Ġmedic aciÃ³n
Ġmanif ies
Ġb e
Ġal e
Ġepiso dios
Ġver dad
Ġh ÃŃ
Ġb al
Ġins ulina
Ġdecl ar
Ã³ pez
Ġres pe
T ER
iz ada
Ġaum ent
U M
Ġpel ig
Ġenfer mos
Ġra z
Ġvita mina
9 5
Ġd ud
Ġprocedi mientos
Ġm uc
con s
Ġsens ibilidad
Ã© is
Ġtrabaj os
Ġde pres
Ġsupon e
Ġprofes or
Ġhab l
Ġpu di
Ġmus cular
Ġhaci endo
Ġequi pos
Ãį A
ĠfÃ¡rmac o
Ġlogr ar
Ġe qu
Ġob ra
in s
Ġalter aciÃ³n
Ġdere chos
Ġ200 5
i anza
Ġsignifica tiva
ĠE osinÃ³filos
Ġm ac
Ġel eg
Â Ń
ĠartÃŃcul os
Ġlec he
Ġmit ad
Ġmo vil
Ġvis ita
Ġme mor
Ġobserv a
tri tis
ĠhÃ¡bi tos
% ),
Ġf ro
Ġci clo
Ġambi ente
Ġre por
Ġrespon sa
Ġab ril
u re
Ġj o
Ġeta pa
9 0
m s
f ia
os fa
Ġneu rolÃ³g
ĠP h
Ġcol eg
ĠPA RA
aliz a
Ġcons um
Ġin nov
Ġmenci on
j an
Ġcre a
Ã¡n ica
Ġar ri
Ġrelacion adas
or i
Ġh ues
Ġmas a
ĠÃŃn dice
Ġdes emp
c us
Ġsus tancias
Ġinh ib
Ġsu rg
Ġv es
Ġproduc en
Ġce fal
Ġsi milares
Ġreg ular
Ġ6 5
ĠG luc
Ġma teri
Ġcompor tamiento
Ġt el
Ġmues tras
en de
ĠR x
u g
Ġrecon o
s al
ĠI V
Ġt est
c le
am ma
Ġps i
Ġfo to
ĠB il
Ġac tiva
Ġmater ia
uc le
ar e
Ġsi r
vas culares
ĠRo drÃŃguez
Ġres i
0 1
ĠGonz Ã¡lez
Ġl pm
Ġfuncion amiento
ÃŃs tico
ĠmÃ¡ ximo
Ġcomple to
Ġtor Ã¡ci
Ġtej idos
Ġinter venciones
Ġex p
TI V
Ġa do
Ġcre o
L E
Ġmetab ol
Ġre ce
uel lo
un ci
ta gon
Ġra zÃ³n
ie ga
Ġincre ment
qu ir
Ġex istencia
Ġtoda vÃŃa
I P
t Ã¡s
m ic
ĠComun idad
at ologÃŃa
Ġbas tante
Ġten ga
v ia
Ġprop ie
Ġex ig
Ġocur re
ampo co
ĠLD H
pro f
ef e
Ġvas cular
Ġpre ten
ĠP ers
3 7
Ġd uda
ac er
Ġa gres
Ġsab e
L A
Ġvol ver
z adas
Ġhum ana
Ġf le
Ġno viembre
e tas
om o
Ġestrateg ias
el lo
Ġconoci do
Ġtra tados
Ġo jo
ĠD el
it Ã©
G T
ĠCar di
Ġcompe ten
Ġes pon
m l
Ġ quiere
Ġse par
4 5
uer ra
ĠvÃ³mi tos
Ġper if
ÃŃ es
Ã ģ
Ãºs que
ĠT or
i x
ĠCrea tinina
utri ciÃ³n
Ġcono ce
de mia
Ġensay os
Ġdirec tamente
Ġv in
ĠCon trol
Ġmues tran
da je
ĠD olor
Ġmun icip
Ġb en
Ġre v
Ġsuper vivencia
Ġj ulio
g ias
ĠS us
Ġgen es
ĠCi encias
ĠF in
ma tos
ĠL Ã³pez
ĠT h
ig a
Ġcol es
ĠDe partamento
Ġencon tra
Ġesc ala
Ġnum eros
ĠÃ© po
Ġemo cional
ir ru
Ġac um
Ġespeci es
c ol
Ġen fr
ĠS ol
i lo
Ġpol ÃŃtica
Ġj orn
Ġcomp os
ĠA R
Ġcel ular
ĠF amil
Ġhi p
Ġaf ebril
Ġpalab ras
Ġsent ir
Ġ Ã¡n
Ġen ci
Ġc ru
ĠP OR
ĠP u
Ġten dencia
Ġdecis iones
ĠO s
Ġesp era
Ġtempera tura
Ã© p
n er
Ġcon tar
Ġsecund arios
Ġse ptiembre
Ġusu arios
Ġ3 9
Ġf el
iv e
Ġun idades
Ġinflam a
habil itaciÃ³n
Ġacu dir
Ġtab aco
Ġman tiene
Ġcontrol ar
ta mos
ter ia
Ġcirc un
Ġre tir
Ġdirec ciÃ³n
Ġe quilib
ĠC D
Ġmer cado
Ġmuch a
Ġ201 7
Ġir ri
tas a
Ġre par
Ġanal ÃŃtica
Ġse g
Ġapar ece
ĠproteÃŃn a
pues tos
Ġcomple ment
Ġinf orma
Ã³m ica
Ġcu yo
ci pios
ĠObs erv
Ġincluy endo
ĠCol eg
il aciÃ³n
ĠT er
b al
Ġcl ase
ĠcientÃŃ fico
Ġde fec
Ã©n dose
Ġh in
Ġapren dizaje
Ġbeb Ã©
ĠquirÃºrg ica
ĠColom bia
tar ÃŃa
Ġnues tras
cid as
Ġd an
Ġrit mo
Ġde mas
Ġan teriores
Ġur in
Ġd ol
Ġdetec tar
Ġfis io
Ġsegu ro
Ġfuer te
Ġsu ce
3 1
Ġprevi amente
Ġ bil
Ġpresent ado
Ġcombin aciÃ³n
Ġca paci
Ġdeterior o
T ES
Ġesti lo
Ġre quer
Ġdifer ente
3 2
Ġ ic
ĠN eg
eb o
om Ã©
Ġ200 0
Ġme ta
Ġprimer as
8 7
i ra
Ġf ab
Ġbuen o
ĠL in
Ġs or
Ġb Ãºsque
Ġcomun es
Ġiden ti
Ġv ÃŃas
Ġmun dial
Ġreg res
o k
Ġcu estion
ĠCl in
Ġabs or
Ġen vi
Ġsuje tos
Ġac tivo
Ã© rez
ĠDes puÃ©s
gl Ã©s
Ġmar co
irru bina
ĠA h
Ġdise Ã±o
Ġc ro
is tir
0 2
ĠPo tasio
Ġnega tivo
he imer
Ġpron Ã³stico
ĠResul tados
ĠAl b
m ad
T RA
Ġaquel las
ĠG al
Ġtrabaj adores
Ġf as
Ġhid ro
t ologÃŃa
ac tiva
Ġen fo
ĠgÃ©n ero
ĠlÃŃqu ido
Ġprac tic
9 4
Ġhid ra
Ġrecu per
Ġci encia
Ġpar to
Ãº car
Ġpad re
ĠB a
Ġ200 4
Ġsignifica tivas
Ġsoci o
Ġcontr ario
Ġagu do
Ġreco g
c usiÃ³n
Ġb y
ĠR ad
b aciÃ³n
N o
Ġev entos
di das
ĠAnton io
i mi
Ġps ico
Ġinf il
Q U
cler osis
y n
Ġepiso dio
je cimiento
Ġofre cer
Ġc uello
min aciÃ³n
Ġtra uma
Ġp uer
Ã¡ ticas
Ġtemp or
Ġca pit
ÃŃ amos
__ __
Ġantic uer
Ġmecan ismos
Ġto x
Ġa den
Ġse cu
gui en
Ġdisf ru
Ġv eg
ĠSo dio
Ġent rada
ĠR E
Ġdi ges
A B
Ġafec taciÃ³n
z heimer
Ġconcentr aciÃ³n
Ġindividu os
A U
Ġprevi os
pir aciÃ³n
Ġdismin uir
Ġ ).
Ġdesta ca
Ġdo ble
Ġcol o
Ġau di
Ġcontinu aciÃ³n
c la
Ġpregun tas
Ġdes en
ÃŃ da
ĠMartÃŃn ez
Ġpati ents
ĠRe al
qui lo
al o
Ã ²
Ġpos teriormente
C on
Ġp H
Ġestrateg ia
ti cia
tis ta
Ġpoten ci
k a
ha t
Ġflu jo
in ci
Ġdes tin
os os
ĠH um
Ġplan ta
Ġcons tr
ch ez
ĠM ic
Ġf ran
Ġcl in
Ġcre ar
0 9
Ġpodr Ã¡
Ġrecu peraciÃ³n
Ġconsecu encias
Ġcu ya
Ã© ticas
ĠS ÃŃn
Ġcom ida
Ġten iendo
Ġes as
Ġs il
Ġmode los
com o
ĠI M
ĠR D
Ġcor te
Ġcar b
ĠEC G
ĠGluc osa
l ia
ĠEnferme dades
Ġab an
Ġam or
ĠE P
mat ÃŃes
Ġac ab
Ġlle gada
ti ma
Ġdebe mos
Ġcom ba
Ġcompren de
ĠFe der
ĠMe dic
Ġdi as
ti zar
Ġcapa z
ĠA p
Ġcoles terol
di dos
m icas
ÃŃ r
Ġutiliz ado
Ġv ag
Ġpres entes
ĠPro grama
ol ver
I T
Ġo v
0 7
ĠOrgan izaciÃ³n
h t
tar ios
Ġsecund aria
l l
Ġcar rera
Ġque da
Ġfeb rero
Ġcorrec ta
Qu Ã©
Ġ- -
Ã ī
8 8
ĠHe alth
Ġcon vo
3 9
Ġ201 8
Ġ201 9
ĠÃ©s te
ĠV ar
Ġinstitu ciones
r is
1 00
Ġtraspl ante
ĠH D
it arios
un o
tud y
den a
Ġex presiÃ³n
u ria
Ġmis mas
Ġconsul tas
ĠrÃ¡p ida
Ã¡ us
ĠCl oro
Ġinvestig aciones
ĠA B
Ġemple o
Ġcompro miso
ĠP Ã©rez
Ġmemor ia
Ġci ta
Ġb ro
Ġgener almente
Ġdifer enci
s es
er al
Ġintestin al
Ġdific ultades
ta ur
ĠbÃºsque da
Ġneces aria
Ġac ces
Ġbus car
ÃŃn a
to x
ĠRe v
ĠTo dos
Ġenten der
ĠHemo globina
Ġaz Ãºcar
g in
Ġl an
Ġh on
Ġreac ciones
Ġen z
ue las
t ent
ÃŃcul o
ĠMÃ© dico
Ġadvers os
er e
Ġpre dic
ĠC re
ÃŃ os
m ens
Ġexam en
Ġdeber ÃŃa
ol os
Ġde p
Ġtrad ici
Ġpermi ten
Ġa ur
ti m
Ġop ciÃ³n
Ġdesemp e
Ġaplic ar
og rÃ¡
Ġrealiz an
Ġbo ca
Ġdi aria
Ġcomp r
Ġprin cipios
ĠMe d
so cia
Ġl on
Ġrec or
Ġpe dia
Ġmen udo
ide o
u mir
or t
Ġcar go
f on
ĠB io
tro mb
Ġa gr
Ġin glÃ©s
tu vo
Ġmon itor
ĠT en
ĠN i
r ales
Ġsi tio
ĠM ay
ta ta
Ġr ar
Ġ200 3
Ġdi la
Ġex cl
Ã³s ito
ĠE E
ĠServ icios
Ġextre m
y os
p al
m m
Ġm Ã³
Ġconduc ta
Ġme z
Ġcar ga
g aciÃ³n
Ġg er
Ġap ara
ĠS U
ĠAc tualmente
4 4
Ã³l isis
il ancia
% ).
Ġcol oc
Ġcre aciÃ³n
car dio
an t
ĠS ur
ent ina
Ġne go
cur so
Ġcump li
Ġmol ec
ĠAl cal
Ġn or
Ġw as
mil l
ĠEduc aciÃ³n
Ġaf irm
Ġinv ers
id amente
Ġblo g
Ġm ir
Ġgu ar
ĠUN A
Ġpo cos
Ġalcan zar
am b
Ġre tras
m era
Ġp g
Ġcambi ar
Ġn orma
R C
ĠA na
Ġal tas
Ġqui mio
Ġcomprim ido
Ġpeque Ã±a
Ġanaliz ar
Ġvis to
as as
Ġgas tro
Ġf ra
ĠCh ile
gos to
ĠÃ©po ca
Ġdeci de
Ġanti gu
Ġ5 00
Ġpro pon
Ġli tera
ide z
ĠGr acias
mato crito
Ġab ord
Ġinv ol
ĠP en
Ġre vel
Ġinter na
Ġcondi ciÃ³n
cin oma
Ġre per
Ġpens ar
S e
tr Ã³
Ġpun tu
p ra
til idad
Ġprol on
Ġre almente
Ġdecis iÃ³n
Ġbacteri as
ĠFac ultad
ĠA y
ĠprÃ¡c ticas
ĠH oy
tro p
Ġtrans f
Ġal guien
Ġgran de
Ġis qu
Ġpar Ã¡
ĠAl zheimer
ĠCa tal
Ġro di
0 6
Ġafec tados
Ġllam ado
Ġtrans misiÃ³n
ech os
Ġdiar rea
Ġex pec
Ġacon se
Ġah ÃŃ
Ġsospec ha
Ġprecis a
Ġn ad
Ġme tod
Ġcons tante
Ġfen Ã³m
Ġpro te
ĠP r
Ġcon tras
di eron
i an
ĠY a
ĠC ada
Ġconoci da
ec a
Ġpropie dades
as is
Ġhemo din
Ġay er
ĠIn fec
ĠPla quetas
Ġex ces
ĠÃ³se a
Ġti ro
Ġser Ã¡n
Ġimp le
Ġprev ent
Ġos teo
Ġpoten cial
ĠespaÃ± ola
Ġa gre
Ġpal paciÃ³n
U C
Ã¡n chez
h n
Ġcu Ã¡l
Ġopin iÃ³n
l ig
o cia
Ġelev ada
ĠEurope a
ĠTra baj
Ġutiliz ando
us ia
Ġrespec tivamente
Ġherrami enta
ti ro
Ġintens idad
Ġorig in
Ġdesa par
ie za
ĠTra tamiento
Ġmo tiv
p ico
ĠPue de
Ġcon venci
Ġag entes
Ġ ras
Ġselec ciÃ³n
Ġreci Ã©n
hid ra
ĠF ernÃ¡ndez
Ġpeque Ã±as
ari amente
ĠA M
P R
ĠEv alu
Ġher man
Ġnatural eza
Ġde c
ĠM ig
5 6
tific aciÃ³n
ĠpolÃŃ ticas
i ene
ĠG o
Ġrecib ido
ĠC ab
jer o
ĠF A
er ra
ti endo
ĠP ri
ĠD M
Ġti enes
pl ic
Ġex ten
Ġmie do
Ġon c
IN A
ĠT ran
Ġe merg
ĠP as
Ġasisten cial
ĠFran cis
Ġconcep to
Ġen ve
ĠOb je
Ġsalud able
0 8
Ġex clus
Ġconf ianza
Ġpre fer
k i
ĠT RA
pos iciones
ĠE mp
Ġsign ific
fici t
Ġpri or
ĠF ue
Ġor g
ĠS at
Ġreci bi
ment aciÃ³n
iv amente
Ġdesarroll ado
Ġintegr al
Ġm ig
g al
Ġelab or
Ġcomun idades
Ġfu ente
res is
Ġ &
ĠÃ ī
Ġre p
ĠD ra
Ġposi tiva
Ġcompon entes
Ġan g
Ġviv ir
b en
es o
Ġcl ara
4 8
ĠAn al
e te
Ġoportun idad
Ġreac ciÃ³n
I G
Ã§ Ã£o
ti po
Ġas ma
Ġinicia tiva
t ol
Ġpla ta
E T
Ġelimin ar
C u
Ġcos te
ĠhÃŃ gado
O D
ĠBil irrubina
Ġfal le
ĠprÃ³ ximo
Ġas ocia
ĠPs ic
Ġgen Ã©tica
t Ãºa
Ġmater na
I Z
ĠA meric
Ġau ton
Ġo cup
ĠcampaÃ± a
Ġace ite
Ġver da
e dades
ĠmÃºs ica
H A
6 5
ĠV CM
Ġre des
ĠPe dia
Ġempe or
ĠC ur
Ġhacer lo
r ÃŃa
ĠterapÃ©u tica
Ġg obierno
Ġincl uir
Ġlon gi
Ġne o
Ġherrami entas
Ġpers onales
ĠtÃ©r mino
Ġab und
ĠR ES
Ġmol esti
Ġsuf rir
Ġen d
Ġ200 2
umon ÃŃa
Ġpers pec
Ġac ce
ĠantibiÃ³ ticos
an g
ĠSan ta
Ġmom entos
im as
Ġprobable mente
Ġplan tas
dis cipl
Ġent idades
ĠquirÃºrg ico
ĠDirec ciÃ³n
R S
Ġcon ec
x il
vir us
Ġado p
ĠHe matÃŃes
ac k
Ġrealiz ada
pe u
w s
ĠA rg
ĠS Ã¡nchez
Ġ ),
ĠAlgun os
Ġviol encia
Ġdirec ta
ĠHe matocrito
l le
Ã³n ica
ĠL ab
12 1
Ġn orte
9 9
min os
w e
Ġcons trucciÃ³n
Ġsan grado
de ro
ber cul
Ġbien estar
ĠÃ©s ta
mi as
ĠMan uel
Ġv ul
tr Ã¡s
Ġcal cio
E RA
Ġf oc
Ġg e
ĠEsc uela
Ġhi er
Ġj uego
Ġmoder ada
es a
Ġdro gas
Ġin ten
ri que
Ã³r m
Ġdisposi tivo
tia go
Ġme mb
er ÃŃa
Ġve lo
Ġ ï
Ġub ic
ci mientos
Ġhum an
Ġau tÃ³n
Ġaban don
Ġlengu aje
Ġresponsa bilidad
7 4
Ġd u
ĠD ie
plas tia
ter ales
Ġjo ven
Ġ Ì
Ġbas es
Ġt ÃŃ
Ġvers iÃ³n
E A
Ġalar ma
estes ia
ĠH ola
Ġpro medio
Ġcam ino
qu en
iz ados
Ġenci ma
Ġdeber Ã¡
ĠH is
Ġcorre l
Ġbenefici o
id or
is i
Ãº mina
t ador
Ġllam ada
Ġprovo car
ti ciÃ³n
el la
t ones
Ġregis tro
tos is
Ġconsider ar
Ġgluc osa
Ġprovin cia
ĠV ir
Ġespeci e
Ġal iv
ĠH em
Ġt ampoco
Ġent idad
Ġensay o
Ġvacun as
Ġan ci
Ġgrave dad
in es
Ġg al
Ġmar ca
Ã³ b
Ġinf arto
Ġami gos
am entos
vi e
Ġan gio
ĠAL T
Ġcul tura
Ġalum nos
Ġcircun s
Ġna turales
Ġclas ific
Ġposi bilidades
Ġco inci
ĠH TA
Ġc Ã¡l
Ġmecan ismo
Ġmovi mientos
Ġpregun ta
Ġx mill
ĠP an
Ġdi ario
e y
ĠO R
O P
Ġres oluciÃ³n
Ġavan ces
ĠR am
Ġre cl
ar ÃŃa
Ġar g
est aciones
Ġdi o
Â» .
Ã¡ mica
7 3
en se
Ġvaria ble
Ġa trib
ig ue
Ġf ron
tr icas
om al
Ġpe diÃ¡
de o
Ġpromo ciÃ³n
ĠAS T
or g
ri endo
Ġpro pios
Ġconj un
ĠIn cl
t ment
ra gia
Ġexpl icar
Ġconstituy e
Ãº an
4 6
it ales
Ġac ad
Ġtrans mi
Ġgr ad
ĠH CM
br al
ĠRe activa
Ġnervi oso
ĠEx isten
. :
Ġtendr Ã¡
ĠE M
Ġlongi tud
ĠpÃ¡g ina
Ġpue do
en da
Ġobten idos
Ġten gan
Ġel Ã©c
Ġterri torio
s an
Ġlitera tura
co p
ĠmÃŃn imo
Ġmanten imiento
Ġhep Ã¡tica
ĠD ios
l or
Ġdes c
Ġgener ales
Ġest an
Ġin con
Ġdis tal
Ġmm ol
l ando
tico ag
Ġg ol
Ġafec tar
ul ado
Ġex pon
AD O
Ġindivid ual
Ġt ÃŃtulo
Ġac to
re mos
ĠG amma
ul aciones
mer as
4 2
Ġvas o
Ġabs olu
u b
Ġpe or
il d
Ġmateri ales
Ġesta ban
Ġso y
Ġhab la
Ġan a
ĠHab ana
Ġide as
Ġdepen de
e di
Ġtotal mente
Ġfem en
Ġdesta car
ĠCom isiÃ³n
Ġutiliz an
ĠtÃ©r minos
Ġapar ecen
ĠHi per
Ġori ent
Ġdes can
Ġasoci adas
Ã³r ico
Ġall Ã¡
Ġsec ciÃ³n
Ġrelacion ado
Ġri Ã±
Ġex cep
CI A
Ġconcre to
Ġres erv
Ġutil idad
ĠL OS
6 9
Ġmal a
ĠBas Ã³filos
Ġcor to
ĠespaÃ± oles
ĠÂ ·
ĠespecÃŃ ficos
plas ia
Ġcir cul
Ġc oci
Ġparticip ar
ĠF er
Ġsu ple
Ġha bilidades
il las
osfa tasa
ĠAh ora
d Ã³n
pat ÃŃas
Ġcardio vasculares
Ġespeci alidad
ĠAD N
ĠM as
og Ã©n
es te
ĠSan tiago
Ġap un
Ġdispon ible
Ġh ue
Ġ200 1
Ġejerci cios
Ġencuent ro
ĠÂ ±
Ġlle ga
Ġpon e
op era
Ġev ento
Ġdispon ibles
ĠX X
Ġinvestig ador
Ġc osa
tic al
Ġv Ã¡l
ĠcardÃŃa ca
ĠProteÃŃn a
ĠcompaÃ± ÃŃa
Ġdi ez
ĠI g
ĠFrancis co
Ġtera pias
Ġdi Ã¡
aj as
t ente
Ġpresent Ã³
Ġqu in
ĠeconÃ³m ica
Ġpulm Ã³n
Ġcaus ar
ĠrÃ¡p ido
Ġelev ado
5 8
ĠInter na
Ġcons olid
ĠVP M
ÃŃ geno
ĠRD W
aci o
ĠAc tividad
mÃ¡ ticas
Ġre poso
ic ales
Ġimp os
Ġvi ene
Ġanticuer pos
ĠH o
Ġvin cul
Ġreconoci miento
Ġcol um
Ġsuper iores
g ro
l ine
Ġvis ual
ĠAm Ã©rica
Ġactu aciÃ³n
Ã³n ico
ĠMig uel
arrol lo
tal m
ĠCH CM
Ġfis i
Ġex ceso
Ġpa trÃ³n
Ġa gosto
Ġimp uls
Ġp ic
tis tas
Ġllam a
Ġgri pe
Ġdi vi
Ġre cha
G PT
ĠCi udad
Ġhepa titis
Ġsens i
Ġf ol
Ġpre cio
Ġprogra m
Ġb re
7 8
an to
Ġde porte
Ġrecur r
Ġsenci l
Ġhe alth
Ġres puestas
Ġmanif es
Ġt asas
ĠJ es
tri a
5 5
Ġelec ciÃ³n
me z
Ġinf ancia
Ġso porte
Ġneces arios
Ġfi gura
ri os
or gan
Ġcif ras
Ġlac tancia
Ġde ja
ĠSu per
f ar
Ġbi blio
Ġdisf unciÃ³n
Ġamp lia
ue lo
. )
fici al
4 3
rane al
Ġconf lic
Ġpropor cion
Ġf om
Ġfor tal
Ġh as
Ġneces itan
ID A
ÃŃ m
Ġn ar
I CI
Ġo tor
Ġ9 8
Ġreduc e
Ġsos ten
Ġapro v
* *
Ġexperi encias
ĠO tros
Ġhe ma
Ġmol Ã©
ĠM E
Ġ4 1
Ġcapit al
Ġl ista
tor i
Ġper der
ig na
ri miento
p to
th er
GO T
j es
Ġindustri a
Ġnad ie
Ġinici ar
Ġesc uela
Ġinfer iores
Ġciru j
ĠâĢ Ķ
Ġpubl icaciÃ³n
c to
Ġob ras
in dic
Ġpres u
ĠparÃ¡ metros
Ġestudi ar
Ġsa tur
f in
Ġdud as
Ġdemas iado
Ġfacil itar
Ġnutri ciÃ³n
Â ®
den tal
Ġr is
Ġfro m
p us
an s
Ġregis tr
Ġdeman da
Ġpar ed
Ġv amos
Ġinflu encia
Ġas in
Ġcon gÃ©n
Ġt hat
ĠG er
Ġfar macia
ĠcrÃ³n ico
Ġper ci
Ġcon vier
T C
ici na
Ġal ea
Ġintern acionales
b ro
Ġad her
ĠmÃºs culos
ente mente
Ã³ di
Ġtor no
ĠProteÃŃn as
Ġmio cardio
d s
ĠT ri
ĠSÃŃn drome
Ġelem ento
Ġ5 5
Ġprepar aciÃ³n
ĠÃºlti mas
Ġbus ca
r Ã¡n
Ġvacun aciÃ³n
Ġcon tro
ĠterapÃ©u tico
Ġgu ÃŃa
4 1
ent almente
i mientos
Ġinmun o
Ġper it
ĠIN R
ĠTo do
Ġcumpl ir
Ġan ticoag
Ġs tudy
ĠB er
Ġsintom atologÃŃa
Ġjorn ada
Ġconsul tar
Ġh ici
ĠseÃ± ala
Ġpen diente
4 9
ul tura
ĠColeg io
ĠD o
k g
Ġre ca
Ġdescri p
hi bi
Ġop ciones
Ġelev aciÃ³n
Ġme l
Ġdin ero
Ġe m
Ġpol i
Â» ,
Ġafec tan
Ġo cu
ĠVal encia
Ġcan dida
z ca
ĠlÃŃn eas
tromb ina
Ġcefal ea
Ġesc olar
Ġvas os
ĠR os
Ġcl Ã¡s
Ġcomple jo
Ġdocum ento
ĠmÃ¡ xima
Ġpau ta
ĠTran s
Ġmon o
Ġes encial
Ġsex uales
ĠespecÃŃ fico
Ġle er
Ġnutri cional
Ġgas to
Ġ4 6
Ġproba bilidad
Ġprovo ca
Ġrealiz ados
tas is
Ġimp lica
Ġagra de
Ġingres os
s iÃ³n
ĠC Ã¡ncer
Ġh og
Ġcan cer
Ġal Ã©rg
t bol
ar t
Ġapren der
Ġ9 7
Ġreg iones
Ġden s
prof eno
Ġnega tiva
Ġcomer ci
ar la
Ġar teri
Ġsal ir
Ġrespons ables
ĠCom itÃ©
ic es
ti bles
Ġs esiones
Ġestruc turas
ro bi
ĠdÃ©c ada
ĠF osfatasa
Ġsu puesto
8 3
ti das
Ġen l
Ġdi entes
Ġre habilitaciÃ³n
S S
I F
ĠtÃ³ x
Ġactu ales
Ġcal or
x ia
Ġw ere
Ġab domen
Ġsol a
Ġconten idos
Ġparti do
ona to
Ġpel ÃŃcula
... ]
Ġlar ga
Ġpre vis
Ġtecn ologÃŃas
d ula
Ġfaci al
ur nal
Ã¡n ico
Ġconte mp
Ġres id
f t
i el
f orma
Ġle uc
Ġcier tos
Ġgen Ã©tico
ĠdiagnÃ³s ticos
t adores
Ġrelacion ada
Ġmunicip io
Ġcro mos
ĠEspeci al
ĠLe Ã³n
Ġexcel ente
min as
ru z
ĠAlcal ina
Ġj ur
Ġlugar es
i ro
Ġb rin
ÃŃ ticos
ĠNue va
pen ia
Ġquimio terapia
g li
g ran
Ã³s tata
Ġest ancia
Ġvent ricular
4 7
Ġform ar
Ġcu ra
c ando
Ġtab la
Ġenfer mera
Ġsue lo
Ġg a
Ġl un
ĠtorÃ¡ci co
Ġesfuer zos
Ġconci encia
Ġluch a
ec tomÃŃa
fici o
Ġcap aces
Ġasoci aciones
uy endo
tu re
Ġt ensiÃ³n
am ento
Ġcompos iciÃ³n
Ġposi tivos
ĠE di
Ġper iÃ³
Ġapar ecer
Ġfu entes
Ġbuen os
ĠO l
Ġenfer mo
Ġcons ciente
ci to
ĠM er
Ġtiemp os
ÃŃ z
Ġex tensiÃ³n
ĠprÃ³ tesis
olog ia
Ġp ene
ĠAdminis traciÃ³n
ten osis
Ġgener aciÃ³n
Ġpue blo
Ġcomien za
in ter
ĠTras tor
Ġgus ta
Ġsignifica tivamente
ĠmÃ© dicas
Ġci ca
Ġcumpli miento
Ġconver tir
Ġic tus
Ġcu tÃ¡n
Ġusu ario
Ġade lante
Ġox ÃŃgeno
ĠCardi ologÃŃa
C L
ĠCas tilla
Ġinteres ante
Ġb uc
ĠCa p
ues tro
ĠdÃ© ficit
Ġam ar
Ġreciente mente
er an
ĠCon clusiones
Ġsom os
ĠeconÃ³m ico
Ġf Ã³rm
Ġede ma
Ġdeb ajo
Ġ ÃŃ
ĠN iega
ĠV ic
V A
Ġl is
ÃŃ ticas
Ġprogres iÃ³n
C H
f f
ĠC A
Ġven osa
Ġciudad anos
Ġconf orm
Ġter cera
Ġgener ar
Ġextre mo
Ġindividu o
Ġcateg orÃŃa
ĠcrÃ³n icas
pe mia
Ġen f
OL OG
pes o
Ġmanif estaciones
Ġenfo que
p ren
Ġcerv ical
Ġar teria
ir se
Ġqu iz
f ro
Ġgras as
Ã³ mez
ges ia
Â ¿
Ġcontinu a
Ġcu Ã¡n
Ġe c
Ġas es
di dad
Ġau tom
Ġo peraciÃ³n
me di
Ġsuf ren
bercul osis
Ġj efe
ĠMÃ© dica
Ġcompar tir
Ġal mac
ĠR M
Ġ9 6
Ġdescon oci
aci ente
ogra ma
Ġloc ales
Ġrecep tores
Ġpresent aron
ĠA ca
Ġpodr Ã¡n
Ġcompro me
mÃ¡ tico
Ġvar ones
ĠespecÃŃ fica
ter os
Ġpe lo
im en
Ġrecon s
Ġr os
Ġal tos
Ġ quier
Ġ7 2
Ġdescri to
up ne
Ġencontr ado
L os
ĠO c
ĠB e
tÃ© ter
lam a
Ġesc al
Ġenve jecimiento
Ġdolor oso
Ġpro puesta
5 9
Ġprotoc olo
uc ÃŃa
on s
ĠF is
Ġac re
Ġno ve
Ã³g enos
O RA
ĠP ed
Ġencontr Ã³
Ã³m ico
c k
Ġpr Ã³stata
Ġm ente
ab la
tro fia
Ġhay an
Ġmin is
... )
6 6
II I
ĠpÃºbl icos
Ġla teral
Ġver ano
Ġp echo
Ġd ura
ĠE ti
5 3
g ados
Ġper ju
Ġm ales
Ġmad res
Ã©r ico
ĠEnferme dad
7 7
Ġan emia
Ġgaran tizar
Ġte xto
Ġren dimiento
Ġmolesti as
c ambi
Ġlum bar
ru p
Ġsegu ra
Ġindic ado
Ġse ver
Ġdirig ido
Ġpro tagon
Ġcompon ente
Ġmas cul
Ġcomen zÃ³
l ado
Ġsus tancia
Ġden tal
Ġhtt ps
Ġdisposi tivos
Ġinform ado
Ġ4 2
Ġar te
d ra
Ġequ iv
Ġnaci miento
Ġ |
ĠObserv aciones
Ġcon lle
ĠmÃºs culo
ĠM il
ĠS N
Ġgen era
Ġcomp ara
Ġorganiz aciones
to do
ĠDia gn
Ġa un
Ġcon ce
O B
y ac
Ġhi ja
Ġcorrespon diente
Ġle van
Ġdepen dencia
ay a
ĠC os
Ġvis u
9 8
Ġasin tom
Ġefec tu
Ġ3 00
Ġco ber
u resis
ĠAc tu
ĠOn c
Ġestu vo
Ġaprov ech
ĠC er
Ġavan zada
Ġvelo cidad
ĠDes arrollo
Ġamb ula
Ġn acionales
ar te
Ġno ta
Ġinter val
Ġ4 00
mon io
ĠM ur
Ġpulmon ares
Ġenfer meras
Ġinvol uc
Ġsan idad
Ġs esiÃ³n
um ento
ig ur
ci entes
Ġrodi lla
Ġsatisfac ciÃ³n
Ġhu bo
ul ada
Ġidentific aciÃ³n
de d
Ġsi ete
Ġsanit arias
Ġabor daje
Ġhu bi
Ġdescar tar
ĠA G
am e
fici entes
Ã¡m ara
ĠE X
Ġsal ida
ĠIN F
Ġca v
Ġ8 5
Ġclas ificaciÃ³n
rea tment
ĠPaci entes
ĠT u
i ona
Ġpi es
Ġse vera
Ġall ÃŃ
Ġper cepciÃ³n
dis mo
r y
Ġtrasl ad
Ġcons ta
ĠÃģ n
Ġrespira torio
Ġex ac
ĠE pi
ĠfarmacÃ©u tico
Ġaf irma
Ġpro pias
Ġin es
Ġre quieren
Ġfin ales
Ġte orÃŃa
Ġrecep tor
Ġi gu
it ado
ĠespecÃŃ ficas
Ġe dades
ĠA ut
s ion
c y
Ġg inec
Ġsug iere
9 6
Ġrelev antes
Ġda Ã±
un iden
Ġperman ente
Ġpar acetamol
ch ar
Ġtal ler
Ġcolum na
tri o
Ġcu estiÃ³n
3 121
Ġnega tivos
Ġform an
Ġn Ã¡us
rec en
Ġpreten de
Ġinte lig
Ġcogni tivo
Ġraz ones
Ġpropor ciÃ³n
ĠÃ³rgan o
Ġtemp oral
Ġran go
Ġrel ig
Ġsalud ables
Ġbaj as
c oles
F A
' s
Ġprofun da
ĠHem Ã³lisis
Ġapar e
Ġsol amente
lo p
Ġca tÃ©ter
ĠestÃ¡n dar
Ã¡s er
C T
m enta
Ġentre vista
ĠTo tales
ĠFar mac
quia trÃŃa
Ġest Ã©tica
Ġest Ã©n
Ġnor mo
Ġan ual
x is
ĠmÃ³ vil
Ġcontrol es
f as
S I
Ġconcentr aciones
l ina
Ġutiliz ados
ber to
Ġv s
j ado
ĠS ecre
Ġtar eas
ch es
ĠG Ã³mez
us a
ĠM ol
ĠP l
ĠT Ã©cn
Ġver te
uma b
Ã ĳ
ĠIn tro
y ch
ĠB al
Ġdesen ca
Ġne umonÃŃa
Ġe f
Ġprofes iÃ³n
ĠRad io
ĠO MS
Ġtrans porte
ĠT om
Ġevi den
t ÃŃa
Ġcier tas
Ġmor f
Ġacci dente
Ġtoler ancia
6 4
ĠArg entina
Ġol vid
g Ã³
aliz adas
e mb
Ġproteg er
c tur
ĠS ch
Ġreun iÃ³n
ĠF i
Ġ9 9
Ġplac ebo
ĠF u
Ġam ena
ac ciÃ³n
ĠJes Ãºs
Ġf irm
ĠS h
ri eron
Ġhig iene
Ġpelig ros
Ġmolec ular
Ġtran quil
ĠJo urnal
Ġbron qui
Ġtemp ran
Ġesp al
ĠPro trombina
ĠÃºn icamente
p ol
ĠAlb Ãºmina
Ġpres cri
Ġincl usiÃ³n
ti di
IEN TO
........ ........
Ġpop ular
Ġconsi gui
Ġpre ma
qu ina
ĠT AC
Ġamp lio
Ġfrac tura
es is
' .
Ġc Ã¡
Ġ4 4
Ġpredomin io
Ġ4 9
Ġsu ger
Ġo fer
ĠcompaÃ± eros
Ġm ÃŃ
Ġconse jos
Ġpar cial
k er
Ġcontinu ar
Ã© g
ĠDis pon
Ġsi guen
Ġbuen as
Ġtu vieron
Ġbio psia
ĠT ro
6 1
ra me
Ġvig ilancia
Ġelimin aciÃ³n
Ġsu ici
Ġaf ron
Ġdis posiciÃ³n
Ġdor mir
orm al
gu a
Ġsolu ciones
Ġmostr Ã³
te li
ĠC R
Ġcer c
Ġpersonal idad
v ul
Ġcoron aria
am an
ĠN utriciÃ³n
ĠUn o
Ġt ron
it ando
ĠG as
Ġhabi tantes
Ġalterna tiva
Ġo cho
Ġpro ve
Ġesti ma
Ġacre di
ber n
vil la
Ġte x
Ġpade cer
Ġmo tor
Ġtrans vers
am o
Ġe mi
Ġ199 9
Ġw ww
u a
Ġprogres iva
Ġ it
ter n
Ġre mi
Ġcon tienen
Ġcompues to
5 4
Ġpo dido
ri as
6 7
Ġequilib rio
ĠcientÃŃ ficas
ĠInter net
Ġv enta
Ġfin almente
T OR
d uras
Ġdis tancia
Ġentren amiento
Ġint entar
Ġrealiz adas
ĠFeder aciÃ³n
6 2
ĠterapÃ©u ticas
t res
b us
ĠH ernÃ¡ndez
Ġins er
Ġobserv Ã³
Ã¡s tica
w n
Ġefec tividad
Ġa mino
ĠJ unta
5 2
Ġide al
ĠÃ¡ r
Ġcul tivo
be tes
re d
lan d
C E
Ġindic an
Ġacce der
qu Ã©
Ġdef ensa
ĠB ol
Ġcaracter iza
Ġan omal
Ġ ido
tr u
S E
ĠF o
cul as
ĠPsic ologÃŃa
Ġactu ar
ent er
ĠM A
Ġmu taciones
k o
ĠPed ro
Ġres olver
Ġempeor amiento
Ġexplic ado
Ġb om
ĠM al
Ġmuer tes
tar Ã¡
Ġn ucle
Ġnorm as
Ġac lar
Ġcontrib uir
tr ones
Ġdesp laz
Ġinclu idos
Ġmetabol ismo
Ġl ic
Ġobserv aciÃ³n
ĠE F
Ġs Ã©
Ġfundam entalmente
ĠV i
Ġtrabaj ando
Ġloc alizaciÃ³n
Ġ15 0
ĠV as
9 7
ĠB en
tal la
Ġfon do
Ġno ctur
Ġtra tado
Ġneces arias
uy Ã³
ĠÃģn gel
Ġpromo ver
tran s
Ġin g
Ã©g imen
Ġa Ã³r
ĠÌ ģ
g luc
Ġexper to
Ġtradici onal
Ġhospital aria
Ġn g
ar do
Ġestad ÃŃs
enci ales
ĠO N
5 7
Ġci ne
Ġpre ci
Ġro de
Ġestable cido
Ġ4 3
kin son
Ġinstitu ciÃ³n
ĠfenÃ³m eno
Ġac titud
Ġej ecu
Ġespeci ales
Ġt re
Ġen v
am p
Ġconvo ca
Ġinstal aciones
ĠvÃŃ c
ĠAcu de
Ġcual quiera
Ġocas ion
cin di
r er
Ġf ir
Ġser es
us e
ĠB ras
Ġobserv an
Ġpro xim
h or
Ġv ideo
5 1
ier ra
Ġar tritis
Ġapre ci
gr os
ent imiento
Ġ Ãºl
ru mp
Ġe je
n ia
Ġal tura
ĠFin almente
Ġ rol
Ġf rag
ĠT TP
Ġrealiz aron
Ġd ando
ĠL ib
ĠUn iÃ³n
Ġpobl aciones
Ġdis cipl
ar y
Ġderiv ados
oc en
u matologÃŃa
ĠMuch as
Ġempez ar
li tus
ĠH asta
Ġllev ado
Ġapara to
Ãº bi
ent ro
Ġex tens
Ġlib ros
ĠM M
ma go
Ġtr Ã¡
us al
Ġcur sos
ĠVar Ã³n
Ġac el
AD A
Ġdesc enso
vi ene
ĠLin ks
Ġobserv ar
Ġg uerra
Ġestad io
ĠnÃ¡us eas
Ġma es
Ġca dena
Ã³di go
ĠSe guridad
Ġa dic
Ġde mo
Ġanim al
Ġalgun o
ĠDÃŃa z
Ġaplic aciones
Ġper me
Ġci cl
Ġmo tivos
fic amente
Ġembara zadas
v ado
ĠG en
ĠO tro
Ġorig inal
Ġintestin o
ĠÃ¡n imo
Ġhier ro
Ġan teriormente
Ġv ital
Ġfum ar
Ġperspec tiva
Ġre quis
u Ã±a
Ġ4 7
ri ente
fer a
Ġvo z
Ġdes ay
Ġb eta
V P
Ġcre e
Ġcu ar
te gr
tos a
Ġbaj os
ĠrÃ¡p idamente
u almente
Ġdismin uye
f ÃŃas
6 3
tr ados
Ġen dos
Ġquer emos
Ġv oc
Ġve h
Ġbas ada
Ġestabl ece
ĠCi entÃŃ
ti ga
Ġcal le
Ġar ro
Ġelab oraciÃ³n
ĠY ork
Ġs Ã³l
Ġcomple tamente
qui Ã¡
Ġsobre peso
in testin
Ġdesarrol la
ĠAut Ã³n
Ġad quir
Ġcon vir
ci ne
x iÃ³n
ec uciÃ³n
Ġdomici li
ĠW il
xi mos
Ġautor idades
Ġsignifica tivo
Ġcober tura
Ġbas ado
one al
Ġt to
Ġsal a
Ġres taur
Ġcorrec to
ĠE j
Ġan estesia
Ġpr ensa
i ti
9 2
Ġinstrum ento
ĠB ra
Ġgl Ã¡nd
tin encia
A l
Ġrespira torias
Ġfra cas
ĠMÃ© dicos
Ġbeb idas
ĠfarmacÃ©u tica
Ġ um
ĠenseÃ± anza
Ġcam pos
ys is
Ġestado uniden
it arias
l in
ĠC L
ĠDia betes
Ġfin es
S O
Ġd ren
Ġas ign
gen era
Ġmales tar
P or
Ġenc uesta
Ġvari edad
Ġesper ar
Ġo cular
Ġnas al
Ġcab ello
Ġpo bre
ĠAn ti
Ġefec tiva
Ġcier ta
Ġeco grafÃŃa
ĠA us
Ġsus cep
Ġsu minis
Ġespecial idades
V C
Ġinterac ciÃ³n
en den
ĠF E
Ġn ec
ĠRe p
Ġsolici ta
8 9
Ġen can
Ġfas es
Ġcor tico
Ġl ine
Ġk g
Ġcuestion ario
Ġblan co
ĠG ra
Ġespal da
Ġg Ã¡s
ĠM en
Ġeta pas
Ġes co
ID AD
Ġinter cambi
li ta
T OS
Ġantic on
Ġne ona
Ġrecibi eron
Ġapor ta
ĠM ED
ĠL AS
esti ones
Ġgra tu
Ġdens idad
Ġmovil idad
n cia
Ġme tas
Ġcanti dades
in fec
Ġher ida
or ina
Ġapro pi
ĠEstudi os
Ġaur icular
Ġest ÃŃm
Ġdoc tora
Ġmulti discipl
x o
Ġa re
Ġentre ga
Ġar ti
Ġa vis
ren al
Ġest ados
Ġtemp rana
Ġemo ciones
Ġex pan
Ġcon v
Ġoblig a
Ġtom ando
tr on
qu ismo
ĠN E
mi tes
Ġprop Ã³sito
Ġencontr aron
Ġan o
ĠEx pl
Ġencontra mos
ĠP ER
Ġsim ul
z ando
mi os
Ġreg ul
Ġqui ero
oc k
Ġobserv ado
idad os
in mun
ĠmÃºlti ple
ĠRe d
or ge
jer on
ĠF ern
Ã©n d
f os
ĠEs tÃ¡
Ġhe ter
Ġes que
Ġes ter
p y
Ġsimple mente
Ġemb ri
e go
ĠT ecn
ĠT era
ĠC U
Ġsus pen
ĠV e
pec tivo
Ġimpres cindi
Ġ" ,
Ġpres erv
ĠGran ada
es truc
Ġeti ologÃŃa
Ġhip Ã³
z ep
Ġimplan taciÃ³n
Ġdol ores
Ġca dera
til las
ci pa
Ġcon vers
Ġsu ero
Ġpron to
ĠAn d
ĠJa vier
top era
om en
Ġpres cripciÃ³n
s or
Ġ199 8
Ġs ta
ici on
Ġnumeros os
Ġadul to
Ġanal gesia
Ġtu berculosis
Ġconside ran
EM A
Ġci to
ti cias
bi os
c ada
Ġhues o
il es
Ġme tros
Ġapro b
Ġcorrespon de
d f
Ġun iÃ³n
Ġhemor ragia
Ġlle van
Ġest Ã³
Ġcolec tivo
dal ucÃŃa
C S
tec ciÃ³n
Ġcri terio
Ġas pir
Ġestim ulaciÃ³n
Ġal o
T EN
P L
ph y
ĠD ic
ĠTTP a
le o
Ġexter na
Ġsuje to
Ġener g
ĠM G
Ġa Ã©
j aciÃ³n
Ġl Ã¡ser
P I
Ġbas a
m ue
Ġinte lec
g or
Ġindic adores
TA M
ĠPres idente
Ġer ite
Ġmedi r
Ġcomen zar
ĠR om
p icos
Ġp h
ĠS ta
Ġcam a
27 33
Ġjug adores
Ġcoordin aciÃ³n
Ġag ente
Ġcom enta
Ġfru tas
ĠDE S
ĠmÃ© dula
Ġf res
Ġpropor cionar
Ġcol om
g Ã©s
Ġconsider ado
ĠIntro ducciÃ³n
Ġcompa tible
ĠÃ³ pti
ĠN os
Ġinfec ci
ĠÃ ļ
Ġalim ento
tar a
Ġdirec to
Ġdi chos
Ġb acter
Ġresi dentes
ec on
Ġv ier
Ġco ag
p in
Ġase gura
ĠcÃ©l ula
ĠestÃ³ mago
Ġtra to
ĠT al
P E
an da
ĠS ci
Ġesc en
do c
r ados
Ġcul tural
Ġcarb ono
Ġconduc tas
Ġcan al
Ġfib ro
Ġvent ajas
on ancia
f en
Ġrepro duc
8 4
ific ar
f ono
yec to
Ġinform es
Ġcircuns tancias
Ġfle xi
i mp
cl usiÃ³n
ĠS il
Ġti erra
Ġci vil
Ã³m icas
Ġac tivos
Ġrecono cer
ĠU CI
ed or
Ġmo d
ÃŃ l
ĠE cu
Ġdes cen
Ġaden o
ĠMe j
Ġli bres
Ġadministr ar
tu des
dr Ã¡
m us
ĠA f
Ã³r ica
Ġdirig ida
R O
man ia
Ġabier to
Ġges taciÃ³n
Ġpade cen
ĠU ro
Ġdefini tiva
ra mos
Ġ[ ...]
Ġlimi taciones
00 1
ear ch
Ġinh al
ĠAl im
ĠH ar
Ġcompren der
ĠAn dalucÃŃa
Ġinten so
Ã©r icos
Ġdesenca den
ĠTrabaj o
l ÃŃn
Ġreci entes
Ġa pe
Ġre mo
Ġcomp res
ĠAg encia
Ġreci be
ĠRe y
Ġpier nas
Ġus a
ĠdÃ©c adas
Ġadap taciÃ³n
Ġdeb ate
ti d
americ ana
s in
Ġpos teriores
ĠInf ormaciÃ³n
Ġc ari
que z
Ġtrans form
Ġenc ues
Ġple ural
Ã³ d
Ġnutri entes
Ġtempor ada
9 3
ĠSo bre
ĠnÃº cle
gur os
Ġpublic ados
Ġex tran
Ġcoment arios
Ġcos to
Ġl in
Ġrecib en
Ġas esor
ĠC ruz
TA R
T IC
Ġex terior
Ġre tro
Ġ" .
Ġhabi tuales
ĠTi ene
ita t
Ġpalab ra
Ġdem encia
Ġlengu a
Ġres umen
r us
el le
Ġpos topera
ĠA mb
Ġdispon e
ĠelectrÃ³n ico
Ġfrecuente mente
Ġprodu cido
27 38
ĠB ur
ti mi
ĠPedia trÃŃa
Ġintra ven
Ġcom idas
Ġ5 2
ce dente
Ġrecuer da
Ġescas a
OR M
Ġtar ea
Ġcorre g
Ġnorm almente
C Ã³mo
s ar
ĠM us
ci almente
um e
Ġacci dentes
or e
r eras
Ġespaci os
Ġcompeten cias
Ġcircul aciÃ³n
ĠÃ³ p
Ġca ÃŃda
id aciÃ³n
ĠI c
---- ----
Ġobje tos
Ġconse gu
Ġviv o
Ġad qui
Ġconstituy en
ĠtÃ©cn ico
ĠdiagnÃ³s tica
ĠPu bl
Ġbeb Ã©s
Ġdig ital
ĠH b
ĠO f
Ġmedi as
Ġhospital ario
Ġerr ores
Ġpo dÃŃa
Ġcar cinoma
ĠEP OC
Ã³lo ga
ĠG ar
Ġindic aciÃ³n
Ġinhib idores
Ġsu m
ĠFran cia
Ġavan ce
ĠM c
Ġtrabaj a
Ġcereb rales
Ġaten der
Ġhacer se
Ġreci biÃ³
ĠF oral
Ġhe mi
Ġap enas
y l
olu cion
ti os
ĠJ im
H C
titu des
Ġdetermin ado
R e
Ġde partamento
Ġdis cre
ĠB lan
de pen
Ġt reatment
Ġpu do
Ġsab emos
icar dia
tric es
Ġtel Ã©
Ġdisfru tar
ĠlÃŃqu idos
Ġintegr aciÃ³n
Ġr Ã©gimen
ĠO tras
tra to
Ġayud an
Ġï Ģ
b ular
Ã© micos
ys te
Ġalmac en
Ġder rame
Ġescri to
Ġinnov aciÃ³n
Ġesper anza
Ġgu ÃŃas
Ġt Ãº
inf lama
ĠAn Ã¡lisis
de x
Ġform ado
ĠJ orn
bu profeno
Ġfinanci aciÃ³n
to dos
me trÃŃa
tr ar
Ġni Ã±as
Ġllev Ã³
f ol
Ġpose e
. "
ent en
Ġprevi as
i ana
Ġpe dir
CION ES
tific ar
Ġsan os
Ġcom e
ĠÃ¡ cidos
ps is
aba quismo
lo go
ĠC AR
ĠaÃ± ade
ĠV en
ti mas
en qui
Ġdestac ado
Ã©r icas
C o
jer ÃŃa
Ġindependiente mente
p r
Ġmemb rana
Ġ5 4
Ġarteri as
Ġcompues tos
fic aciÃ³n
Ġdetermin ados
iden ta
Ġes ca
an e
Ġofici al
ĠH ol
Ġinyec ciÃ³n
til lo
Ġcorre o
Ġexp lo
Ã³ tica
z ados
Ġpo cas
f Ã©
Ġan tÃŃ
Ġnaci do
Ġdis co
mÃ¡ ticos
ĠEvalu aciÃ³n
Ġman ip
Ġperten e
TA L
Ġcomp ra
per o
ĠH u
Ġgastro intestin
ĠA gu
Ġde do
- ,
TIV O
Ġurg ente
m al
z uela
om os
ĠF or
Ġsug ieren
TA S
ĠfÃ³rm ula
Ġ6 4
cÃ³ pica
Ġsecund ario
ti ende
tic s
Ġviv en
Ġhog ar
te in
ĠSoci ales
per s
ĠP on
ĠH EM
P C
Ġah or
Ġcomprim idos
Ġn erv
Ġefec tivo
Ġmel litus
Ġdi c
Ġdi mens
Ġfundam entales
Ġentre vis
ĠBras il
ri to
Ġimp ar
Ġmicro organ
U D
til es
Ġdescri be
Ġes tenosis
Ġsolici tar
y as
ĠMi entras
Ġb lando
ĠO tra
truc ciones
Ġrecord ar
t Ãºan
Ġcontras te
ic k
ta tivas
s en
Ġdoc ente
T S
d ri
ĠP si
Ġac os
Ġha ga
Ġdise ase
cios as
bier to
Ġmu taciÃ³n
Ġ5 6
ĠR X
Ġhabi tualmente
Ġgan gli
Ġpas os
Ġpropor ciona
Ġpublic aciones
Ġo don
ber g
ĠPos teriormente
Ġco tidi
Ġhues os
Ġrecomend able
Ġaler gia
ÃŃcul os
Ġsoci os
Ġespeci alizada
Ġdeber ÃŃan
Ġb ur
Ġpues ta
Ġin du
Ġesc ol
ĠRep Ãºblica
Ġanci anos
Ġerr or
Ġocas iÃ³n
Ġhospit alizaciÃ³n
n is
Ġrespe to
ĠSan itaria
Ġdefin iciÃ³n
Ġafec tadas
ĠDeb ido
Ġvier nes
Ġalterna tivas
g ica
Ġperif Ã©rica
Ġ id
ĠAmeric an
Ġsoci edades
Ġreg ulaciÃ³n
Ġ9 4
ĠL uego
ĠAlgun as
pe dia
Ġle ucocitos
Ġsegu ido
Ġaz ul
Ġse de
Ġk il
vie w
ĠLi pemia
Ġlleg Ã³
ir Ã¡
ĠA V
Ġradi aciÃ³n
Ġevi dente
Ġrealiz arse
un g
k ing
cas t
Ġ14 0
Ġapor te
cer as
Ġinteres es
Ġre to
Ġtele visiÃ³n
S i
Ġdi cen
Ġsospec h
ci eron
ĠJo hn
bil izaciÃ³n
Ġrespon der
Ġcompr ensiÃ³n
Ã©n ez
l las
Ġlun es
9 1
Ġdef ine
ĠpÃºbl icas
tific ado
Ġpre mio
Ġdesta can
Ġve j
Ġcons entimiento
ĠS AR
Ġclas es
Ġd ue
Ġan e
Ġcorrec tamente
ci les
ĠPre mio
Ġurg encia
Ġmos trado
ĠDirec tor
Ġbloque o
Ġser o
Ġcomba tir
Ġcal cul
ĠB ien
Ġadi cional
ĠD ecre
Ġindic aciones
ĠHis toria
ÃŃcul as
ĠP rin
Ġpo ca
ĠP uer
Ġaisl amiento
b os
ide l
tÃŃcul as
Ġbra zo
Ġnaci dos
ÃŃt ulos
ue gos
ĠtÃ³x icos
Ġas isti
ĠSe villa
Ġme lan
ĠÃģ l
Ġata que
tÃ¡s tasis
L O
Ġme xic
tor y
Ġinf ra
Ġps icos
Ġque dar
Ġcon ex
Ã³n de
Ġd ada
Ġinter ven
Ġdes eo
x ido
ĠP AR
ĠseÃ±al ado
f or
le y
fr ica
tin as
Ġda Ã±os
Ġsignifica tivos
Ġdesay uno
Ġg lu
Ġcateg orÃŃas
ĠprÃ¡c ticamente
me j
Ġop era
Ġv oy
co c
ĠÂ »
Ġmanifies to
Ġen orme
Ġfin alidad
Ġextrem idades
ab lo
Ġf ras
Ġanal gÃ©s
te os
Ġmostr aron
Ġse l
ĠA t
Ġlec tura
Ġres tric
Ġcons umir
Ġimp lante
ĠG e
I ON
Ġent rar
r ÃŃculo
Ġr on
ĠEx per
ĠP L
Ġmuc osa
Ġhallaz go
Ġir rad
Ġdes per
Ġmec Ã¡nica
ac as
Ġretras o
er te
ĠFamil ia
Ġhici eron
Ġho jas
w are
Ġob tuvo
u dades
Ġin com
Ġac og
ĠE con
ĠDoc tor
Ġsal vo
Ġ199 7
ĠS A
ĠAn tes
is a
Ġmon ta
Ġsuf re
Ġt on
Ġdepres ible
Ġbre ve
Ġvis itas
x a
Ġres uel
ĠF ib
Ġdif usiÃ³n
p era
Ġinstrum entos
ĠPen diente
Ġprofes ores
ox id
Ġevolu cion
Ġesta bilidad
ĠlÃŃ mite
Ġres al
Ġsu ges
Ġexpl or
p ul
Ġver de
is h
Ġdetermin aciÃ³n
ĠL le
ici lina
Ġr in
Ġcal ci
ti go
Ġcompro bar
grÃ¡ fica
Ġ ciÃ³n
Ġcomunic ado
Ġju gar
ER M
ĠDecre to
Ġpens amiento
Ġdirec tora
ĠseÃ±al Ã³
Ġcu estiones
ĠC I
Ġra tones
Ġsor pren
tri monio
Ġm ent
id al
Ġac or
ĠB an
ĠN or
ĠV ene
Ġro mp
Ġvia je
Ġin gen
Ġescuch ar
ĠP ues
Ġdef en
ĠAca demia
v ula
Ġh echos
ar ca
el os
Ġg ar
or io
ĠD on
i ano
Ġvita minas
Ġintro du
ias is
Ġmes a
Ġfarmac olÃ³gico
Ġdem uestra
Ġliber aciÃ³n
Ġorgan ismos
Ġpro puestas
b el
Ġclar amente
ĠbÃ¡s icos
Ġafec tada
c ados
Ġexplic Ã³
Ġasegur ar
Ġvag inal
ĠDispon ible
fer encias
ĠÃ©s tos
Ġmicro bi
Ġactiv aciÃ³n
Ġradio grafÃŃa
Ġaum entado
Ġnumeros as
it es
esti ma
ce fal
Ġconvenci onal
Ġinform ar
Ġrealiz ando
able mente
Ġsol id
ĠO D
Ġcon clusiones
un as
Ġfab r
Ġs ar
um in
Ġplan es
ra y
Ġ quieren
Ġcompeten cia
om er
Ġfrac turas
ĠmolÃ© culas
Ġpsi quiÃ¡
Ġcardio patÃŃa
Ġse mi
ĠRe vista
id ado
Ġdi ver
Ġpsic ologÃŃa
Ġc es
Ġse ca
D e
Â ¡
Ġbila terales
Ġconoci dos
ĠNe w
ta bles
Ġan un
Ġpar ecen
Ġhorm onas
Ġdeber Ã¡n
Ġis que
Ġ5 1
ĠC M
Ġradio terapia
ĠD an
un tos
U U
Ġex istentes
Ġfab ric
ĠCar dio
Ġo cul
Ġ9 3
ĠantibiÃ³ tico
Ġdepen diendo
ĠÃģl var
ar as
TA N
ĠL ac
Ġorganiz a
cre as
Ġfib ra
Ġcar ne
ĠD os
D I
ta mientos
Ġdesarrol lan
ĠF R
Ġcons igue
ten cia
Ġfa tiga
Ġconcep tos
Ġfun ciona
Ġinmedia tamente
ĠsÃŃn toma
Ġabsor ciÃ³n
Ġpsic olÃ³gico
Ġcolo car
Ġof recen
Ġm entales
Ġp ec
p ina
Ġplata forma
Ġnorm alidad
Ġcorrel aciÃ³n
ĠM ac
H e
ĠInf antil
gr ad
Ġcolom bi
Ġpelig ro
Ġsu ma
Ġa ma
Ġrela tivamente
ĠUn ido
me dios
ID O
Ġmostr ar
tu ros
Ġpun ta
ĠFern ando
Ġor ales
Ġap lica
b ido
ag ia
ĠPre venciÃ³n
tÃ¡n eo
ĠM AP
Ġrequis itos
f ib
Ġ1 20
ĠD ig
Ġtu bo
ĠCent ral
er amente
Ġr eno
ĠR el
Ġpuntu aciÃ³n
Ġseg mento
Ġapor tar
Ġliber tad
Ġarri t
pl an
l pm
te ca
ios o
Ġori entaciÃ³n
Ġhal l
Ġcol a
E F
ĠM I
Ġof talm
in d
Ġembara zada
Ġdes com
b s
Ġc Ã¡mara
Ġsir ve
Ġse d
Ġ5 3
et y
Ġconta min
Ġsin usal
Ġci gar
ĠsanguÃŃn eo
Ġju icio
Ġbron co
Ġres tos
Ġhiper tens
Ġhep Ã¡tico
ĠRe ino
ÃŃ das
Ġutiliz Ã³
Ġdiges tivo
m enes
Ġdetermin adas
o peraciÃ³n
Ġciruj ano
ter ÃŃa
Ġint ent
Ġin tenciÃ³n
Ġte m
et ales
Ġso dio
ĠprÃ³ ximos
ĠVal l
em ent
Ġ8 2
Ġori entado
Ġacel er
Ġperf usiÃ³n
ĠM uy
b or
M C
Ġmetod ologÃŃa
Ġmedi ciÃ³n
ĠC ha
aci ona
Ġrevis tas
Ġlabor ales
Ġnervi os
Ġci udades
Ġparti cipa
!! !
Ġacon te
Ġter ren
Ġeleg ir
Ġs h
ĠdiÃ¡ metro
Ġil us
Ġl Ã³g
Â °
Ġresi dencia
v io
Ġad quis
Ġmig ra
ĠD entro
Ġb on
Ġurin aria
Ġcomien zo
ĠH ace
Ġt abaquismo
Ġt in
tu m
Ġau tismo
ĠObje tivo
an al
Ġdi et
ĠCom ple
Ġ9 2
g Ã¼
Ġper i
Ġa per
ing e
lo w
Ġra ÃŃz
Ġafec tado
tri cia
ĠestadÃŃs ticamente
Ġde dos
Ġrelev ante
= =
qu in
Ġw h
ĠhipÃ³ tesis
Ã© micas
por osis
Ġescri bir
Ġcomp u
ĠriÃ± Ã³n
ĠEti quetas
Ġu re
Ġdi Ã¡lisis
duc e
s as
Ġindi s
Ġcos tes
Ġimp ul
Ġadher encia
ĠG uerra
d ÃŃ
Ġtit ular
Ã¡ ce
z amiento
Ã± ez
ĠLab ora
ti pos
i di
Ġher idas
Ġvuel ve
Ġcif ra
Ġsent imientos
P ro
on ar
teri cia
Ġobten ido
ĠD av
der s
Ġcele bra
Ġca te
Ġobs trucciÃ³n
Ġes pi
gen os
ĠAb domen
Ġ* *
is e
ed ores
Ġefic aces
.... ..
Ġcorrespon dientes
Ġes qu
Ġartic ulaciones
Ġimprescindi ble
Ġme t
Ġdocum entos
Ġs ana
Ġ6 8
Ġisqu Ã©mica
P aciente
ĠIn tegr
Ã¡c tica
Ġf ia
jer os
ener aciÃ³n
Ġcier re
Ġf an
ade cu
Ġs eno
ĠNeuro logÃŃa
ĠM el
ta ba
Ġl infocitos
ĠEpi demi
Ġpermi tido
Ġcuid ar
Ġin e
u ciones
ĠmÃŃn ima
enqui matos
Ġpre dis
Ġre tros
Ġin hibi
Ġobje tiv
Ġdi chas
ĠtÃ©cn icos
Ġabier ta
Ġhubi era
Ġ8 8
Ġpl aca
Ġmez cla
ĠN orte
Ġta qu
Ġg estion
Ġsol ar
e de
ter rÃ¡n
Ġh eces
Ġtrabaj an
Ġparticip ado
OLOG ÃįA
Ġdes vi
al gia
Ġ ^
b ana
Ġb ul
er to
Ġcardi aco
Ġinvers iÃ³n
om n
ĠbÃ¡s ica
Ġtrad uc
Ã³ tico
ien de
Ġutiliz ada
Ġ Î
Ġal tamente
Ġinfl uen
C P
ĠM Ã¡
ĠB el
Ġh os
Ġde pos
Ġinci dencias
u alidad
u de
Ġdeb a
ab e
Ġsab or
Ġsu ces
Ġanti oxid
Ġ199 6
z can
Ġtrauma tismo
ĠPar acetamol
Ġpla zas
Ġenl ace
ĠV is
Ã¡m enes
Ġpermi ta
ĠM ental
ĠReg is
Ġmal ig
Ġf ec
Ġv ie
der os
Ġv esti
a ve
Ġgr ados
Ġb et
ri tis
p il
ĠL on
Ġdefin ir
Ãº tbol
qui tec
ĠD ado
h am
Ġleg al
an ÃŃa
Ġestim ul
Ġconsidera ble
Ġme tÃ¡stasis
Ġdefec tos
Ġhab rÃ¡
ide a
r or
ĠRam Ã³n
Ġtrans par
tiv al
Ġin au
ĠA z
i i
am ina
ens ibilidad
Ġmus culares
ber t
Ġtransvers al
an cias
Ġconvier te
Ġviv e
gu ar
Ġp Ã¡r
Ġver duras
Ġconta minaciÃ³n
ĠV ol
Ġextra cciÃ³n
Ġalcan ce
Ġest ando
b ras
Ġcar e
ĠÃºtil es
Ġveg e
tab an
ĠC ri
ti mo
Ġpres ti
Ġan at
Ġadecu adamente
ĠCu idados
Ġ5 7
Ġhorm ona
Ġplan o
ĠK a
Ġt ens
Ġfuer zas
ĠOnc ologÃŃa
Ġ5 8
H O
Ġdem ues
Ġcr ÃŃtica
tra teg
vi Ã³
ad Ã¡
Ġop timi
Ġperit oneal
ĠcÃ¡ ps
u mi
ĠCon tin
Ġdi ur
Ġch ild
w it
ĠM S
Ġanticon cep
Ġsac ar
Ġnom br
Ġcomple tar
ĠS I
j era
Ġreg ional
ĠseÃ± ales
Ġa or
ĠI S
lam ento
Ġno table
ĠlÃŃ mites
en das
Ġâ ī
Ġhemodin Ã¡m
Ġpro li
ĠFar macia
Ġintro ducciÃ³n
Ġpre de
ti eron
B A
Ġres pir
Ġdis cri
Ġlle gado
Ġes enciales
Ġauton omÃŃa
Ġgus tarÃŃa
Ġplas ma
Ã³l icos
Ġinmedia to
Ġnerv io
Ġal cal
Ġpau tas
ar ro
ĠC P
Ġref or
j ec
Ġede mas
r adas
Ġinclu ido
Ġrecono ce
le psia
Ġestr ic
C D
Ã³ ticos
Ġrepres entan
Ġmic ros
o ce
ĠF a
Ġmil es
ĠCatal uÃ±a
ril aciÃ³n
Ġcre ado
don cia
ci tos
Ġin cu
Ġcomp rar
ĠneurolÃ³g ica
Ġep id
Ġ6 6
Ġ20 20
olog ical
Ġp ru
Ġban da
iz an
Ġtox icidad
grÃ¡ ficas
Ġjur ÃŃ
Ġdescan so
m Ã¡n
Ġneur onas
ĠsÃŃn tesis
ĠfÃŃs icas
Ġinterval o
v amente
Ġinterpre taciÃ³n
Ġinmun e
Ġmens aje
Ġabund ante
tu mb
ĠF el
Ġf amos
âĢ Ķ
Ġdeb es
par os
Ġtom ado
Ġ6 2
Ġco h
Ġindivid uales
U n
ig en
L as
ĠAle mania
ĠM ari
ur s
Ġsuce de
Ġpreocup aciÃ³n
Ġ6 50
Ġpas ando
Ġd Ã³nde
Ġent ra
Ġalea tor
Ġin jer
ĠP ablo
ĠD IS
Ġcor ta
Ġpre ca
ome trÃŃa
ca paci
gra fÃŃas
Ġmarc adores
Ġar ticular
Ġse mil
t ul
Ġ6 00
Ġin gre
ĠRa fa
Ġ6 1
Ġdesempe Ã±
tal ia
Ġpan cre
y u
r aciÃ³n
ĠCap ÃŃtulo
Ġqui Ã©n
Ġcomplic aciÃ³n
u mat
Ġj er
Ġna ve
i onales
Ã³l icas
Ġraz on
OM S
Ġsuper ar
ĠÃº tero
Ġest arÃ¡
ĠG estiÃ³n
am ble
Ãį N
Ġci s
Ġimplan tes
5 00
n ar
Ġs ul
ĠDiagn Ã³stico
Ġpa trones
Ġprim ario
gu es
Ġcontra indic
Ġab rir
Ġro jo
Ġcapaci dades
ĠeconÃ³m icos
am in
Ġjue gos
ĠT R
pec ÃŃ
Ġemple ados
ĠI D
Ġartic ulaciÃ³n
Ġcontin Ãºa
ĠÃģ rea
Ġpreci so
er ales
Ġdes n
Ġcer can
Ġsecu encia
Ġad ulta
ĠConse jerÃŃa
ĠJim Ã©nez
Ġre tina
Ġpre cios
Ġin adecu
ĠB ro
Ġpriv ada
Ġ6 3
Ġisque mia
Ġarg um
Ġs es
Ġtum oral
Ġambi entales
AL ES
k y
ĠM ad
Ġu ro
ĠL ic
ĠC e
cin as
Ġadolesc encia
ur g
Ġtromb o
Ġcoment ario
ĠF ÃŃs
h ib
Ġprecis iÃ³n
ĠDav id
om bre
ĠbÃ¡s icas
Ġimple ment
Ġcompar ar
socia tion
Ġeco cardi
Ġsigui endo
Ġindi rec
ril lo
Ġir reg
Ġrele van
Ġarri ba
Ġcal orÃŃas
20 19
Ġinici Ã³
Ġe ficiencia
fici os
b un
Ġavan zado
Ġtra cto
Ġreconoci do
ru g
ĠE co
Ġrepro ducciÃ³n
ĠcuÃ¡l es
Ġus ando
Ġ8 9
Ġ199 5
Ġinter no
Ġren ales
Ġad mi
ĠTrastor nos
ĠPs ych
Ġrece ta
is tal
am Ã©rica
Ġorganiz ado
Ġcu entan
Ġ9 1
ter as
ĠCOM P
ĠRu iz
Ġdesa f
ĠE r
Ġc raneal
Ġde v
Ġdiagnostic ados
Ġconf igur
Ġintens a
Ġplan ificaciÃ³n
ambi en
on ia
ĠB r
Ġman ual
ĠJ ulio
re o
Ġcav idad
ĠBuen os
Ġest Ã¡s
Ġpri ma
Ġ5 9
Ġlo gra
ent re
D OS
Ġsencil lo
Ġcomer cial
f aci
Ã± imiento
ac tividad
pra zol
Ġbra zos
Ġter cio
Ġ8 4
tar ias
Ġanomal ÃŃas
Ġsub s
Ġeduca tivo
de pres
Ġ% :.
Ġinici almente
in t
Ġcu tÃ¡nea
ien dan
Ġcom or
ĠW eb
ĠProf esi
Ġpermi tan
j idad
cional mente
ru pciÃ³n
, ,
Ġami go
Ġau t
Ġl esi
ĠaÃ±ad ir
M O
Ġconvoca toria
Ġimpos ible
c ord
ĠIns u
Ġlle gan
Ġth is
Ġex pe
es tre
Ġdimens iones
Ġproxim al
Ġconlle va
ma il
eg al
RA N
Ġevi dencias
f un
Ġprofun didad
Ġcuidad ores
ĠV il
Ġci encias
Ġmez cl
ĠMa terial
Ġenfr ent
truc tiva
____ ____
Ġres piraciÃ³n
Ġtele f
ter ona
Ġauto inmun
e amente
i tud
ĠRes pecto
pl Ã¡s
Ġequiv al
Ġplante a
les ia
Ġconcl usiÃ³n
ĠG inec
ĠsanguÃŃn eos
Ġfr ÃŃo
or ia
Ġdescrip tivo
Ġpres taciÃ³n
ĠfÃ¡cil mente
Ġvar Ã³n
Ġar t
f ren
Ġconse jo
Ġcon ducir
Ġfuncion ales
Ġleg isl
ĠSol ici
ĠSuper ior
ĠSAR S
Ġprotoc olos
i dismo
a tion
quÃŃ mica
Ġrepresent antes
Ġapar tado
ĠAutÃ³n oma
ĠS te
y e
Ġlimp ieza
A s
Ġl Ã¡
ri tos
Ġe d
Ġlig eramente
ĠfÃŃs icos
Ġespec tro
Ġmas as
ĠOr den
Ġv idas
Ġl uc
Ġpar ecer
ĠPro ce
tera peu
Ġmis iÃ³n
ĠB lo
Ġfib ras
Ġafec ciÃ³n
ech as
ĠT ur
Ġp ena
ĠL O
Ġde bilidad
Ġsi tios
Ġabord ar
Ġi di
ĠaÃ³r tica
Ġrar as
era py
Ġobje tiva
Ġsome tidos
ĠD A
Ġintelec tual
Ġ6 7
Ġcoron ario
Ġno vel
Ġunivers idad
Ġcicl os
Ġrecuper ar
Ġsecre ciÃ³n
Ġamino Ã¡
tr ada
Ġinter s
ĠEx iste
ne y
Ġdemostr ar
Ġfavor ecer
Ã³ f
Ġajus te
Ġconver tido
Ġvir al
Ġpermitir Ã¡
Ġvis it
Ġo ÃŃdo
p p
Ġsobre viv
ĠT abla
Ġcual ita
U ES
ĠActu alizado
Ġf ies
Ġadecu ados
Ġapro bado
Ġmi el
Ġon line
Ġbi om
Ġquier es
Ġre emp
Ġex Ã¡menes
A n
Æ Ĵ
Ġconsegu ido
Ġpreo cu
Ġsi ente
fil ia
ĠCent ros
ĠSat O
ĠCons ul
Ġinmedia ta
Ġvent ilaciÃ³n
ĠD u
Ġ8 7
ĠEs o
Ġab uso
ĠpolÃŃ ticos
Ġfemen ino
t Ã©tica
ÃŃs imo
IC OS
Ġcab e
Ġre in
i ados
Ġsolici tud
Ġgol pe
an ti
Ġsuf rido
Ġactu aciones
Ġi ba
Ġmoder ado
Ġnorma tiva
Ġgen Ã©ticos
Ġcre ciente
bi endo
Ġadquis iciÃ³n
Ġdescri tos
Ġ8 6
Ġin teg
qu inas
Ġconserv ada
Ġa trÃ¡s
Ġtr iste
ci ru
ÃŃs ticos
Ġcre pit
ĠfarmacÃ©u ticos
M e
Ġpu diendo
Ġpedia tra
Ġcl ima
ĠS ue
Ġreco ge
tros is
Ġr ue
Ġoportun idades
ad ura
Ġpor ciÃ³n
Ġnego cio
Ġgr Ã¡
Ġsegun dos
h u
Ġca fÃ©
ĠC E
Ġ8 3
ue ba
Ã©l v
Ġ7 4
Ġfisio terapia
b es
Ġor to
Ġint oler
Ġsub cu
o pa
ĠClÃŃn ico
Ġpriv ado
Ġv ena
Ġdoc entes
Ġcar bo
Ġpubl ica
Ġante cedente
Ġcu arto
Ġdeci dir
tiro idismo
we en
Ġob tenciÃ³n
Ġin mi
? .
? ,
Ġ6 9
Ġen e
Ġpl Ã¡s
Ġre tos
tur aciÃ³n
Ġs Ã¡
Ġres ca
ĠCar men
ran tes
Ġfe to
Ġconoci das
Ġr ÃŃo
Ġde ter
ĠO I
tr y
Ġoper aciones
Ġdis cu
Ġac tÃºa
Ġpa is
ĠÃ¡mbi tos
ĠC S
Ġh arÃ¡
Ġcol ores
Ġvul ner
ĠS EC
bl aciÃ³n
Ġmodific ar
ĠpolÃŃ tico
Ġu ter
ft ware
RA L
Ġcaracter ÃŃstica
Ġinflama toria
Ġconcl uye
Ġfaci lita
Ġesqu izo
bl as
g amos
Ġm ara
Ġdar le
cri p
Ġli der
g adas
Ġpa gar
t z
an im
tad ora
der Ã¡
Ġlabora torios
Ġenfer meros
ti za
Ġblan ca
tu vieron
Ġcre ma
Ġestudi ado
il los
Ġunivers al
ĠS IN
Ġca tal
de res
Ġdi go
ĠtelÃ© fono
Ġc ha
Ġnue vamente
Ġson da
Ġcomple jidad
Ġregis tros
Ġse guros
Ġcica triz
Ġimp ac
Ġsan o
Ġocur rir
Ġaum entan
Ġpas Ã³
P O
A G
ĠEl ec
ĠF uer
ur is
dr ÃŃa
ĠE fec
Ġcump le
ĠC alidad
Ġdef ens
Ġtra um
ĠF ormaciÃ³n
Ġinau gur
Ġm ue
Ġris k
Ġex istir
ĠPR O
Ġhom bro
ĠPa ÃŃs
ĠCh ina
er se
ĠacompaÃ± ado
I X
Ġbil iar
Ġaper tura
Ġdetermin ada
Ġmanifies ta
i go
ĠS ec
h an
ĠC Ã¡
Ġdiab Ã©ticos
i gual
Ġes clerosis
Ġv ic
ÃŃ g
tiz aciÃ³n
emp o
Ġdes ign
ĠF un
el as
Ã¡n creas
Ġparticip an
Ġanticoag ul
Ġgan ar
Ġauto estima
Ġserv ir
d ado
Ġpotenci almente
ĠnÃºcle o
D R
) -
p ÃŃ
Ġpro pa
ci encia
Ġpade ce
Ġorient ada
Ã©r cito
Ġlig era
Ġdren aje
ĠP S
Ġdon aciÃ³n
Ġb os
ĠquirÃºrg icas
Ġ7 8
ĠVene zuela
ĠPro vin
Ġde trÃ¡s
Ġcoloc aciÃ³n
ĠC V
Ġro pa
Ġcr on
Ġus an
tor as
ĠR ÃŃo
Ġref uer
or as
i me
Ġecon omÃŃa
ĠU R
Ġ7 1
Ġnega tivas
ĠPar kinson
Ġpoten cia
Ġpudi era
Ġle jos
Ġher edi
Ġinter rump
ida de
Ġaument ando
Ġto bil
ĠCur so
ĠRafa el
i res
Ġparticular mente
Ġimplic ados
Ġincorpor aciÃ³n
Ġincrement ar
Ġe upne
Ġinfil trados
Ġcons enso
Ġpar tÃŃculas
Ġf ren
Ġcu yos
Ġatra c
Ġcontra c
Ġpol ic
Ġres onancia
ĠV an
Ġapoy ar
b acteri
Ġimp er
Ġser ies
Ġcul turales
Ġnar iz
Ġinter net
tÃŃcul o
Ġpol vo
u idos
Ġasisten ciales
zep am
Ġfe tal
Ġtron co
Ġque dan
is to
ĠMuch os
iv er
Ġjue ves
Ġdi gn
bil ity
Ã Ĭ
enci aciÃ³n
Ġpresu puesto
Ġvej iga
aliz aciones
ĠMor eno
ĠP op
Ġar ch
ĠJ orge
Ġsenci lla
d ular
ĠW e
Ġclin ical
Ġagu das
Ã³m icos
Ġhab rÃŃa
ti bilidad
ĠB or
Ġd ul
ĠM O
Ġdi vul
ĠU r
ĠE p
Ġfum adores
ĠC K
ug h
ĠS AL
Ġne gro
Ġ7 7
Ġemp ren
Ġcl ientes
Ã¡n eo
Ġreci di
Ġcub rir
Ġestra tÃ©
ic s
Ġac tos
Ġtromb osis
pat ologÃŃa
ÆĴ ÃĬ
Ġ25 0
un dir
Ġau xil
ig ht
Ġl ent
Ġambi ental
Ġrelevan cia
Ġverda dera
Ġconv uls
Ġej ecuciÃ³n
ol encia
Ġt rim
Ġemerg encia
Ġso pl
Ġ7 3
p ado
Ġdiagnostic ar
al quilo
ĠC la
OS I
Ġirri taciÃ³n
Ġm oles
Ġcri bado
Ġrecomend aciÃ³n
Ġpers istencia
Ġen vas
E V
Ġherman o
20 17
G R
m acias
Ġfo co
Ġagu as
Ġef fec
Ġch ar
Ġcuan ti
ĠTo das
Ġcos tos
Ġconf irma
Ġdefec to
Ġosteo porosis
Ġin capacidad
Ġrepres entaciÃ³n
Ġpers iste
Ġb u
iz on
Ġfon dos
Ġval v
ĠMedic amentos
lo x
z aron
Ġmin erales
Ġforma to
Ġsens ible
Ġaler ta
Ġaliv iar
Ġend ome
Ġpla quetas
Ġ7 6
Ġ Î¼
Ġidentific ado
Ġeurope os
Ġfom entar
ĠInsu ficiencia
Ġv ice
ĠS Ã³lo
l ÃŃ
ĠRe ci
Ġexclus ivamente
EN CIA
Ġeviden ci
c Ã¡r
Ġad h
di Ã¡lisis
Ġins ec
Ġprop iedad
Ġcomple jos
EMA IL
Ġge ogrÃ¡
Ġoc ci
Ġos cu
e lo
r Ã³n
Ġus e
Ġestre Ã±imiento
Ġpat olÃ³gicos
den t
Ġmicroorgan ismos
ĠD L
amble a
Ġcaracter izado
hid ro
Ġanti inflama
Ġpas an
Ġcondi cion
d ing
Ġprecis amente
Ġgras os
Ġelev ados
Ġin qui
tero ides
Ġmor bilidad
Ġdepen diente
ĠlÃŃ der
ues tros
ĠG a
Ĥ ¬
Ġretir ada
ĠMur cia
Ġsu erte
Ġ199 4
Ġperio dis
ic ultura
Ġproce dentes
Ġvas culares
Ġmagn Ã©tica
or rea
Ġpues tos
Ġinvestig adora
ĠU s
Ġidenti dad
Ġpar enquimatos
Ġcu bier
Ġcuer pos
Ġh ar
ĠP i
v ida
Ġin tr
ĠÃģ frica
quir Ãºrg
Ġfracas o
Ġbi olÃ³gicos
ĠU S
Ġmodific aciÃ³n
ing itis
Ġru idos
Ġaliment aria
ĠFarmac Ã©u
ĠEn rique
Ġcam inar
Ġofer ta
Ġimple mentaciÃ³n
Ġtendr Ã¡n
ĠM ie
ab el
Ġr ara
Ġan ormal
Ġent ero
Ġten d
ĠCi encia
Ġhis torias
Ġmor tal
Ġv aya
gu ay
oso tros
mi cina
ton ina
Ġnue ve
Ġexter no
Ġno ticias
Ġer es
ri tu
Ġcontinu o
Ġindepen dencia
Ġrel aciona
Ġce f
ĠÃŃ te
Ġningun o
oci al
Ġma te
Ġherman os
ÆĴÃĬ l
Ġn Ã³d
de ras
ĠMÃ© todos
Ġfuer tes
Ġproce de
20 18
Ġcontrol ado
ab or
ĠN uestro
Ġtra yec
Ġsuperfici al
mic robi
Ġdila taciÃ³n
pens aciÃ³n
Ġafec ciones
pos a
ÃŃn s
Ġdemostr Ã³
Ġg ro
ez ca
Ġba Ã±o
Ġconven iente
N S
Ġcon greso
Ã³r icos
Ġcerc ano
ĠcardÃŃa co
Ġh el
ĠPer Ãº
ĠR S
i ada
ab ras
u ri
Ġin vier
v ante
ten ia
g ulo
ta tiva
ula tion
Ġin esta
T ICO
ĠhÃ¡bi to
ĠG re
H S
Ġcon tes
Ġafron tar
iv idad
ps ic
f re
Ġayud as
Ġvolun tad
Ġsist Ã©mica
Ġp il
ĠpediÃ¡ trica
Ġcul tivos
ĠDis e
Ġconvertir se
ol as
Ġbal ance
Ġde cre
i tica
Ġs at
Ã© di
Ġle ves
ĠJ un
Ġrecog ida
Ġlimi taciÃ³n
Ġcortico ides
Ã ª
Ġapro baciÃ³n
ĠRec om
ĠO ri
Ġloc alidad
ĠCan cer
Ġhac ÃŃa
Ġhace mos
ĠÃ©s tas
Ġpres i
ic en
Ġmi x
ri t
Ġdeci diÃ³
Ġsab en
Ġden tales
ĠS olo
Ġadqui rir
d y
car ga
Ġaquel la
ĠvÃŃc timas
Ġpresent aban
Ġrecha zo
A CIÃĵN
Ġtom an
ir man
Ġenz imas
hi per
Ġc Ã³digo
t Ã©r
ac os
Ġvent rÃŃculo
ter s
Ġrecom iendan
ÃŃ c
Ġce pas
Ġder mat
I OS
Ġmu Ã±
ĠNe u
Ġir re
coc cus
Ġemp ieza
Ġt ono
Ġrespon de
ĠV illa
Ġdi etas
Ġob tiene
tic ulares
Ġresul tar
Ġt ambien
el es
Ġra ma
Ġinicia tivas
Ġa bre
ul itis
Ġfib rosis
Ġpa go
Ã¡g ico
ĠS ecciÃ³n
tom ia
Ġcontra to
Ġper dido
l en
Ġlo g
ĠA T
Ġs Ãºbi
Ġ199 0
Ġul tras
v asta
Ġves ical
ĠB us
di ces
di as
Ġescol ares
TR O
ti to
ĠC ro
Ġinfluen za
Ġpropon e
olÃ³g icamente
b ano
ĠFis io
I ER
w o
Ġpuer ta
Ġrecl am
Ġproba bilidades
Ġs ho
ĠJ us
ĠC at
Ġf eno
Ġexplic an
b amos
Ġ8 1
Ġa go
pl ante
Ġneu tro
ter na
Ġdes tr
Ġni Ã±a
Ġadecu adas
Ġcel ulares
Ġtrans i
Ġin cis
ĠautÃ³n omas
Ġrealiz arÃ¡
Ġad ver
p df
in c
ĠC AP
Ġap unta
Ġin mo
ĠC ambi
Ġ1 10
par ina
Ġref i
c Ã©s
Ġpare jas
ec ÃŃa
Ġpon en
ĠCo ordin
ĠÃģlvar ez
Ġcaus ada
is tan
ĠcÃ¡ncer es
Ġf Ãºtbol
ĠZ ara
Ġcu adr
ear s
Ġgen Ã©ticas
v aciÃ³n
Ġbet ween
Ġmascul ino
di rec
cop io
Ġderiv ado
ĠPar ti
ĠC las
ĠprÃ³ xima
ĠPsi quiatrÃŃa
Ġrecur so
Ġt Ã©
as h
ĠclÃŃn icamente
Ġp Ã¡ncreas
uy eron
Ġan unci
Ġcontrib uye
ol era
Ġpi lo
a f
Ġins ul
z co
ĠquÃŃ micos
Ġestre cho
p lo
Ġres pal
Ġa v
ĠF al
ĠA mi
Ġex ud
ĠGu ÃŃa
Ġbus cando
ĠSe gun
ĠH C
ĠAn dr
la ga
ĠV ac
Ġdon ante
Ġpes cado
Ġgus to
l ada
Ġpo tasio
Ġh y
Ġtotal idad
Ġdi arias
Ġsi ento
Ġcub ana
Ġesc uelas
Ġagu ja
Ġcontrol ada
ĠPres enta
ĠR en
Ġmin imi
Ġlimi tada
Ġde posiciones
Ġmedi ana
Ġra yos
Ġenz ima
Ġpers istente
Ġar m
Ġgangli os
Ġp uso
Ġf ebril
Ġno ticia
Ġar quitec
Ġseleccion ados
Ġbuc al
Ġparti dos
Ġfar macias
Ġbacteri ana
ĠAr ch
Ġrev olucion
Ġref rac
ill er
ĠI r
ĠBo go
Ġmonitor izaciÃ³n
d nis
Ġconflic to
Ġautor izaciÃ³n
Ġcor riente
Ġespeci alizado
x ina
ĠelÃ©c trica
Ġsiste mÃ¡tica
Ġlogr ado
ĠMedi cine
Ġi gn
Ġdemues tran
Ġsal e
on so
Ġaconse j
Ġolvid ar
p icas
ĠS ig
Ġre don
Ġdispon ibilidad
Ġinter fer
Ġcur aciÃ³n
Ġsu ave
ĠF re
i k
ta vo
ĠespecÃŃ ficamente
l d
Ġhin cha
e to
UL AR
i aciÃ³n
Ġ7 9
umon ia
ĠI gual
ĠaÃ±ad ido
Ġin ger
Ġprepar ar
G EN
tan o
Ġtermin ar
pl ica
Ġdetal les
ĠÃºl ceras
Ġso por
Ġpoten ciales
iz adas
Ġrepar aciÃ³n
Ġrefer ente
in cl
ier ÃŃa
Ġintercambi o
Ġmultidiscipl inar
ĠHi po
Ġsup ra
Ġp is
ĠsanguÃŃn ea
Ġf irma
ĠPers onas
Ġcelebr aciÃ³n
ĠT anto
ĠcutÃ¡n eas
ĠH id
Ġdivers idad
lox aci
Ġe ficiente
gluc emia
ti es
ĠEspecial ista
Ġv ÃŃn
Ġinv er
Ġtal la
fren ia
Ġc ena
Ã©r coles
Ġdef orm
Ġo ut
iz aciones
Ġor o
Ġsopl os
Ġs tent
Ġdesempe Ã±o
ĠhemodinÃ¡m icamente
Ġint ento
Ġapre cia
ĠS ÃŃ
go za
Ġveg etales
lan o
ĠCas tro
Ġex tir
ĠquÃŃ mica
ĠES TA
Ġextra ordin
elle za
ĠPh ar
tor no
Ġdifer encial
dad or
ĠF il
Ġpier na
Ġde ficiencia
Ġpie zas
Ġestad ÃŃstico
Ġre ales
tox icaciÃ³n
ĠCons titu
Ġexces iva
Ġdepor tiva
Ġexperim ental
ĠterapÃ©u ticos
Ġsec uelas
Ġsuple mentos
Ġgas tos
Ġinterac ciones
Ġexpec tativas
Ġmi tral
m u
Ġcla ves
ĠdiseÃ± ado
Ġpre mios
ĠbÃ¡s ico
Ġmal o
ĠEs tad
Ġsec tores
Ġac aba
Ġasesor amiento
Ġdesp ren
Ġpes e
m ÃŃn
Ġa val
Ġpres identa
Ġobserv aron
ti mos
Ġanti bio
Ġal b
ĠP D
ĠCon tra
Ġhum or
Ġac titudes
Ġdescri bir
Ġmor ir
ĠObje tivos
mi algia
Ġincluy eron
om ina
Ġcap ÃŃtulo
ĠTera pia
ÃŃ qu
Ġcul pa
ĠDa tos
Ġf ic
tor al
dro mes
Ġdel ante
ĠS ER
Ġes til
ĠRes earch
ĠCr ist
Ġunivers idades
Ġcuad ros
Ġmotiv aciÃ³n
Ġgrad u
Ġal fa
Ġa er
Ġv eo
Ġis la
Ġinfec ciosas
itro micina
Ġhemor r
Ġv ino
ĠI ma
Ã³n imo
Ã³s itos
Ġaler gias
Ġad j
Ġi m
uma to
ĠMun icip
ĠS C
Ġt rig
Ġla paros
Ġadi cionales
Ġacad Ã©mico
Ġquiz Ã¡s
dos is
if orn
IN E
Ġelabor ado
Ġel e
u ida
Ġcoleg io
ĠRegis tro
Ġelev adas
den es
Ġintelig encia
Ã³b ulos
Ġconse jero
omn io
c g
Ġrefle ja
ĠB l
Ġsignific ado
Ġbaj ar
Ġsub je
Ġtrasl ado
Ġprolon gada
Ġepi lepsia
vi era
H D
u os
Ġd ra
Ġpro me
Ġex cre
Ġanaliz aron
Ġinf usiÃ³n
ĠAnal ÃŃtica
ĠS T
Ġdi eron
Ġintro ducir
Ġtaller es
Ġmar eo
Ġparticip aron
ad i
ru gas
ĠLa tino
or iasis
ĠN orm
ĠVir gen
Ġplac as
Ġinfecci osa
ĠSi empre
Ġre qui
Ġp ig
Ġfavor ece
h ospital
Ġcol i
Ġsus p
Ġdedic ado
ĠtrÃ¡ fico
Ġmul tic
Ġform ul
Ġconfirm ar
Ġj a
Ġadolesc ente
Ġcon t
ĠF on
ÃŃ gen
Ġfron tal
an Ã¡lisis
ĠE mb
ĠC Ã³r
el ec
Ġgener alizada
Ġp Ã©lv
vasta tina
s er
Ġinvas iva
Ġestad ÃŃstica
Ġf Ã©r
Ġas cen
ĠCom par
Ġactu alizaciÃ³n
la uc
iforn ia
Ġv Ã©r
ĠMM II
Ġ0 2
ta bilidad
Ġdel eg
Ġw e
Ġno t
enci ana
Ġcent r
Ġproli fer
Ġsig las
ĠNa tional
B P
Ġhon or
Ġp ur
Ġa meric
ĠV M
fa go
Ġopin iones
end ario
Ġmodific aciones
do ba
ĠJ efe
Ġcomer cio
Ġindic ar
Ġadvers as
Ġredu cido
ĠX V
ĠU til
Ġreper cusiÃ³n
Ġalcan za
ril los
ĠN Ãº
ĠAl onso
ĠC ul
Ġprol ong
Ġdispon er
Ġpermi tiÃ³
Ġinici ales
ĠI talia
pl icaciÃ³n
Ġpar cialmente
Ġdi uresis
ĠCh ar
Ġpar Ã¡s
Ġpal ia
Ġtempran o
Ġpod cast
Ġcrea tinina
tiv idades
Ġcl ub
man n
ĠB os
ĠAs sociation
Ġv itro
ri tÃ¡n
f is
ĠEx tre
Ġcompe ti
ĠM y
oso fÃŃa
ĠA quÃŃ
Ġru tina
ĠSe Ã±
Ġcolabor adores
Ġcoag ulaciÃ³n
ĠS im
Ġp ico
Ġsist Ã³lica
Ġconstr uir
ĠCom er
Ġfavor able
e u
ca p
Ġman tienen
ur ales
Ġve in
ĠA rag
Ã¡ is
Ġri g
ĠelectrÃ³n ica
den as
Ġli po
Ġsustitu ido
ĠL or
Ġen rique
Ġa ci
Ġcar o
Ġestudi ante
ĠPa z
Ġcomplic ado
Ġpro mue
Ġne umo
Ġarti ficial
z e
Ġ199 3
Ġtransmi tir
Ġsu ficientes
v ador
ĠeconÃ³m icas
20 94
Ġlegisl aciÃ³n
Ġjus to
ĠLa tina
Ġras gos
Ġvaria bilidad
Ġfacil idad
Ġprevis to
Ġpsic olÃ³gica
Ġdenomin ado
Ġdes igual
Ġtransf ormaciÃ³n
Ġde g
Ġpulm ones
ĠO ficial
Ġrela tiva
Ġconf orme
Ġintraven osa
ĠU so
A CION
Ġrepe tir
ĠM is
Ġl Ã¡c
Ġverte bral
ĠPor que
Ġescen ario
Ġconserv aciÃ³n
ur aciÃ³n
Ġman io
ĠPal abras
Ġp se
DA H
Ġhepa to
ĠD omin
Ġexcep to
Ġconex iÃ³n
Ġejer cer
Ġpose en
Ġvolun tarios
oc om
if e
ĠE d
ĠSu b
ĠJ C
di cial
ĠM ir
ex ia
Ġas igna
tu aciÃ³n
Ġcomp ens
ĠIM C
v ol
Ġso ftware
de m
ĠquirÃºrg icos
Ġposible mente
ĠU l
Ġpie za
Ġau tol
Ġcomerci alizaciÃ³n
ĠPR ES
Ġexpec tor
Ġmetab Ã³lico
ĠO don
Ġtaqu icardia
Ġcub ano
ĠAr terial
Ġfabr icaciÃ³n
Ġdor sal
Ġa x
Ġjun tos
Ġin n
ĠA mbi
mi zol
Ġfacil it
Ġc Ã³r
an zas
Ġ om
nes s
Ġinter mi
ĠIn d
ar los
Ġdescub rir
Ġsocio econ
s t
r ente
ve lop
Ġcomplement arias
Ġcomple ja
Ġima gin
Cu Ã¡l
Ġacep taciÃ³n
Ġsome ter
Ġhue vos
Ġdes tino
Ġutiliz adas
ĠJ ul
ĠZara goza
un cia
Ã³ metros
i encia
b ida
ort un
Ġev al
Ġrec ol
Ġne fro
tÃ¡n eamente
ĠS p
ĠcÃ¡l culo
Ġg ana
TI L
Ġmen opa
Ġval idez
ÃŃn g
Ġfo tos
Ġmi Ã©rcoles
am bre
d res
Ġev itando
ĠP E
Ġampli amente
Ġdi bu
Ġhid r
Ġgan as
ĠDeb e
ĠC el
ĠÃī s
Ġ0 1
j ada
Ġbol sa
pi ente
Ġtrans cur
al ud
ĠG il
Ġincluy Ã³
grÃ¡ fico
Ġidenti fica
Ġt esti
Ġfru ta
ĠIn tens
Ġdocum entaciÃ³n
uch a
mad ura
Ġres iden
Ġll en
ol d
Ġtar d
Ġesta bles
ĠInf orme
Ġocu pa
Ã¡g ica
Ġreg ula
ĠP ul
ĠPro duc
ĠÃ¡ tom
di la
Ġdesarroll ados
Ġcr ÃŃtico
Ġco operaciÃ³n
. ;
Ġcam pe
Ġpa to
Ġbor de
Ġex istente
Ġmedi co
ĠN uestra
Ġal quilo
Ġcos m
ÃŃ p
ĠvÃ¡l vula
ĠMedic al
Ġbro tes
Ġher nia
Ġcir cu
Ġprodu jo
P P
ĠI L
Ġros tro
es ia
Ġcorrespon dencia
ĠQ T
gres os
Ġrespira torios
mi go
Ġfal lo
Ġigu almente
Ġi le
pl er
Ġperme able
Ġemo cionales
di mos
Ġtradici onales
Ġclin ica
Ġestadouniden se
w a
Ã¡s ica
ĠCal ifornia
tÃ³ rax
ĠIn t
z aciÃ³n
Ġespeci fic
Ġvuel ta
re l
Ġb rus
Ġhorm onal
Ġpar ad
Ġpre f
pro teÃŃn
Ġesper o
Ġejemp los
un tamiento
ĠI b
ĠdiagnÃ³s ticas
Ġconsider ada
Ġfin alizar
Ġacum ulaciÃ³n
ĠMan cha
F R
ma titis
Ġsens ibles
ĠseÃ±al an
ĠvÃŃ deo
Ġchild ren
ĠPro yecto
Ġvent aja
Ġus ado
Ġbi olÃ³gico
p la
ĠFÃŃs ica
ĠRe gi
ĠP eso
ĠC ultura
lauc oma
Ġhema toma
tu rias
ca ÃŃna
ĠdifÃŃ ciles
Ġgratu ita
ĠacompaÃ± a
es peci
Ġmejor as
Ã¡ mico
Ġpresent aba
Ġinters ti
ĠS O
Ġmo ver
Ġjug ador
san cio
Ġtrayec toria
gu era
ĠdÃ© bil
Ġexplo taciÃ³n
ĠR osa
ĠS ab
Ġpa que
aliz an
Ġincre menta
Ġse psis
ĠR io
Ġpublic Ã³
Ġdes pi
ES O
ĠcrÃ³n icos
Ġre y
Ġdiagnostic ado
Ġb elleza
ĠIn mun
ÃŃ dos
Ġprogres ivo
Ġdis cusiÃ³n
Ġade lan
am ida
Ã³l ares
Ġa j
ide os
ci tis
ĠIc tericia
vi enen
Ġanti microbi
ĠpÃ©r didas
Ġclar as
ĠJ A
ing ton
Ġmens ajes
20 12
ĠAnte cedentes
Ġtrans por
Ġab ajo
quil la
ĠQ uir
AC E
ĠReg iÃ³n
Ġdif fer
Ġdiscipl ina
Ġho ja
ĠN I
ĠJ M
ĠT ierra
Ġin tu
ĠD ec
ĠH el
Ġeurope o
Ġ Ã©tica
Ġins trucciones
Ġtra tada
Ġmar tes
ĠCar acter
Ġde genera
Ġex itos
Ġmi to
Ġcontinu idad
Ġdo p
Ġrevis iones
Ġcorreg ir
Ġvar ÃŃa
Ġdon antes
recu encia
Ġcomer ciales
ĠIN S
Ġespeci alizados
Â ±
id ina
Ġsus tan
Ġbacter ia
Ġcol e
Ġquiz Ã¡
ĠPro mo
ĠT um
Ġh Ãº
que o
Ġap os
ĠP Ãºbl
Ġconsider arse
ĠMie mb
in i
Ġvalor ado
Ġcom entar
Ġaor ta
Ġman chas
Ġbien es
Ġcl or
Ġplan eta
Ġd Ã³lares
ĠG ro
Ġcelebr ado
Ġden omina
Ġasegur Ã³
ĠM os
tor s
h al
ĠM ul
] ,
Ġcom entado
Ġfel iz
is tes
Ġrela tivo
Ġse co
mon ar
Ġquer ido
Ġconflic tos
e cido
Ġconserv ado
ĠCre o
EN TES
ĠCos ta
tra c
Ġf ig
Ġdes hidra
Ġhon gos
Ġfru tos
Ġdetec tado
U B
Ġpublic ada
Ġtratar se
Ġterren o
ĠD om
ist ÃŃa
xi lo
Ã©n ico
Ġgener an
is tido
Ġdej ado
Ġmenopa usia
Ġocas ional
Ġbeb er
Ġcar ta
ĠÃ ĵ
Ġacab ar
l us
Ġinmuno de
Ġda to
y mp
Ġtiro ides
Ġg el
t Ã©s
Ġconven io
ĠInvestig aciones
Ġcon curso
Ġexam in
Ġmil itar
Ġtempera turas
Ġ199 2
Ġab og
Ġacep tar
g ma
ĠespaÃ±ol as
Ġcambi a
Ġpro puesto
ent ada
mm Hg
Ġdomin go
enci ado
Ġneona tal
Ġse p
Ġti s
He alth
Ġfib rilaciÃ³n
tec n
ar nos
Ġcon ocen
Ġâī ¥
Ġpa z
ĠIn ici
ĠAl er
Ġestable cimiento
. ).
Ġanti depres
Ġviv os
ĠÃļ l
le d
th od
R ed
Ġs yste
H B
vent ion
Ġsi quiera
Ġur ban
Ġespon tÃ¡nea
Ġmir ada
Ġexter nos
ĠR ies
Ġperman ecer
ĠaÃ© rea
Ġa ter
Ġn ie
Ġpar Ã¡lisis
ĠA F
Ġexcel encia
Ġmar gen
ĠU su
ĠPe diÃ¡
ac ho
Ġata ques
cri bir
Ġder ro
ĠestÃŃm ulos
Ġre ti
Ġov ario
yac ente
Ġab ra
Ġprofun do
Ġv emos
ĠP ad
Ġdescri pciÃ³n
Ġurin ario
dad as
Ġnutri cionales
or ld
Ġpar as
Ġsom n
Ġperio dos
ĠT V
cula tura
de a
e jo
Ġllam adas
Ġtrans ferencia
Ãº r
Ġdescu bierto
Ġdestac Ã³
est Ã©s
Ġn acer
ĠM AR
Ġingre dientes
ĠCOM O
Ġins omnio
Ġmanten iendo
Ġfir me
Ġhospital arios
fici dad
Ġde x
Ġe u
tel io
vent ud
ĠaminoÃ¡ cidos
f ord
Ġgastrointestin al
O T
ĠFamil iar
ari al
Ġf os
Ġcr istal
Ġfue go
g ina
ĠN ic
ĠH ig
Ġinesta bilidad
ĠBi blio
ĠAs amblea
ĠBogo tÃ¡
Ġbro te
ĠTor res
ĠMÃ© dicas
Ġcon com
% ;
Ġperson ajes
Ġinvestig ar
ĠriÃ± ones
Ġemp ÃŃr
gan ta
o o
Ġrevis ar
Ġtur no
ay o
Ġqued Ã³
i que
Ġregres iÃ³n
ĠcompaÃ± ÃŃas
pl icar
americ ano
Ġcur va
pit aciones
ĠD I
ton ces
Ġley es
ĠMÃ¡ laga
Ġdirig idas
ĠO B
ciru gÃŃa
ĠP P
Ġvari aciones
ven il
ĠPuer to
Ġcompa tibles
Ġtrim estre
Ġingres ados
Q UE
Ġtri un
Ġsemil las
ĠIn greso
ĠIncl uido
Ġs en
Ġcal ific
em ida
Ġpi on
is la
ev alu
E x
Ġpare des
pon ina
, .
ses s
Ġpsic olÃ³gicos
wit ter
Ġdescub rimiento
Ġpar al
Ġimp ues
ĠCu al
Ġdis par
Ġpresent arse
Ġch o
Ġirreg ular
Ġre view
Ġb ril
ĠQ RS
Ġcogni tiva
Ġpe da
C C
Ġ0 7
Ġcre cer
Ġac o
Ġmane jar
ĠC ari
Ġcer e
Ġda ta
ĠA ires
Ġcan ales
e da
Ġcan sancio
ĠAl berto
N P
g lic
es io
ĠFac tores
a den
20 10
Ġan tagon
Ġex puestos
Ġconvir tiÃ³
Ġrefle xiÃ³n
Ġcon cur
J E
z go
ĠPres s
tab ria
Ġsim Ã©
Ġtobil lo
Ġlu pus
Ġmio cÃ¡r
ag e
Ġnom bres
vers iÃ³n
ĠalÃ©rg ica
Ġ za
Ġ0 9
o den
E B
Ġnaci Ã³
bil izar
Ġutiliz arse
ol ismo
ĠT emp
Ġhor ario
Ġsign o
it ante
ER O
Ġprovo can
ĠÃŃn dices
Ġdetec ta
ĠM D
ĠPers onal
Ġre pi
Ġesquizo frenia
ul l
ĠQu in
Ġso bres
ĠH an
ĠseÃ± or
Ġve ci
p ino
Ġnec rosis
Ġdin Ã¡mica
du ra
ĠProf esor
A r
Ġdeclar aciÃ³n
ĠAs turias
c m
Ġexpl icaciÃ³n
Ġpos tura
Ġestable cidos
Ġhor izon
bun al
ĠClin ical
ac u
tr aciones
Ġfac ulta
Ġhidra taciÃ³n
Ġhist Ã³rico
ĠC Ã³mo
Ġconsider Ã³
Ġf re
Ġa ro
Ġestudi ados
ĠB ern
Ġcaus an
Ġrecuer do
Ġhemo diÃ¡lisis
ĠÃ¡r bol
Ġpubl icidad
Ġampli ar
Ġver se
cul tivo
V EN
Ġprolon gado
Ġtermin al
Ġsuici dio
ĠT ar
socia ted
in go
Ġan uales
10 8
Ġli dera
Ġcre en
Ġsentir se
Ġjorn adas
Ġtra tan
Ġex cepciÃ³n
Ġcompor tamientos
Ã¡n icos
di mento
esti m
ĠPubl ic
Ġdeter mina
Ġcon den
Ġn iega
lu jo
Ġpens amientos
di fica
Ġinv esti
Ġpsi quia
Ġul tra
Ġgo bern
E Z
Ġimpres iona
Ġha gan
grÃ¡ ficos
u x
Ġan illo
Ġon da
Ġencontra ba
g ando
Ġin o
Ġllam ar
Ġac us
ĠC he
Ġp ne
Ġag ru
in ario
Ġedi ficio
cal a
J O
Ġines pecÃŃ
ĠC y
Ġhemo globina
Ġcon ducciÃ³n
Ġep ig
ĠMe dio
Ġsuf rimiento
Ġindepen dientes
ĠT an
Ġsil enci
Ġpel ÃŃculas
Ġper cu
Ġang us
g ÃŃas
p Ã¡tica
ul tado
ha us
Ġape tito
Ġsu d
ces a
ĠsÃ¡ bado
Ġca tara
ec era
Ġgr ues
Ġal quil
ĠHe mos
Ġf Ã³s
Ġbas ados
Ġeti que
Ġa ves
Ġp us
w er
Ġcomun itaria
ĠS omos
Ġj e
Ġverda dero
Ġexpres a
Ġamp ol
ĠParti cip
Ġg eno
en z
Ġhe mat
gu ro
ĠE vi
Ġigu ales
Ġaten didos
ĠR esi
ĠAndr Ã©s
Ġpun ciÃ³n
Ġextra Ã±o
Ġprodu cida
Ġgar ganta
Ġavan zar
Ġeduca tiva
ĠUnivers ity
ĠVal or
Ġbar rera
t entes
Ġelectro cardi
Ġhabl ando
ĠPol ic
Ġfl ores
I ÃĵN
Ġal u
ĠE T
ĠVal enciana
ĠO fici
Ġres istentes
Ġcerebro vascular
ĠCas a
Ġsusp ensiÃ³n
w ard
Ġhipo tensiÃ³n
t n
ĠMe xic
Ġca t
Ġse den
ĠL an
Ġdesarroll ando
xi al
ĠH or
Ġcon ferencia
Ġas umir
Ġimp ro
TU AL
ĠG lob
Ġnego ci
Ġdes pe
tec tomÃŃa
dic aciÃ³n
Ġestan dar
ĠTi po
Ġde fici
ĠglÃ¡nd ulas
os u
Ġplac er
Ġinjer to
ĠN ie
Ġencontr arse
ĠI gn
Ġemple ado
Ġrad ical
ĠI R
ĠCON S
Ġr ica
Ġagr ad
ĠX IX
ĠMic robi
Ġhabl amos
ĠEmp res
ĠDe pen
Ġreserv a
Ġneces itar
OR MA
Ġlogr Ã³
Ġpro ven
Ġ0 8
Ġdej an
Ġarrit mias
Ġb is
ĠQ U
Ġop io
m L
Ġexp uls
Ġinser ciÃ³n
Ġres ecciÃ³n
am s
ĠA par
Ã¨ ncia
don os
Ġafirm Ã³
Ġayud arÃ¡
Ġcomple mento
it mo
Ġinfl uyen
N O
Ġrec to
ĠNi Ã±o
ĠInterna tional
20 15
ĠRev oluciÃ³n
Ġf la
u ta
oc al
ĠseÃ±al ar
ÃŃ fer
ent ario
Ġre tenciÃ³n
ĠfenÃ³m enos
ĠEurope o
Ġempez Ã³
Ġcon viv
ĠI AM
ps ias
Ġatrib u
rag ias
z quez
Ġreco ger
ebo ok
Ġcl iente
c Ã³mo
omÃ© dica
aman ca
ĠF l
ad ro
Ġr icos
ĠcongÃ©n ita
der aciÃ³n
ĠPop ular
ig ilancia
vi endo
Ġbas ales
faci al
Ġent er
ĠB A
ĠGu ti
ĠCons umo
Ġ13 0
ĠE u
Ġco pa
Ġpe ticiÃ³n
Ġgas es
Ġexcl usiÃ³n
Ġequi p
Ġimp ide
Ġde amb
ĠT EP
ĠÃŃte ms
ĠH al
!! !!
n ing
Ġdis puesto
te tricia
i um
Ġdi arios
ĠF lor
Ġantigu o
trib uciÃ³n
Ġrecons trucciÃ³n
Ġrecomend ado
Ġsub ray
Ġigual dad
og en
Ã³r icas
Ġmus ical
il idad
der ÃŃa
Ã±o z
Ġna us
Ġcrepit antes
c ales
Ġhum anas
Ġ 00
ĠP in
gr ÃŃa
ĠEspaÃ± ol
form aciones
Ġdomin io
Ġp lu
ĠLabora torio
bil i
Ġun e
ĠJorn ada
n Ã©
Ġpal pitaciones
ĠG rado
Ġreun iones
Ġ1 000
teli al
G E
Ġconte x
Ġpostopera torio
Ġcor ona
ĠInvestig adores
Ġcos ta
Ġpi ensa
Ġperten ece
ĠDer echo
Ġhe mb
Ġquer ÃŃa
ĠE du
Ġau dio
Ġcu char
Ġd uro
ĠU C
Ġdescri ben
ne o
Ġsurg e
( ...)
Ġcal i
Ġapor tan
Ġon das
Ġmar cas
Ġllam ados
ĠCan tabria
Ã ¶
tu ria
f usiÃ³n
Ġco dific
umato ide
ð Ł
Ġcompro b
Ġconsum idores
ĠNav arro
ustri a
Ġin gu
Ġevi ta
Ġpractic ar
on ado
Ġvac aciones
Ġd arse
um bre
Ġ% ,
Ġcap ilar
Ġgluc emia
aliz Ã³
Ġam ong
ĠNue vo
ĠglÃ¡nd ula
Ġrepe ticiÃ³n
Ġra mas
v ero
Ġcoordin ador
Ġfu turos
Ġexter nas
Ġdej Ã³
Ġveh ÃŃculos
f isi
ĠS EM
Ġfer tilidad
Ġca fe
20 13
Ġexperim ent
Ġr ÃŃt
Ġespeci ficidad
ĠEn tonces
le t
ĠB ajo
Ġminu to
Ġdepen dientes
Ġex tiende
Ġinqui e
Ġma dera
Ġas c
Ġestil os
ĠC OL
ez as
ĠSoci ety
ĠGinec ologÃŃa
cel ular
co pe
Ġl enta
ĠV iv
Ġdific ul
Ġdirig idos
ĠIn g
Ġquir Ã³f
ĠU I
Ġretir ar
Ġ ome
tr ing
Ġposi tivas
ĠR EC
gran tes
ĠE B
g ico
Ġla bios
N I
Ġlinf o
Ġtro p
cion amiento
Ġintoler ancia
er ia
ĠL E
ĠcampaÃ± as
Ġmus culatura
Ã©r rez
ar idad
Ġtrad u
Ġdej ando
ĠH en
Ġdes ea
Ġcompres iÃ³n
ĠIn nov
Ġrela jaciÃ³n
ĠC ef
Ġas istentes
Ã ļ
ĠDig es
ĠH on
qui to
Ġben ig
F i
lu b
ĠMan ual
T ICA
ĠB R
Ġha ve
Ġser ÃŃan
Ġinici ado
Ġins pir
Ġag e
Ġcolo ca
Ġdesarroll Ã³
I AL
' '
Ġr ural
ĠT B
ĠT DAH
Ġpar ent
Ġdetal le
20 11
Ġantioxid antes
Ġperfec tamente
Ġal eg
Ġpresent ando
ĠPro tecciÃ³n
te des
ĠSan gre
mo x
Ġindic Ã³
Ġpor tal
Ġintra c
ĠCÃ³r doba
Ġjue ga
ĠVic ente
Ġac tÃºan
Ġasoci an
Ġdi m
Ġtraspl antes
Ġven as
Ġcorrec ciÃ³n
ĠHum an
e mias
ĠCas tel
Ġtumor ales
ĠÃ³se o
s ensibilidad
Ġcorte za
Ġli ter
ĠT ener
ĠA pro
Ġres istente
Ġent iende
Ġdiagnostic ada
Ġh ol
Ġpotenci ar
Ġ199 1
Ġeurope a
Ġdesvi aciÃ³n
us iones
Ġv itales
ĠAus tral
Ġmejor ando
Ġneces it
Ã± Ã³n
ĠR A
ol ina
Ġex ci
tre o
ĠNe ws
ĠI gu
g ru
Ġos te
Ġestruc tur
Ġtoler ada
CI AS
Ġpier de
doc rin
Ġk m
gra m
ĠCar e
Ġsimp les
Ġestim ular
Ġmagn itud
Ġv ay
ĠInf orm
it z
Ġultras on
Ġline al
Ġconf usiÃ³n
ĠSal vador
Ġsitu ado
Ġal em
RA S
Ġdomicili aria
es c
Ġcal endario
Ġdolor osa
Ġte atro
og le
ĠSal amanca
ĠL N
ĠM Ãºlti
Ġubic ado
ĠExpl oraciÃ³n
Ġexces ivo
ĠIn icio
Ġcons istente
ien das
Ġdom Ã©s
Ġunivers itarios
ĠIs abel
Ġapara tos
qu ÃŃa
ĠtorÃ¡ci ca
Ġretros pectivo
p ril
Ġcab al
Ã³ fago
Ġsi enten
Ġco her
Ġnove dos
Ġh uel
ĠVal le
ĠSecre tarÃŃa
ĠOc tubre
Ġsecre ciones
Ġref orma
Ġlimi tado
ti cidad
ol i
Ġcu entas
Ġcre encias
Ġpas e
Ġasegur ado
ta t
Ġad vier
rec tal
Ġdescon oce
Ġcomunic aciones
Ã¡n icas
ĠEs trateg
im ina
Ġa cid
Ġvi enen
Ġra za
Ġtrans mis
ĠEx cel
uros emida
Ġindustri al
Ġgen oma
Ġsatur aciÃ³n
Ġtar je
am ent
g ri
ĠPres ent
Ġperson aje
Ġb ritÃ¡n
Ġconduc to
Ġla vado
Ġes posa
min ar
Ġhabi taciÃ³n
xim as
Ġleuc emia
ĠN utri
Ġcandida tos
Ġconsider ados
Ġdes ac
Ġcol ecciÃ³n
Ġv ec
EN D
Ġcab ecera
ĠH A
Ġin ac
Ġpregun tar
Ġamena za
fon so
um ologÃŃa
ĠTrastor no
et ina
ap Ã³n
Ġe cu
ven ida
Ġres e
ĠH ospit
Ġanal ysis
Ġconsider aciÃ³n
?? ??
ord s
Ġl im
Ġpres tar
ĠDe termin
plas ias
Ġgan ado
Ġconsolid aciones
Ġre vascular
Ġthe ir
mp li
Ġeleg ido
ĠComun itaria
tu a
ĠGal icia
Ġindic ador
Ġex isti
n ab
ĠPue den
ĠsÃºbi ta
Ġinhib idor
Ġman eras
ĠComun icaciÃ³n
Ġpan talla
Ġw omen
Ġdi visiÃ³n
CI AL
ĠEs e
M G
Ġqu al
ig eno
Ġvig or
uc a
Ġpor tadores
ĠM IR
ĠD iv
ga tivo
Ġutiliz aron
Ġhig h
Ã¡l ico
Ġwh ich
Ġparticip Ã³
ar o
Ã¡ zquez
ora x
ĠAr te
ĠAl ta
ta tion
Ġsu bir
Ġpal p
te la
ĠMÃ¡s ter
ĠmolÃ© cula
Ġmelan oma
Ġcol s
ĠB IO
Ġer rad
TAM IENTO
Ġest res
Ġcons tantes
ĠEcu Red
Ġo d
Ġas unto
pe d
un da
dr Ã¡n
Ġse mej
Ġepi demia
ĠRegi onal
Ġinvier no
al im
Ġprob ar
Ġcomple jas
Ġs enos
Ġvis itar
Ġelab orar
Ġfortal ecer
ĠIN TER
Ġin vi
Ġacep table
ĠS P
ĠSe gui
D es
Ġref ieren
Ġindic ada
Ġac ord
ĠContin u
Ġcuidad or
Ġrecor rido
Ġes por
ran o
Ġmill Ã³n
Ġinstal aciÃ³n
Ġincon tinencia
Ġs yn
ĠS AN
po y
In ter
Ġc he
ĠAy untamiento
tis mos
Ġcigar rillos
f agia
Ġpudi eran
Ġ( "
Ġint enta
i osa
ĠS M
g rupo
l iz
ez can
Ġpi ens
G A
Ġps oriasis
Ġcri tic
Ġ5 75
Ġanaliz a
ĠDie go
. ),
Ġimplic aciÃ³n
i ales
Ġin se
Ġlleg ando
Ġcu esta
Ġbi olÃ³gica
Ġfru to
Ġli ti
Ġderiv aciÃ³n
ĠM C
Ġesp inal
M ICA
Ġd as
v ido
Ġper ros
Ġpla za
Ġaf ter
tas ia
venci on
Ġpres taciones
Ġins cripciÃ³n
Ġ _
Ġg uer
Ġsobre carga
en fer
Ġan trop
Ġten dencias
Ġmejor ado
Ġcar re
o per
l ga
Ġcontrib uyen
Ġperman ece
Ġdim ensiÃ³n
Ġfro tis
ÃŃn ica
Ġev ent
e e
Ġrespir ar
Ġprof ila
Ġcol Ã¡
Ġob tuvieron
ie d
Ġreemp la
ad ic
Ġal m
200 9
ĠC C
ĠI den
Ġ13 5
Ġag rup
Ġodon t
ĠIncl uso
ar me
Ġti enden
ĠS OL
ĠPue des
S H
Ġemple a
americ anos
Ġas tenia
Ġ0 6
ĠmÃ³ d
Ġerite matos
Ġ 000
ter ra
Ġo C
pl om
Ġbas adas
i ero
ke ting
Ġar mas
Ġsuficiente mente
Ġpol im
Ġvice pres
ĠM AN
Ġantigu a
Ġy ears
Ġofici na
Ġcapaci taciÃ³n
Ġaplic ada
ĠE R
ec as
ĠP at
Ġinmun osu
ĠLon dres
ic ante
nes is
Ġguar dia
Ġfibro mialgia
Ġnoctur no
Ġcambi ado
Ġcoci na
la go
Ġdenomin ada
Ġinclu idas
es tival
al s
ĠE upne
Ġprede cir
Ġgra mos
Ġg ros
ĠD ÃŃ
i der
x ona
ĠAmeric ana
Ġinsu ficiente
Ġaconte cimientos
ti fica
ĠMu Ã±oz
Ġh s
Ġesp ÃŃ
t ula
Ġg obier
Ġ0 3
ĠE V
Ġconj unta
ĠÃ³ v
ĠEsto y
Ġmolec ulares
Ġpl ena
ĠgÃ¡s trico
pi dez
ĠT O
Ġen gros
ĠaÃ±ad iÃ³
Ġexpan siÃ³n
Ġcorrespon den
te x
isi era
Ġa vi
Ġang ina
ec o
en ces
Ġmedi cin
ron ic
Ġg ig
Ġobten ida
Ġprofes ora
ĠEs per
Ġinflu ir
Ã³ xido
Ġme tal
Ġinfra estruc
T H
Ġn av
or ro
r ica
ios os
ĠD ar
Ġbus can
ti zado
Ġresul tÃ³
Ġmod alidad
Ġprolifer aciÃ³n
20 14
enci ar
hi p
ĠTecn ologÃŃa
ĠDirec tiva
ĠU rea
Ġdomin ante
ĠB on
L o
Ġpas ada
Ġg lic
Ġl istas
Ġcul tiv
Ġcent ra
ĠOf talm
Ġg ir
Ġev it
Ġan estÃ©s
Ġe mis
Ġnaus eas
Ġcromos oma
ĠArag Ã³n
Ġmor al
Ġpar ticulares
ĠPar ÃŃs
Ġacces ibilidad
ĠP AS
ĠTen go
ĠEn docrin
f oro
ĠM EN
ĠFi gura
Ġtes is
Ġvari antes
Ġjus ticia
Ġkil Ã³metros
Ġcon du
ec k
ĠC lub
ĠJ e
ĠSal a
di l
pi Ã©
Ġleg ales
ros a
Ġdefin ido
ĠGuti Ã©rrez
Ġpros pectivo
d ares
Ġcons istencia
g em
ph p
Ġprepar ado
Ġfi j
Ġsh ock
Ġtom ografÃŃa
Ġdistin ta
ĠCan adÃ¡
p un
Ġprofila xis
Ġane uris
tan t
Ġj am
ĠAB D
Ġcor ne
ĠantÃŃ geno
Ġhidr Ã³geno
ĠO x
Ġson ido
Ġpr ena
Ġmanten ido
ĠK o
Ġperfec to
Ġexac tamente
ĠIgual dad
Ġv io
Ġdepor tistas
Ġ0 4
Ġproducir se
Ġven oso
me d
ĠNe fro
Ġy og
Ġintermi tente
Ġimp e
ta je
g Ã³g
Ġprodu ciendo
Ġfisio terapeu
ĠD ada
Ġdis curso
Ġi dio
Ġcontrol ados
ĠVas co
Ġform ada
Ġfu tbol
Ġmara vil
Ġenf oc
Ġprepar ados
Ġconsigui ente
mad uras
ĠS os
Ġelec ciones
ĠPol ÃŃtica
Ġdoc encia
V D
Ġprena tal
Ġsuper vis
Ġrig idez
Ġcal iente
Ġac tores
os e
ĠC lar
ĠMar tin
Ġtex tos
ĠcuÃ¡n do
ĠE A
Ġme til
Ġar tes
iv ado
Ġciruj anos
ĠmÃ³vil es
Ġlar gos
U P
ĠIgn acio
Ġpos icion
Ġpobre za
Ġambula toria
Ġo culares
Ġdesn utriciÃ³n
ue los
Ġps ÃŃqu
Ġciru gÃŃas
Ġmos tra
Ġesque ma
Ġponer se
ĠMay o
qu era
Ġocur ren
Ġb ru
ĠB re
Ġdis per
Ġfel ici
cho ol
Ġsi tÃºa
Ġincorpor ar
cion ado
b ur
ĠCari be
Ġconsolid aciÃ³n
Ġinteres ados
Ġsegu ida
re tro
Ġaliv io
Ġestre cha
C om
Ġher mana
Ġobserv acional
in dex
Ġi buprofeno
Â ·
v ada
ĠE CO
Ġprotec tor
Ġcuar ta
Ġconjun tamente
Ġasintom Ã¡tica
en di
Ġpriv ados
ĠPar tido
I OR
vent ricular
Ġi v
ĠGas tro
Ġh umo
Ġrecur rir
E E
Ġro tura
ĠIgu almente
Ġder matitis
am nesis
Ġinhibi ciÃ³n
Ġresul tan
ĠRes to
Ġcoh orte
Ġ10 1
ĠRecom end
ĠsÃŃn dromes
Ġvis uales
tan a
Ġs ense
ĠÃ³se as
Ã©p tico
Ġflu ido
g us
ĠR iv
di ciÃ³n
ĠSan tos
ĠM ill
Ġlimi ta
ĠWil li
Ġana tomÃŃa
bl os
Ġg est
ĠPs ico
Ġtri bu
ul lo
Ġmo da
Ġadop tar
Ġs illa
mor talidad
200 7
D ay
Ġinclu ida
e j
Ġex haus
Ġun if
ĠEurope an
Ġglu ten
Ġcal cula
ĠIntegr al
Ġabsolu ta
Ġdi os
Ġcons cientes
ĠnÃº meros
Ġjus tific
ĠG ab
Ġbom ba
z ina
Ġdi d
ĠcongÃ©n itas
Ġfactor s
ĠCas tillo
ĠEs tÃ©tica
Ġpro vis
Ġqued ado
Ġdo ce
Ã µ
Ġins taur
Ġconfirm ado
ED AD
us ion
Ġclar os
Ġobs tructiva
v ez
Ġcon gel
ĠS el
Ġaconse ja
Ġlongitud inal
Ġsens or
200 6
ĠHiper tensiÃ³n
Ġpse udo
Co V
Ġpo tente
M E
ad al
Ġsintom Ã¡tico
Ġsec os
d ados
Ġcl im
ĠQ uer
Ġran dom
ue va
Ġap ari
Ġpar o
Ġsex os
Ġdirig e
F E
ec ular
Ġoblig aciÃ³n
A c
Ġt ÃŃtulos
z z
p idos
ĠTe le
ĠDe por
Ġex puesto
Ġp ide
Ġex ista
Ġrecomend ada
paÃ± a
Ġsolu cionar
Ġenvi ar
Ġresid uos
Ġmanifes taciÃ³n
Ġno ci
Ġinv it
Ġvari ante
Ġestadouniden ses
p ri
ĠAl ter
Ġdefini tivo
Ġex acer
Ġus tedes
infec ciÃ³n
Ġperit on
Ġcolab orar
ĠA ra
i tores
ment al
ĠA umento
ĠAle jan
Ġmor bi
Ġalter n
ĠCon f
Ġcu yas
Ġsecre tario
de os
Ġbor des
Ġfran cÃ©s
Ġv id
Ġcomp et
gen ia
Ġlinf oma
Ġcontinu ada
Ġprior idad
Ġescal as
Ġanaliz ado
Ġseleccion ado
ĠestÃŃm ulo
ON A
Ġpar che
ing Ã¼
ĠF orm
ĠN R
Ġre misiÃ³n
Ġinform Ã³
con trol
ĠEn c
Ġpes os
Ã± ar
Ġvari aciÃ³n
Ġde posiciÃ³n
Ġdi e
ĠV ent
Ġfu turas
Ġa tÃŃ
Ġan or
ĠEN F
sal ud
ĠTor re
Ġinmun itario
Ġvis ible
ĠV ida
Ġman da
Ġ10 2
Ġtera peu
Ġpuer tas
Ġorden ador
Ġintegr ado
um er
Ġexpector aciÃ³n
Ġcom itÃ©
Ġade lga
Ġpermi tiendo
Ġextra c
Ġ10 5
Ġrevel a
ĠDan iel
te mp
mox icilina
te les
ĠB u
P ER
ĠH y
ĠM ag
Ġprote in
Ġman ag
ĠInnov aciÃ³n
ĠacompaÃ± ada
loxaci no
Ã± ad
ĠG R
Ġacos tumb
Ġentrevis tas
Ġg laucoma
ĠMus eo
ĠRes pon
Ġmac ro
ĠU E
ĠE merg
ĠRec uer
f rag
te a
Ã©n qui
Ġre umatoide
olar izaciÃ³n
ĠS ar
Ġcr ÃŃticos
ĠInstitu te
ĠAG U
Ġcur ar
Ġtrabaj ador
n era
Ġcombin ado
Ġ Ã¡l
Ġinfec tados
ĠD IA
Ġca u
ĠW ash
pas os
ace te
Ġeso f
car cinoma
Ġblan cos
Ġmas aje
Ġemp ie
Ġde ten
de mo
Ġindis pens
ĠS S
ĠRes oluciÃ³n
Ġfig uras
Ġima g
Ġnove dades
P D
ĠVen oso
c rin
ĠEdu ardo
ĠE f
Ġcardi ologÃŃa
Ġru ido
Ġexclus iva
Ġunivers o
Ġsupon en
Ġbi ologÃŃa
og ene
20 16
ĠRe visiÃ³n
ĠPrim era
ĠUro logÃŃa
p rim
ĠDe f
AN TE
T o
gar se
Ġci en
Ġcr Ã©di
ĠDi uresis
Ġisqu Ã©mico
Ġ10 3
a unque
Con s
Ġasisti da
Ġf lo
f l
Ġpo bres
ud as
Ġin cons
ĠTo da
tro m
ĠRe habilitaciÃ³n
el d
Ġpod ÃŃan
ÃŃl ico
A RA
Ġpodr Ã¡s
Ġmagn esio
Health Day
Ġrec tal
Ġh il
ici pios
ol ia
Ġrece tas
in ales
Ġden unci
Ġf luc
Ã¡nd olo
Ã¡ rea
Ġhemor ragias
200 8
Ã¡ rez
Ġbar reras
or den
Ġtan tos
Ġvir tual
Ġun ido
ĠInfec ciÃ³n
Ġmal os
Ġdistin to
ĠhÃº me
Ġrecom iendo
Ġvig ente
ĠAl fonso
Ġinteres antes
Ġperio don
ĠJ apÃ³n
ic Ã¡r
ĠD en
ero p
Ġhorm onales
Ġmarc ada
Ġas istir
Ġdistin guir
ĠautÃ³n oma
i ologÃŃa
Ġne utr
Ġgo ta
Ġas imismo
Ġabor to
Ġtrans iciÃ³n
mus cular
Ġdi al
Ġbus c
Ġmorf ologÃŃa
Ġproces amiento
man o
Ġrepe ti
ĠTRA TAMIENTO
Ġmal formaciones
Ġexig e
Ġmar ido
is co
Ġdiges tiva
Ġestad ios
................ ................
ĠSE G
Ġfrac ciÃ³n
ĠBuen o
Ġgestion ar
fil a
Ġmetas tÃ¡s
ĠC uer
co co
r ico
Ġmar cado
Ġin ex
Ġgo tas
ĠG RA
is on
Ġofici ales
Ġfr us
Ġ olor
ĠE le
Ġcarbo hidra
Ġpros pec
C ar
ÃŃ cl
ĠH M
Ġnecesita mos
Ġmic cional
i j
ch er
Ãµ es
Ġdiab Ã©tica
Ġefec tivos
ĠTi empo
ĠcÃ¡l culos
Ġenfer mero
Ġw ork
Ġro taciÃ³n
Ġdepor tivo
Ġsin g
Ġpro gen
Ġacer car
ĠRec ur
Ġ13 6
Ġsepar aciÃ³n
Ġin toxicaciÃ³n
Ġluch ar
ul d
ri le
ĠcÃ³r nea
o terapia
Ġqu era
Ġo posiciÃ³n
Ġm ari
Ġfemen ina
Ġde bil
pon e
Ġtom e
ĠBlan co
Ġpre opera
Ġveh ÃŃculo
Ġpriv adas
Ġtr ic
Ġagrade cer
Ġrecurr ente
ÃŃ metro
Ġal gor
ĠMe ta
Ġtu ve
Ġcaus ado
ĠperÃŃo dos
Ġsuspen der
ĠSan t
Ġro bo
Ġviv ienda
Ġel imina
Ġacum ul
ĠT ampoco
Ġpsi quiatrÃŃa
Ġadic ciÃ³n
i ter
Ġ0 5
ĠWash ington
qui p
Ġestruc tural
Ġqu itar
Ġalcan zado
Ġsuminis tro
Ġcur sa
ÃŃ fico
Ġs tudi
Ġprop ens
ĠEdi torial
ĠestÃ¡n dares
Ġha bilidad
uc ar
tr en
b um
Ġar co
ĠDis capacidad
uy a
Ġextre mos
Ġinfantil es
Ġen ga
Ġform ando
j al
AD OS
Ġabandon o
Ġign or
ĠS am
ra m
Ġal ma
Ġcolec tivos
ĠT VP
ĠcolÃ¡ geno
Ġpul s
Ġlle gue
Ġsomn olencia
Ġrepresent ante
Ġher pes
ĠPrin cip
Ġparti da
Ġes Ã³fago
Ġli qu
t acion
ĠA fec
Ġan tir
ĠI buprofeno
Ġescas o
ĠE RC
s ito
ĠAR N
Ġcent rado
Ġprevent ivas
ĠP C
Ġpreca uciÃ³n
vil a
ĠF rac
tro cin
Ã©r idos
Ġis o
g y
Ġautor a
ĠUn idades
Ġneo plasia
T abla
Ġerite ma
Ġfel icidad
p ÃŃa
ĠMedi ante
Ġcerc ana
Ġcre er
os copia
Ġimp re
Ġderiv adas
Ġfund aciÃ³n
oci n
in ado
Ġalum no
% :
Ġcomun icar
Ġhuman idad
Ġdes trucciÃ³n
Ġga fas
Ġen cefal
Ġresid ual
bil ical
Ġmantener se
Ġex tin
Ġinmun olÃ³gico
Ã© ase
Ġblan que
Ġar re
S an
Ġestable cimientos
ta tivo
Ġab us
Ã©nqui ma
e fec
Ġenfr entar
Ġemerg encias
tria xona
UL O
teli ales
Ġmi de
ĠPor tu
Ġpobl acional
paci dades
Ġrefer encias
Ġt olera
di d
li te
Ġl ento
Ġo clusiÃ³n
Ġnovel a
of ar
Ġderi va
Ġa ti
aci dad
Ġmarc ador
Ġver bal
paci onal
Ġbio quÃŃ
Ġcontac tos
Ġcoleg as
Ġti er
Ġsex ualidad
Ġrecord ado
v enta
Ġan tiv
Ġvalv ular
ĠCh i
Ġdefen der
ĠBien estar
Ġredu cida
Ġcons truc
Ġcab el
Ġespi ri
M P
ĠEx tra
ĠÃ¡n gulo
Ġaquel lo
ĠTÃ©cn ica
en ing
ci pe
vi amente
ĠF AR
Ġneces ariamente
di bular
Ġconvuls iones
Ġ ðŁ
Ġdias t
Ġhaber se
Ġas sociated
Ġca er
Ġpa Ã±
Ġanticoncep tivos
Ġinfl uye
N F
p ados
Ġu Ã±as
Ġper cep
Ġmin eral
her e
Ġra tas
Ġcent rales
Ġeduca tivos
Ġpuntu aciones
Ġnas ales
ĠQu iz
b ran
Ġhum edad
Ġcr Ã¡neo
Ġposi bil
Ġdoc tores
Ġmer ece
ĠTra umatologÃŃa
Ġplante ar
Ġpare cido
M a
as ia
Ġra pidez
Ġcere ales
CL US
Ġextra er
Ġtra c
ded ores
ta m
Ġan orm
Ã³n icas
ciente mente
it ra
UM EN
Ġsensi bilizaciÃ³n
ĠComple jo
in ta
form ina
Ġ8 00
Ġaprovech ar
Ġve ter
o cer
di mens
Ġcor rer
I AS
ter es
Ġimpul so
Ġde jo
ta g
gÃ©n ico
Ġcontac tar
Ġno tific
Ġintersti cial
Ġv om
ĠPo d
Ġul cer
Ġreduc en
Ġreg la
Ġha go
Ġabsolu to
p olar
ĠR HA
Ġestad ÃŃsticas
Ġm ach
Ġsatis fec
Ġepidemi olÃ³gico
ĠmÃŃn imos
ris a
Ġperson alizada
Ġapari encia
Ġcas as
Ġos cur
Ġser io
Ġtrad iciÃ³n
Ġte Ã³rico
Ġedi ficios
Ġde je
anim aciÃ³n
Ġdepor tes
Ġos ci
u to
Ġcolab ora
ĠAmb os
ĠMay or
Ġidentific an
Ġa ver
RC V
la terra
Ġpertene cientes
ortun adamente
Ġconta mos
Ġpens ando
Ġhab ido
ĠRe vis
Ġpar es
al gias
Ġ10 7
Ġcir cula
iv al
ĠMiemb ro
Ġpl en
Ġv el
Ġat le
Ġa vent
Ã³b ulo
Ġedi torial
ĠProfesi onal
ĠPri mer
Ġval e
Ġimplic aciones
Ġdeshidra taciÃ³n
Ġconsider ando
Ġh ambre
Ġinter nos
Ġhin ch
Ġsustitu ciÃ³n
vers ible
Ġexper ta
b on
Ġfil osofÃŃa
Ġaisl ada
Ġ ital
Ġ16 0
Ġdepen den
Ġidi oma
Ġajus tar
tÃ¡n dose
Ġg ama
am es
Ġpredomin ante
Ġprofun di
ĠE dad
S in
Ġle ma
Ġdis capaci
i Ã©n
Ġab er
ĠCrist ina
ĠanalgÃ©s icos
ES T
ios as
b ros
cul taciÃ³n
ĠmuÃ± eca
Ġequilib rada
Ġsign ificaciÃ³n
c c
e ciendo
Ġrefor zar
Ġcoleg ios
ĠDE R
ĠcompaÃ± ero
Ġnucle ar
ĠD S
Ġconcep ciÃ³n
Ġgl omer
ĠS ierra
3 00
ĠC iv
Ġsuper visiÃ³n
N E
ex o
Ġcur s
Ġequival ente
Ġar trosis
Ġprogres ivamente
ĠRey es
ĠAlejan dro
ĠCar ta
Ġsupon er
Ġmedi terrÃ¡n
tic e
Ġmejor an
QU Ãį
de lo
Ġfi jaciÃ³n
ab o
ÃŃ ces
ĠDer matologÃŃa
ĠEj ecu
ĠR T
F ICI
Ġdistrib u
Ġger ente
ĠMÃ© todo
Ġconvenci onales
ĠO PS
b oles
ĠAs ia
all er
Ã³g ra
Ġtan ta
ĠENF ERM
on arios
Ġexpres ar
Ġmovil izaciÃ³n
Ġse min
Ġqui era
ĠAnd alu
Ġanal itica
Ġrefle xi
ĠneurolÃ³g icas
Ġre iv
Ġfaci ales
Ġch oc
ces os
Ġsuscep tibles
t te
Ġdescri ta
Ġser ia
ĠC OR
cu ra
ĠCab e
Ġmal aria
tri to
ĠOb es
M ar
ĠLD L
tab la
Ġresca te
Ġhe tero
Ġgr is
it s
Ġper ro
Ġaplic ado
Ġto car
TIV A
Ġtem bl
Ġreg las
Ãº menes
e ciÃ³
mi th
ĠPla ta
Ġt y
ĠE D
ĠGo ogle
t he
Ġimpor ta
ĠRom ero
ent aria
Ġdec ÃŃa
Ġn on
Ġla ment
coles terol
ĠvÃŃc tima
Ġox igeno
Ġcompues ta
ĠM T
Ġplan tilla
ta to
ĠProvin cial
ĠU U
Ġcan s
Ġlac tantes
h y
Ġn ace
ĠHD M
ĠDe porte
Ġvag ina
lic Ã©ridos
Ġrel l
Ġman tuvo
Ġinmi grantes
ie lo
Ġdiagnos tico
Ġtendr ÃŃa
ĠSi mp
lan tes
ab sor
Ġtom Ã³
Ġmaes tro
Ġleucocitos is
Ġc eb
as es
Ġpro greso
Ġter ror
ÃŃ metros
Ġta p
Ġins pec
Ī Ĵ
ĠS US
Ġdetermin antes
ci ca
Ġter m
v or
Ġdese quilib
Ġvers us
Ġes pl
Ġarro z
ĠC T
Ġes pe
Ġba talla
g estiÃ³n
Ġvia jes
Ġer itro
S D
ĠIn gen
Ġcompar ado
cus iones
ici onal
ĠJo an
los o
ĠAl icante
ĠespÃŃ ritu
Ġor top
Ġr ico
Ġloc alizado
Ġmemb ran
Ġrefle jo
ĠM ara
Ġtri ple
ĠT est
Ġcu ero
Ġinsec tos
ĠmÃ¡ quinas
Ġdiscri minaciÃ³n
N e
Ġderiv ada
Ġca pas
ĠAC TUAL
Ġcor tes
Ġmanip ulaciÃ³n
pas mo
Ġcr isti
fer as
Ġdesplaz amiento
Ġcarbohidra tos
Ġbrin dar
uc o
Ġpilo to
Ġestre ch
Ġcomba te
cardi tis
Ġhiper trofia
ole do
am ino
Ã¡l ica
Ġsal v
Ġdis li
Ã³ li
Ġca ÃŃdas
pro duc
ĠVP H
r ina
c olor
Ġconcom itante
Ġingu inal
Ġdes es
ĠÃ³p tica
ef acciÃ³n
Ġcomien zan
Ġdeclar aciones
Ġdel gado
ĠJorn adas
ĠPL AN
Ġexperim entar
ing s
e pi
ĠS oy
Ġorganiz ada
Ġrespon den
Ġocasion ar
br ales
Ġapun tÃ³
n idad
ĠA po
ific ado
Ġmuc osas
des taciÃ³n
Ġl lu
ĠFisio terapia
it ritos
Ã©n trico
Ġcaracter izada
Ġcompro bado
ĠcÃ¡ps ula
Ġru p
ĠEpidemi ologÃŃa
Ġparent eral
l ab
Ġper dida
Ġcon tÃ³
ĠE U
- (
G RA
con d
Ġtan tas
Ġpre cip
Ġevalu Ã³
Ġsi bil
ĠAc tividades
Ġre tin
Ġcas e
Ġpati ent
ĠAustral ia
Ġencues tados
Ġj ab
ĠelectrÃ³n icos
ĠplÃ¡s tico
Ġhemodin Ã¡mica
ĠÃºl cera
D r
Ġdi jeron
Ġau dios
Ġti ende
Ġmens tr
Ġdeb ida
O X
Ġdeman das
Ġter mina
Ġcumpl en
Ġbar rio
Ġhincha zÃ³n
ĠR icar
Ġacuer dos
Ġllev ando
Ġpel vis
Ġmencion ado
ĠIng laterra
Ġinn eces
Ġsin te
ĠN aciones
Ġvuel to
Ġc ran
Ġvolun taria
dnis ona
Ġepidemi olÃ³gicos
Ġrecurr encia
ĠCal cio
ola te
Ġreal ice
tori amente
Ġparad ig
om egal
ĠE qui
ĠA gr
cer tid
Ġsab es
ĠT res
Ġintestin ales
Ġlic encia
ĠFac ebook
Ġantidepres ivos
Ġhi al
ĠMon te
is s
R ES
V E
Ġl entes
Ġdefin ida
Ġin to
Ġf osa
ĠEs clerosis
Ġsecund arias
A A
Ġambula torio
Ã©p tido
l s
Ã¡nd ole
Ġsir ven
ĠN ivel
ĠL es
ĠIn dia
Ġre medio
ĠCual quier
b y
Ġagu dos
ĠneurolÃ³g ico
Ġsal var
Ġdesarroll ada
Ġ198 9
Ġabund antes
in idad
ĠS L
Ġpue blos
Ġemple ar
re us
Ġle vel
Ġcari es
ĠlÃŃ pidos
ĠHum anos
Ġgra b
U RA
Ġdestin ado
par to
Ġinte gra
Ġr acional
cor e
in aria
fi lo
ĠclÃ¡s ico
Ġdi ana
que dad
Ġpedia trÃŃa
ĠP atologÃŃa
ĠO me
Ġconduc e
g s
bi as
ti fi
m Ã©
Ġpedia tras
Ġc ell
Ġma trimonio
ĠP ilar
Ġden gue
-------- --------
Ġprodu zca
z on
Ġuter ino
am en
ĠF G
gra mas
Ġblan das
Ġth erapy
ĠV a
Ġch icos
Ġne gra
Ġbiom arc
Ġgobier nos
Ġtrans fer
an gio
Ġexud ado
Ġsal udo
Ġinstitu cional
Ġmunicip al
Ġv it
pu bl
i pe
p el
Ġfirm ado
Ġob tienen
Ġcalci fic
iz ed
Ġminimi zar
ĠF DA
Ġpie dra
f ig
H ay
Ġap uesta
Ġte orÃŃas
Ġcu ento
IC AS
Ġpap il
bi al
Ġaut Ã©n
ĠcutÃ¡n eo
ĠvÃŃn culo
ĠMa gn
a torio
Ġavan zadas
ĠTer esa
C N
Ġmun icipios
Ġp ez
Ġprovo cando
Ġca y
ĠÃ³pti mo
h r
Ġcomun ica
ĠB ea
j ano
ĠCan arias
Ġub icaciÃ³n
Ġin duc
ĠK ar
ĠW al
Ġpresti gio
Ġviv iendas
ĠFE VI
di ales
Ġautor idad
Ġproporcion an
Ġregis trado
ti u
Ġproble mÃ¡tica
Ġar tistas
ĠPo demos
ĠHe pa
Ġcon oc
Ġd arÃ¡
ĠPro b
Ġmas iva
ĠN A
J A
Ġen ro
ĠJos ep
Ġimpuls ar
Ġtras cen
M ENTE
Ġgran ul
Ġpla que
+ +
ĠHe art
Ġbal Ã³n
Ġra ÃŃces
Ġadap tar
Ġn ico
ĠMan ten
ĠUn idas
fa to
Ġsin tomas
Ġcorpor ales
os idad
ĠprÃ¡c tico
ĠM at
ĠVal oraciÃ³n
Ġco e
Ġcon cord
Ġpre li
orm es
Ġcoment Ã³
Ġ12 5
ÃŃgen as
Ġrar o
ĠMor ales
Ġno ches
Ġdi ariamente
Ġre Ãºn
Ġf echas
ĠT el
Ġma triz
Ġro jos
qu ÃŃn
ric ulares
Ġcre Ã³
Ġan Ã¡
ĠF eb
Ã¡c tico
Ġgen ital
ĠEl ena
Ġsan as
Ġimpres ion
Ġin ducciÃ³n
oci to
Ġmetab Ã³lica
ĠI F
f asis
ĠHEM AT
in do
Ġau tos
ĠPre val
ĠAlb acete
Ġgaran tiz
Ġtab las
m eno
Ġdismin uido
Ġj ar
Ġcontrib uciÃ³n
Ġtra tadas
Ġm cg
ĠSci ence
Ġahor ro
Ġagrad able
Ġpa trocin
Ġf ues
Ġg ene
ĠBi ologÃŃa
Ġaisl ados
ier an
Ġcotidi ana
Ġsent imiento
Ġpresent ados
er ta
Ġsed aciÃ³n
Ġciudad anÃŃa
velop ment
ĠB ay
ĠXX I
tera pÃ©u
Ġ Ã©n
Ġperif Ã©rico
D IO
ĠA van
ĠT ab
ĠA ma
Ġcomplic ada
ĠSur g
Ġju z
L D
Ġtraspl an
Ġproce dente
Ġca tar
or f
Ġmoder na
ĠH g
t ÃŃas
Ġol iva
j un
ĠH IP
Ġcub anos
ĠquirÃ³f ano
Ġr enta
Ġvulner ables
Ġanti cip
iz Ã³
Ġseg ment
Ġsus t
Ġmen ingitis
Ġesper mato
Ġtr Ã¡n
200 5
Ġcate dr
Ġl lan
Ġestruc turales
Ġcom bus
Ġco do
Ġencar gado
ĠI B
a pro
TA C
ĠL is
Ġincon ven
Ġfe der
ĠQu Ã©
ĠTri bunal
Ġestable ciÃ³
Ġma tr
Ġcan ciÃ³n
ĠCh ild
Ġacredi taciÃ³n
ĠIma gen
Ġes pu
Ġph ys
um ador
Ġgener aciones
c encia
Ġapar te
ĠCu bana
us as
Ġc ÃŃr
Ġbi ci
h os
ĠMan tener
ĠÎ¼ g
ĠZ a
i Ã©ndose
Ġinf recu
Ġmencion ar
Ġimp on
f ri
ĠD D
Ġdirec tivos
Ġocci dental
Ġa trofia
ĠL uc
ĠA di
Ġi mi
Ġencues tas
Ġfer ro
Ġal ve
per it
ÃŃs ima
ivers ario
Ġmedi ados
ĠÃ¡r boles
Ġne g
Ġlig ero
Ã© m
n ado
Ġvent as
Ġcir rosis
retro vir
ĠP UE
ĠW orld
Ġpron unci
uen a
urs ing
Ġpertene ciente
U G
Ġin certid
ĠP el
R es
Ġexpl orar
o ta
ĠÃ³r denes
200 2
a to
Ġme dular
sess ment
gÃ©n ica
Ġref orm
ĠSe x
Ġt ren
Ġes cl
Ġtra tando
Ġesta tinas
Ġreg al
ĠÃ©n fasis
Ġhep Ã¡ticas
Ġlle vo
im Ã©
Ġac tor
ĠP OL
Ġvi endo
Ġlidera zgo
Ġsosten ibilidad
ĠVall ad
ĠEcon omÃŃa
f lu
Ãº de
ĠUsu ario
ĠEp iso
Ġpop ulation
ĠAu tor
Ġro ja
Ġel as
ĠR i
Ġcandida to
ĠenseÃ± ar
Ġcon ferencias
as te
Ġenfer ma
Ġpos iciones
Ġdiferenci ar
ĠO ro
ĠG ir
Ã©n dez
ĠM VC
D er
Ġfem oral
Ġrelacion an
Ġn aran
Ġs p
Ġextens a
et ÃŃn
Ġgener alizado
Ġ198 0
Ġrequer ir
Ġacu den
Ġ198 8
ĠlÃ¡c teos
ens is
os ino
ril la
Ġcorrec tas
Ġe misiÃ³n
Ġs ales
Ġincorpor a
hi bir
yu vante
Ġla v
Ġb ara
Ġju bil
Ġpne umonia
ent amiento
F ig
Ġace ites
ĠEs p
Ġes con
ĠN eces
Ġescas os
Ġrecomend ar
Ġsome tido
Ġrec al
ĠEvalu ar
Ġfras e
Ġveci nos
Ġll ena
Ġcontra taciÃ³n
Ġl Ã³bulo
it ares
pon er
Ġhue vo
Ġm ur
Ġvege tal
Ġvalor ada
tÃ¡ culos
me til
Ġcon cer
pu taciÃ³n
ĠDo wn
mb o
Ġrequer imientos
j ados
Ġdif usa
Ġminis tra
Ġin cent
b ac
ĠÃ ł
B L
p ue
ĠSegui miento
ble mas
Ġestar ÃŃa
ĠCons ulta
Ġnombr ado
Ġdirig ir
== ==
" )
i Ã¡
Ġque de
ĠM L
iz ando
Ġmigra Ã±a
er aciÃ³n
M an
Ġse mes
Ġhe mato
ĠCol abor
rin Ã³geno
Ġtrig licÃ©ridos
Ġgest acional
Ġaliment icios
M I
ĠS en
Ġdro ga
ĠtrÃ¡n sito
Ġesta tu
Ġgl Ã³bulos
ĠS V
cre ening
ĠR amos
Ġ1 12
u ter
Ġm ando
Ġpreocu pa
ĠSN S
Ġapor taciÃ³n
le ge
Ġdes pues
Ġza pa
Ġinflama torios
Ġci tado
Ġco caÃŃna
le x
Ġsup rar
ĠT ex
Ġo ver
Ġsi ga
ÃŃ ticamente
ĠA ten
Ġres tring
en io
Ġanal ÃŃtico
Ġ13 9
Ġapar entemente
ila teral
ĠHid ro
ĠM ario
Ġdeber se
ri mir
N R
Ġsig los
xima b
Ġdeb ÃŃa
Ġmo dal
ĠH ern
Ġru tin
Ġmul tiv
ĠC IB
Ġpsic Ã³logo
Ġa gen
Ġcolabor ador
Ġesta tal
UL A
Ġcan ciones
Ġembara zos
Ġque maduras
r ando
Ġperiodis ta
ĠG ol
biÃ³ ticos
Ġsever idad
ine mia
Ġll eno
Ġt orax
ĠCiv il
Ġorg Ã¡nica
ĠK ey
Ġhospit alizados
Ġsitu ada
Ġfor o
h acer
Ġcon me
ĠD P
ĠIg lesia
Ġpru rito
Ġfl or
ad uras
Ġinteres a
Ġap r
EN O
ios is
ĠD ol
Ġmens tru
Ġeduca tivas
OM A
Ġcons ens
Ġaco pl
Ġer os
Ġ13 8
Ġsin dica
Ġaliment arios
f avor
Ġdur ing
Ġsu av
Ġevalu ado
Ġcontro vers
i gu
Ġti ra
Ġcontra tos
am inas
Ġcogni tivas
bi eron
Ġpudi eron
ri les
og lob
ĠDis cusiÃ³n
Ġpar que
Ġalmacen amiento
ĠR aras
Ġrue das
Ġconstante mente
n ica
l oro
P V
Ġofici nas
um an
ĠEcu ador
Ġpat Ã³genos
f ormaciÃ³n
Ġper tin
Ġpl eno
ĠAsoci aciones
ĠgÃ¡s trica
Ġinterpre tar
Ġno tar
pa th
arc oma
Ġfuncion arios
ĠTro ponina
Ġdi ente
ĠI TU
Ġmor e
Ġpen dientes
Ġdiferenci aciÃ³n
ĠCL ÃįN
Ġcre ce
fo bia
ĠPA CI
Ġabor da
Ġbenefici oso
Ġc Ã¡n
ĠcomÃºn mente
Ġtranspar ente
er do
me dad
a titis
or re
tro f
b acter
Ġpe le
ie ve
ing er
Ġfan tas
ĠnÃ³d ulos
Es te
ĠCa pit
Ġre medios
Ġprevent iva
Ġenc amin
ĠPla za
Ġan amnesis
Ġfi ja
ĠdiseÃ± ar
or y
ĠT ea
de genera
ĠCOM PR
Ġexperim entos
Ġconcl uir
Ġvig il
ĠD ens
le to
Ġinteg rantes
Ġla tino
mos is
Ġher encia
ĠProce dimiento
Ġpor tador
Ġcontro la
Ġseg mentos
Ġobes os
a gre
Ġrep olarizaciÃ³n
Ġdel ic
Ġap nea
Ġre tar
ac tivo
ti lo
Ġimpe dir
tin ib
Ġmater no
tÃ¡ culo
ĠCon ferencia
f u
ĠAr tes
ĠOdon tologÃŃa
ĠL eg
Ġdedic ada
Ġcon tener
dia gn
las a
UL TA
Ġdeci dido
ĠC Ã³digo
ĠCons ciente
Ġg amma
ĠT oledo
ĠEs a
ĠPar que
Ġmedi ciones
Ġprop ici
Ġestabl ecen
Ġpublic ar
Ġresul ts
F C
Ġfies ta
Ġte mor
ent ino
gen a
Ġp iso
Ġselec cionar
Ġcolor rectal
Ġreper cu
te ga
Ġmarca pasos
plas ma
Ġintens ivos
ĠBuen as
ĠpediÃ¡ tricos
Ġal ber
Ġdismin uyendo
Ġimpres iÃ³n
Ġco vid
Ġplan e
OR ES
Ġpro to
Ġo to
Ġcer rado
Ġ10 4
ĠGlob al
ĠNa tural
ĠC AS
Ġaisl ado
paci ente
l Ã³n
Ġgaran tiza
Ġa blaciÃ³n
aj aj
Ġre pas
Ġqued arse
Ġincom ple
Ġcam as
Ġrefle x
ta in
ĠPe Ã±a
esi as
ĠGu ar
P CR
Ġdes ori
is m
Ġen fa
Ġmar eos
Ġcol g
at ÃŃa
ĠG reg
Ġestudi ada
m uy
ĠComer cio
Ġac nÃ©
Ġace til
Ġcan nab
Ġangus tia
Ġn u
Ġse t
tor ÃŃa
Ġneo plasias
gÃ©n esis
um bres
ĠMar tÃŃ
ĠRe ina
Ġsec ciones
ĠP M
ce d
Ġpalia tivos
Ġorganiz ar
Ġde grad
Ġo este
Ġdiab Ã©tico
Ġconcre ta
Ġcor ro
Ġlinf Ã¡ticos
depen diente
Ġref lujo
ĠM AS
ĠCl ara
ible mente
Ġsu tura
Ġoptimi zar
ĠO ral
Ġpat olÃ³gica
Ġestre llas
Ġprove edor
ene m
ĠR an
Ġestable cida
P ara
tori ales
iti es
parta mentos
ĠHospital ario
Ġcaus adas
Ġfuer an
L e
P EC
ĠCent er
Ġ14 5
Ġau reus
Ġdestin ados
Ġaument Ã³
ĠV HC
Ġadministr ado
ĠJus ticia
ĠOftalm ologÃŃa
ĠRecur sos
Ġ18 0
uc e
Ġconstitu ido
qui al
Ġtra te
Ġse vero
Ġhom ogÃ©n
Ġperfil es
Ġcom is
ĠS EN
H E
Ġci entos
Ġestim aciÃ³n
Ġanaliz ados
ĠH om
Ġporcent ajes
Ġg em
Ġsustitu ir
Ġabdomin ales
Ġcon tado
Ġal i
Ġesper an
am or
im nas
Ġf ich
Ġmateri as
OM E
ĠFu ente
Ġdepor tivas
Ġrefer ido
Ġproyec ciÃ³n
ĠsÃ³l idos
osfa to
Ġvari ar
Ġo ther
Ġapar ente
ĠF RCV
Ġvac ÃŃo
ĠON G
Ġemp u
Ġqu istes
Ġ% )
Ġfrecu encias
ul ados
Ã©p ticos
ĠRe cientemente
Ġbiblio grafÃŃa
ĠT E
Ġsolici tudes
Ġch an
ter no
Ġcor ri
ara zo
Ġori entar
ÃŃ rez
Ġres idente
R o
ĠC ora
Ġanticuer po
ĠVallad olid
Ġde tener
ĠRe aliz
Ġfuncion ar
Ġhiper sensibilidad
Ġa qu
T IN
Ġendo crin
ĠEsta mos
Ġan cho
Ġincl us
Ġtrans mite
Ġobten idas
Ġsist Ã©mico
a z
am pl
Ġprogram aciÃ³n
Ġpre mi
Ġrev oluciÃ³n
Ġmam aria
Ġnervi osa
Ġbeb ida
os tic
Ġgastrointestin ales
Ġtrauma tismos
Ġp ac
Ã¡c ticas
ĠPer io
Ġopio ides
Ġcar tÃŃ
IL L
Ġtrabaj ado
Ġhidra tos
cÃ³ pico
cu al
gÃ©n icos
ĠLe on
ĠC Y
Ġingres a
Ġre um
tor Ã¡ci
oci ales
ĠS ud
ĠNe umologÃŃa
Ġlo gro
Ġfl ora
tiv aciÃ³n
ĠF ra
Ġsud oraciÃ³n
ĠT re
Ġten ia
Ġequ idad
ĠV ia
Ġpu ra
Ġpsic omo
ĠAna tomÃŃa
ĠalÃ©rg icas
Ġp CO
p ha
id ar
ĠRicar do
ĠObs tetricia
Ġco che
c ra
c ara
Ġmo tora
Ġe cos
Ġest oma
Ġmam ÃŃfer
Ġtercer os
Ġextran jero
Ġtriste za
hiper tens
Ġdis or
Ġubic ada
ĠM J
Ġcompu tar
ĠM U
Ġalcan zÃ³
ĠH ombre
Ġsyn drome
Ġextrem adamente
ĠclÃ¡s ica
Ġdesapar ecer
Ġleg isla
Ġf ri
Ġinter medi
i ka
ĠquÃŃ micas
Ġcre emos
Ġpod amos
Ġprodu cidas
Ġtar dÃŃa
Ġoscu ro
Ġvul nera
Ġing les
ĠJ er
Ġdific ulta
ĠC AM
Ġsecu encias
Ġendome tri
Ġr um
Ġprotagon ista
te gra
ĠDe fin
Ġest aciÃ³n
Ġci ego
Ġej Ã©rcito
un ciones
Ġal ine
oc or
ĠMa es
Ġvolun tar
Ġd rug
l ares
Ġc ero
R M
l Ã¡n
ĠA den
ĠNefro logÃŃa
e k
Ġmir ar
den ce
ĠI Q
ues tion
Ġt am
Ġvid rio
Ġne w
Ġproteg e
ĠPre cis
S C
Ġori enta
b is
ĠT witter
Ġit s
Ġaclar ar
Ġinflama torio
Ġlimi tar
Ġcom bina
ĠAc ciÃ³n
Ġsor pres
Ġagr icultura
Ġ198 7
a tivo
Ãºbi to
ĠBan co
ĠS IDA
e duc
Ġpar Ã©nquima
Ġar reg
c aciÃ³n
Ġreconoci da
EN TA
Ġadministr aciones
ĠA Ãºn
Ġre tra
u th
Ġadap tado
ĠPh ys
Ġpsic olÃ³gicas
Ġrecibi endo
Ġad ju
Ġt able
Ġre a
Ġer u
idos is
Ġsometer se
tr ina
Ġquer er
ĠP te
Ġinvas iÃ³n
Ġrodi llas
renal ina
Ġvol viÃ³
Ġpl ie
Ġorigin ales
ĠazÃºcar es
QUÃį MICA
Ġespermato zo
g il
e le
Ġbi os
Ġhog ares
Ġfuncion an
Ġadeno patÃŃas
.. ...
Ġfol low
Ġcons ciencia
200 3
Ġsu gi
Ġhom en
ĠEstrateg ia
Ġesp ir
ĠS tudy
Ġcica trices
A F
ĠL M
Ġocur rido
p Ã¡tico
t ter
Ġarti fici
Ġapropi ado
di ciales
C a
in io
Ġtom as
Ġendo cr
t Ãº
ĠMÃºlti ple
Ġd r
Ġcel ulitis
j Ã³
Ġtran quilo
Ġminis tro
ĠÃ¡tom os
Ġtier ras
Ġaproxim aciÃ³n
Ġben zo
e jas
Ġv osotros
ĠS tre
Ġas piraciÃ³n
ĠExtre madura
ĠAn gel
Ġexcel entes
Ġevalu ados
Ġcelebr arÃ¡
Ġcomen zado
Ġju ventud
Ġc aja
j unto
Ġto ca
Ġdedic aciÃ³n
Ġabandon ar
Ġcar tera
Ġrecidi va
Ġi g
Ġqu isiera
Ġan os
Ġestre lla
Ġ198 6
ĠPar te
Ġcr ÃŃticas
Ġanor exia
ĠvÃ³mi to
Ġf usiÃ³n
Ġbi olÃ³gicas
Ġdul ce
ĠRe pres
Ġdiscipl inas
Ġenl aces
Ġp O
Ġcomor bilidad
ĠsÃŃ mb
Ġliti asis
Ġpop ulares
Ġpre para
ĠG U
Ġcent rada
Ġval ora
Ġma g
Ġqu iste
ĠCu enta
Ġher mos
Ġlesi on
Ġpa in
Ġne f
Ġreac tiva
Ġd uer
ted ra
Ġen de
Ġanci ano
Ġv uestra
Ġs peci
Ġcas es
er tos
Ġanticoag ulaciÃ³n
ag Ã¼
Ġepi der
ĠE ra
d Ã³
Ġinmo vil
Ġmanag ement
ĠlÃŃ deres
ĠRe un
ĠCol lege
ĠH aci
oci miento
Ã³ vil
ID OS
ĠHe ma
ci ta
Ġgener ado
C G
Ġpaque te
gu in
Ġdiagn osis
. [
Ġocur r
Ġref u
cu idado
ĠPediÃ¡ trica
B E
c Ã³n
ros s
Ġbronqui al
ĠC Ã©s
ĠUs ted
Ġerr Ã³n
Ġa tiende
ĠS D
Ġpresent aciones
Inter net
Ġgen itales
Ġch ronic
Ġestu vieron
ĠMunicip al
Ġescri tor
de za
Ġdirec trices
ĠRies go
car e
Ġprovin cias
ĠR ico
Ġexperim entado
Ġcontra cciÃ³n
ĠCaracter ÃŃsticas
Ġca denas
tÃ©r mica
Ġinterval os
z i
Ġpar ox
Ġcap ÃŃtulos
V al
Ġpas tillas
Ġagres iÃ³n
u den
Ġvis cer
in er
ĠAu to
Ġpro tes
ĠC N
Ġs Ã³
Ġvideo j
ĠOfici na
Ġreiv indic
cep to
ĠG L
ĠV ie
in osa
ĠAcu dir
e ja
j amiento
Ġestar Ã¡n
ĠmÃ¡ quina
Ġintegr ada
r Ã©
o patÃŃa
Ġver tical
tan os
Ġinfil trado
er ci
Ġami g
dic amente
Ġflexi ble
Ġod ino
di um
Ġocur riÃ³
200 4
ĠP I
Ã§ a
ĠEs tim
ĠS tan
IZ ADO
Ġstudi es
Ġsegura mente
Ġpresent en
Ġcam p
iza tion
Ġradio f
Ġestim ula
am as
Ġmodal idades
m el
Ġar rugas
Ġentre gar
Ġad s
Ġ13 7
yec ciÃ³n
ĠPal acio
Ġpic or
12 3
ok ies
Ġprima vera
Ġformul ario
fic ar
Ġl ados
Ġintrac raneal
1 20
Ġindu cida
en zo
ĠAmbi ente
Ġdesper tar
ĠSegun da
ĠG EN
ĠmiocÃ¡r dica
ĠDic ho
EN TO
Ġhin chas
Ġan tis
Ġfarmac o
ĠEndocrin ologÃŃa
Ġel ig
Ġmi ra
ĠDe x
ĠMar ta
Ġconsiderable mente
Ġli tros
ĠH CO
Ġrestric ciÃ³n
ĠIn dic
ĠPar ece
Ġcoron arias
Ġdel e
Ġre tino
cil la
Ġform ulaciÃ³n
Ġci tas
Ġconfirm aciÃ³n
tos terona
Ġvia jar
Ġresponsa bilidades
Ġsal as
ĠU ri
Ġasoci Ã³
Ġale grÃŃa
Ġcabel lu
tÃŃcul os
ĠPo co
isti Ã³
Ġreca ud
in ga
Ġtranquil a
la v
ĠPromo ciÃ³n
Ġgal le
no w
ĠL ES
ĠR oma
Ġacad Ã©mica
Ġcuestion arios
ĠMe tab
Ġrevascular izaciÃ³n
Ġhom eo
Ġsuple mento
h is
ĠCal le
ĠR I
cri tos
ĠRo dri
ĠIg G
ri es
Ġcal les
en za
Ġamb ul
Ġsup era
Ġfoc al
ĠA U
Ġ198 5
enci ada
Ġcal cular
Ġfia bilidad
12 5
Ġdes in
yac entes
Ġprim arios
Ġexten der
Ġtrombo emb
ĠP ET
ĠMun do
Ãģ N
ĠDens idad
ĠEs pero
Ġeupne ico
Ġexpon e
Ġo cio
Ġanaliz Ã³
ĠÃ¡l bum
ĠBIO QUÃįMICA
vi de
Ġnervi osas
ĠLe ve
ĠL ar
Ġus os
Ġpon iendo
Ġindispens able
Ġepi telio
Ġan estes
C ON
Ġcer rar
Ġd uelo
Ġdismin uyen
ĠDie ta
Ġorig ina
Ġcom a
Ġevalu aciones
Ġb rad
ĠH IV
Ġreti ra
c amiento
Ġre ver
qui tos
Ġhis to
PS S
Ġra tio
Ġredu ciendo
Ġar ran
Ġunivers itario
ĠM aria
Ġloc alizada
Ġgaran tÃŃa
Ġri que
Ġaten dido
ĠCal i
Ġmo dos
Ġru ta
Ġmanten ida
ĠÃ³pti ma
ĠPresent amos
Ġadap tarse
Ġop tar
Ġnego cios
Ġgras o
aj al
Ġintegr idad
Ġch icas
I TA
Ġdel imi
ĠN uestros
Ġapor taciones
Ġa gar
Ġdemo cr
Ġ14 1
pa ta
Ġinter ro
Ġb l
ĠG uer
Ġdeg eneraciÃ³n
Ġadvier te
Ġdetermin Ã³
Ġno tas
Ġce p
rÃ³ tesis
Ġantigu os
c adas
ĠV II
ĠR ich
Ã³ metro
Ġdesconoci do
Ġrode a
ĠS r
Ġcromos omas
ĠGastro enter
Ġi ones
ĠdiÃ¡ logo
ĠSan itarios
ĠC in
Ġasintom Ã¡tico
Ġllev aron
Ã¡ bamos
V ES
Ġre habil
Ã§ Ãµes
b ola
Ġsuperfici es
ĠDer echos
ĠCIB ER
Ġlar gas
Ġinmun idad
Ġdescar ga
ĠGro up
Ġconcre tas
tre mia
ĠQu ÃŃ
Ġfies tas
Ã©n ica
Ġproce der
Ġmencion ados
ĠFel ipe
ĠEjecu tivo
Ġepidemi ologÃŃa
ĠMic ro
ĠMol ecular
Ġju venil
ĠProduc tos
Ġban das
lo ide
Ġhist Ã³rica
ĠDiges tivo
Ġcubier ta
form as
Ġdu oden
iz antes
Ġha z
ĠRio ja
Ġha bil
Ġcons umen
ĠB eb
Ġcali bre
Ġconsidera mos
Ġcon gresos
Ġmal as
ĠCON CLUS
Ġdi lu
Ġig lesia
4 00
a a
or ra
Ġb le
Ãª ncia
ĠRes pira
Ġinfecci oso
Ġhabi endo
ĠF M
Ġval idaciÃ³n
Ġepidemi olÃ³gica
Ġcontemp or
ĠBiblio teca
Ġten gas
Ã± ado
Ġes teroides
ĠMej or
ida zol
Ġrecl u
Ġsosten ible
Ġperfec ta
in Ã³geno
Ġde dica
Ġcate ter
Ġar tro
ĠPortu gal
Ġen g
Ġcol oraciÃ³n
AN TES
Ġcontr adic
Ã©rg icos
Ġli pos
ion s
Ġdesconoci da
Ġvein te
pul monar
ĠC F
Ġpsic Ã³logos
Ġf Ã³lico
cul tivos
Ġantiinflama torios
Ġm Ã¡r
ti dad
ĠL ima
uy entes
ĠP rac
Ġestr Ã³genos
Ġinvesti ga
ĠPsych ia
ud os
Ġavan zados
Ġcombin ada
Ġrela j
ĠLib ro
Ġpec ul
Ġfu i
Ġpul so
ÃŃa ca
ĠB AS
Ã³n icos
und aciÃ³n
Ġvent ana
e mo
Ġesta bil
ĠRo berto
Ġcap taciÃ³n
ĠAlim entaciÃ³n
Ġextrem idad
Ġus ados
Ġfuncional idad
Ġpe dido
Ġcoinci den
Ġth an
pat olÃ³gico
Ġar ma
Ġrepres entar
Ġv ib
u o
b la
Ġaf irman
ĠDis min
im amente
Ġantibio terapia
Ġform al
ĠIC T
Ġlogr os
Ġsal en
icos is
Ġejer ce
Ġtarje ta
amp iÃ³n
Ġag on
ĠT IEN
Fi gura
Ġperspec tivas
Ġlleg aron
ĠF oro
posi tivo
Ġmanio bras
Ġfal l
ĠlÃ³g ica
Ġbi polar
ĠclÃ¡s icos
Ġg ira
Ġhe parina
Ġcabellu do
pa in
Ġobserv aciones
u til
Ġâ Ĥ¬
Ġprema turo
Ġto tales
Ġconsigui Ã³
Ġcre mas
Ġempres arial
Ġpan or
Ġid Ã©n
ig an
Ġme as
ĠP OS
om an
ten se
Ġprob ado
Ġag encia
Ġconcre tamente
so bre
Ġhe mis
Ġkil os
Ġin ducir
ĠAle x
Ġhac es
Ġpredis posiciÃ³n
vi le
Ġsocio demo
Ġcas tel
Ġincertid umbre
Ġrecomend amos
Ġsi enta
Ġox ida
Ġl Ãº
Ġmo tores
Ġref res
Ġar tista
ĠGener almente
Ġprovo cado
Ġcar cin
Ġrup tura
Ġsur gen
p ariciÃ³n
ĠG N
Ġmas car
Ġadquir ida
ĠBuen a
Ġapo ya
Ġre port
Ġco Ã¡g
ĠJ unto
ĠCo ch
Ġestudi a
Ġoblig aciones
Ġc Ã¡r
Ġsi mb
Ġmetab Ã³licas
ĠEnc uesta
ĠEv itar
Ġdes as
w in
ĠRec op
Ġpue das
Ġecon om
ĠAn n
EN A
Ġtempran as
ta mina
ĠCor por
ĠRam ÃŃrez
Ġf urosemida
ĠL L
P IA
AN DO
ĠW a
T he
Ġentor nos
i anos
Ġcircu ito
vi miento
Ġmuer to
Ġdetermin an
rane ales
Ġcomen zaron
2 108
b ula
ĠIn di
Ġescen arios
Ġlent amente
ĠTea tro
Ġen se
plic aciones
ĠFeder al
ĠJ ur
ĠNe gativo
ĠH os
Ġhomen aje
ĠR oc
Ġmembran as
Ġar mon
pi ro
ĠD NA
Ġimplement ar
Ġdese os
h ora
Ġin jus
ag er
Ġabs tinencia
Ġquin to
Ġcorne al
ĠSan itario
Ġsintom Ã¡tica
Ġemple an
Ġar que
l ace
ĠCon ocer
ĠJo a
ĠperiÃ³ dico
Ġpar ie
Ġas untos
Ã© ro
bier an
ĠSe guro
ĠcÃ¡ps ulas
Ġdi ciendo
Ġmal trato
u k
Ġme thod
isten cias
Ġinter vienen
te z
Ġum bilical
an es
Ġvuel ven
Ġh ice
Ġpat olÃ³gico
Ġlimp ia
el y
Ġenerg Ã©tico
Ġlider ado
Ġestim ado
ĠfarmacÃ©u ticas
Ġl ente
Ġonc ologÃŃa
ĠA cep
Ġtom aron
Ġestim ar
h asta
Ġexpres an
ĠJ uegos
Ġr urales
Ġtal ento
ĠImp res
S u
ĠN utr
Ġgl Ãº
Ġdig itales
Ġconta gio
Ġpron Ã³s
aj os
ĠneurolÃ³g icos
Ã¡ ez
Ġdiagnos tica
ĠSe dimento
Ġbe en
Ġtox ina
Ġle v
Ġins piraciÃ³n
iste ma
blo que
Ġesti ra
Ġcer tificado
Ġaconsej able
Ġfavor ecen
Ġco un
ĠOr to
Ġl ong
Ġn ano
Ġaplic Ã³
Ġcompar ten
fon os
Ġlimp iar
Ġdefici encias
ri el
Ġe ch
Ġli fe
Ġd amos
ĠÌ Ī
ĠR ib
Ġven der
ĠSe mana
Ġco br
ĠCons ider
ix a
Ġces Ã¡rea
Ġnoctur na
on i
Ġint entos
Ġhema turia
Ġdes gr
ec ÃŃan
Ġpi enso
Ġdesa pariciÃ³n
si onal
Ġdepen derÃ¡
Ġescri biÃ³
tom o
Ġsac ri
or res
ĠIc tus
z ano
ĠB O
AM ENTE
ĠFarmacÃ©u ticos
vier an
pu ra
Ġconci li
Ġr pm
Ġred ac
â Ĥ¬
ĠM Ãºs
Ġ #
Ġcomen z
ĠSAL UD
ĠantÃŃ genos
Ġrad icales
- .
Ġfu tura
ĠRe umatologÃŃa
ĠAf ebril
Ġil umin
Ġcor tos
ĠI T
Ġmix ta
Ġalem Ã¡n
Ġempe ora
Ġtra er
ĠAdminis tra
ac en
ha vi
Ġâ ĪĴ
Ġacep ta
Ġin m
Ġdecre to
t Ã¡l
Ġcre ada
ĠCro hn
Ġsens aciones
Ġdel an
us s
Ġodino fagia
Ġcom isiÃ³n
Ġenc ab
Ġcomor bilidades
Ġamar illo
Ġvay an
Ġven ir
Ġcon viene
Ġdispon emos
Ġinfil traciÃ³n
Ġestudi Ã³
Ġb ras
Ġderi var
Ġinflama torias
ĠP las
ĠF iebre
ĠEj Ã©rcito
Ġce de
AR IO
Ġinteres ado
TE RA
Ġau toma
Ġenvas e
Ġpro hib
ĠAB S
Ġextre ma
gÃ¼ edad
Ġcolombi ano
ĠM Ãī
ad ar
AN A
Ġdif un
ĠbÃ¡s icamente
Ġprim or
Ġv uestro
ĠA ran
ogrÃ¡ fico
Ġextran jeros
Ġp eces
Ġtor n
Ġt ac
Ġlo go
vi mos
ĠSolici to
Ġsab ÃŃa
Ġesc ena
Ġinmunosu pres
ad minis
ĠF estival
Ġado pciÃ³n
Ġsub yacente
ve y
Ġus ing
Ġinfec tion
ĠS OB
Ġirrad iado
gan tes
Ġencuent re
if i
ĠCas i
ĠHD L
2 000
al ta
Ġpsiquia tra
Ġtranquil idad
Ġov Ã¡r
ĠCientÃŃ fico
Ġdise min
Ġhu mil
im us
tri cidad
Ġrealiz amos
Ġtecn olÃ³gicos
Ġc ad
Ġmo difica
Ġcorrel acion
Ġhab lan
ĠPa ul
ĠOr tega
ede ma
Ġn ÃŃ
ĠlÃŃqu ida
Ġradi olÃ³gica
Ġcent en
Ġconserv ador
D M
Ġes feras
xim adamente
l ing
Ġperten ecen
Ġpromue ve
Ġimp o
cios os
Ġconoce mos
Ġest ro
di ab
G u
Ġdesarroll aron
Ġi on
ĠIs la
Ã³ ticas
Ġas umi
Ġor din
Ġvar ÃŃan
ĠH un
Ġar ras
Ġrepor tado
ĠProf es
ĠInfec ciones
Ġprove edores
Ġ10 6
Ġt acto
R I
ĠLe e
. (
ĠpÃ©lv ico
Ġcardi acos
Ġproduc tiva
Ġcin tura
ĠHEMAT OLOGÃįA
trÃ³ fica
jer as
pi entes
Ġmil itares
ĠÎ ²
ic ulares
Ġri gur
Ġestable cidas
Ġa ra
Ġse quedad
ĠC erv
Ġacep tado
ĠTÃ©cn icas
ĠDel gado
Ġsolid aridad
ĠO P
ĠCora zÃ³n
Ġdivul gaciÃ³n
ĠCer eb
Ġpla ya
Ã© pti
B I
bi to
Ġanti agre
Ġpros t
ĠA A
ĠH ER
op pler
Ġllev arÃ¡
Ġrecurr entes
ĠÃģngel es
un ya
Ġdig estiÃ³n
Ġsemes tre
Ġ $
ĠCardio vascular
Ã©l ulas
Ġplante an
ĠR is
Ġrela tivos
Ġestudi adas
man os
ĠfÃ³rm ulas
ĠEsta tal
ĠF ri
ien den
Ġocu par
TIV OS
Ġcam pes
ĠRecop ilaciÃ³n
t le
i amente
Ġtrabaj Ã³
Ġlec tor
d ada
ĠM ana
ĠJ L
Ġprofesional idad
Ġpri vile
den ts
Ġdispon en
f orme
Ġneces itas
Ġvicepres idente
Ġsepar ado
Ġespaci al
Ġabra zo
Ġden uncia
ĠNi Ã±os
Ġma pa
ĠRe medio
Ġfarmac ocin
Ġd orm
Ġplas mÃ¡ticas
ke to
Ġacces ible
ĠV ÃŃa
ĠB ron
Ġpi diÃ³
Ġrecu ento
ĠHospit ales
Ġle tras
ĠK g
Ġgros or
ĠM esa
m arc
ĠHer rera
ĠparÃ¡s itos
ÃŃ mp
Ġampli aciÃ³n
Ġsub si
Ġil usiÃ³n
Ġpre cur
con tin
los a
OS A
Ġcardi acas
ĠP ese
Ġpor tavo
ĠCat Ã³lica
bil inÃ³geno
ĠAp ren
Ġï Ĥ
Ġca ps
m ado
Ġma x
Ġepig as
cons ultado
ar re
Ġcaracter izan
tom e
Ġesti gma
Ġpodr ÃŃamos
Ġsubcu tÃ¡nea
pl u
ĠSan to
ĠEE UU
P o
ĠS ha
ĠComun idades
Ġconse jera
ra el
Ġfalle cimiento
Ġdis tÃ©rmica
in ten
Ġanaliz an
Ġlec tores
Ġacor de
or s
Ġa fil
as t
Ġg imnas
Ġinter rupciÃ³n
Ġch il
Ġin icios
Ġaplic ando
Ġpod remos
ĠPos t
ĠB M
Ġexperim entales
pa tia
tiv itis
ĠV Ã¡zquez
ĠN itritos
Ġcre ciendo
Ġconsul te
Ġconsum idor
Ġsue Ã±os
Ġescri ta
Ġcu bre
Ġson risa
ĠT r
Ġli pÃŃ
Ġpreocup aciones
Ã©p tica
Ġtit ulado
Ġfarmac olÃ³gica
Ġfum ador
s able
Ġincre ÃŃ
Ġgri ego
Ġredu jo
G N
ĠPro te
ic ela
ri tina
Ġ4 50
Ġde ca
us to
ĠMe dia
Ġcon ces
Ġan ualmente
ĠI z
Ġextra cto
Ġaf ric
Ġsustitu y
Ġhipertens os
Ġfues e
ĠMujer es
Ġla terales
Ġpri mi
Ġbrin da
Ġalu cin
Ġpro viene
Ġclar idad
it za
tes t
Ġbi bas
Ġexcep cional
Ġefectu ar
Ã³g ena
Ġreco gen
Ġac a
ĠTh is
Ġop cionalmente
Ġdiast Ã³lica
mad ol
Ġbici cle
Ġn es
ĠV AL
par aciÃ³n
Ġdep Ã³sito
ter mia
Ġseman al
Ġtis ular
Ġar terio
Ġcar gos
Ġcomplement aria
Ġplan os
Ġdep Ã³sitos
Ġchoc olate
Ġf igur
Ġcor dÃ³n
Ġjam Ã¡s
Ġreproduc tiva
des de
Ġins a
h ar
aci ent
ĠgeogrÃ¡ fica
Ġvoc al
ti zada
Ġempie zan
Ġcole cis
Ġle vo
ol v
Ġprodu cidos
N a
Ġcu ri
ci co
tr ales
ci ende
Ġdes gas
ĠCon fe
Ġpin tura
ĠVic toria
Ġfamos o
on ario
tic aria
Ġma quin
Ġneuro degenera
Ġincor rec
Ġres earch
Ġanti hipertens
ĠPR IM
ĠPl Ã¡stica
Ġes cu
Ġtes tosterona
Ġtraduc e
Ġdi ri
op rol
Ġheter oci
ÃŃ genes
Ġvis ibles
Ġra mi
Ġdetermin ante
Ġdign idad
ci no
tens ina
Ġtit le
Ġex istÃŃa
ĠAl lÃŃ
Ġcicatriz aciÃ³n
Ġres ta
ĠI P
TE C
ĠquÃŃ mico
Ġfisi olÃ³gico
Ġdiffer ent
pa ti
Ġalter ar
Ġantiv ir
M IN
Ġex ce
Ġin tim
Ġdocum ental
ĠNorm almente
Ġfoto grafÃŃa
Ġvi al
ĠAu di
Ġsol os
Ġcelebr Ã³
Ġqued ando
h en
ca piÃ©
Ġhial ur
Ġd ados
Ġcar reras
e cimiento
Ġs am
ma tic
Ġinadecu ada
n y
Ã¡rmac os
ma y
Ġargum entos
Ġju go
Ġres tantes
Ġcorona virus
AR IA
Ġtox inas
Ġw ords
Ġcatara tas
Ġsent encia
ĠMar co
w ork
Ġvers iones
ter Ã¡p
Ġbiomarc adores
Ġconsi guen
ĠPal ma
Ġdescri tas
ino plastia
Ġunivers itaria
Ġcontin ente
tia z
AM A
min al
Ġencan ta
Ġus ed
ĠÃ© ticos
ĠE mil
Ġflexi bilidad
Ġn omin
Ġrefle jan
Ġhor arios
ver te
Ġconcl uyÃ³
V IS
te za
Ġactiv as
ĠA CI
Ġp asta
Ġesper ando
Ġman dÃŃ
Ġab arca
Ġpro cur
Ġdila tada
Ġinter venir
Ġdefini tivamente
tecn ologÃŃa
te lec
Ġdeb o
Ġpan el
m Ã³n
uc ciÃ³n
ĠR N
Ġinter vencion
Ġmenstru aciÃ³n
olar ing
ĠmediterrÃ¡n ea
Ġep il
Ġco pia
Ġman z
RA X
Ġanticoagul antes
Ġciudad ano
reas t
ĠCon tac
ĠAr m
Ġafirm ar
1 10
ĠAm Ã©ricas
Ġson idos
Ġespec ta
ĠProfesi onales
Ġefec tivas
Ġhipo glucemia
ecu red
Ġdif undir
Ġproduc tividad
Ġr ÃŃos
ĠBol iv
ĠClas ificaciÃ³n
Ġluc ro
Ġgan Ã³
Ġprof il
p so
ĠAr tÃŃculo
um os
Ġquier an
Ġevalu aron
ĠÃºn icos
Ġautoinmun e
U na
ci clo
Ġparenquimatos as
Ġlis tado
ĠRe alizar
Ġpun tual
dimens ional
Ġdirec tos
colesterol emia
Ġf ina
ig h
Ġhin capiÃ©
Ġengros amiento
min g
Ã© dica
Ġsatisfac er
Ġlaparos cÃ³pica
am Ã¡
Ġlan zamiento
Ġn al
Ġeru pciÃ³n
ĠAd ul
te m
Ġevolu tivo
ĠcuÃ¡n to
Ġconvier ten
yl ori
ĠF ab
Ġcre ando
EC A
T ra
Ġay uden
Ġome ga
gu ieron
Ġre bel
mer ica
Ġcaus al
Ġfal sos
ĠD C
Ġcam in
es of
ri z
Ġpla tos
Ġz inc
Ġdescen dente
Ġcannab is
Ġconform an
ĠM es
Ġanal ÃŃticas
TR E
x el
Ġre lo
ĠF ED
Ġ% .
Ġdetal lada
Ġpres iones
br id
ton ÃŃa
Ġconsi go
ĠL una
Ġconf ia
Ġav iÃ³n
Ġconserv ar
Ġconfigur aciÃ³n
Ġcoinci de
Ġantir retrovir
Ġla bio
Ġth ro
Ġcer tific
Ġa tre
iz ante
Ġclasific ar
ĠRa Ãºl
Ġdiur Ã©ticos
ĠEntre vista
Ġsegu idos
ĠG ene
Ġconf iden
Ġtercer o
fos f
Ġmam Ã¡
w ay
ĠprÃ³ ximas
Ġmar car
Ġhiper actividad
Ġdis pens
v ic
ĠR FA
Ġme gal
Ġva por
ĠReg lamento
Ġmono cl
um ar
Ġgener ando
Ġanomal ÃŃa
Ġexpl ora
ĠT Ã³
Ġinvoluc rados
Ã© ticamente
Ġconsum e
Ġum bral
Ġapreci an
H ospital
ĠO riente
lo gos
ĠL esiones
ĠT enemos
Ġrecep ciÃ³n
IN AL
ha bi
ĠPhar mac
" ;
ĠINF EC
Ġpneumonia e
B LE
ĠFon do
ĠLa ura
cion ista
Ġtecn olÃ³gica
Ã¡n do
ol did
ĠT rad
ĠPan americana
ci es
Ġobs tÃ©
es ÃŃa
Ġmolesti a
ĠCon clusiÃ³n
Ġabsolu tamente
). -
ĠP ens
Ġne um
Ġconci enciar
ÃŃn guez
e ga
Ġfoto grafÃŃas
cu rio
Ġap pro
c ro
ĠEn cuent
D S
ĠCambi os
Ġinger ir
ĠEmb arazo
et onas
ĠS EP
Ġven ido
Ġremo del
Ġeupne ica
ĠG ri
Ġsho w
Ġfun c
Ġmortal ity
Ġtra mi
Ġfoc alidad
Ġartifici ales
ĠA O
ic aciones
Ġon e
Ġalcan zan
Ġdeform idad
Ġbril lante
Ġidentific ados
ĠOc ci
Ġal f
Ġes cul
Ġhy per
Ġc en
uc es
ĠBi omÃ©dica
phy lo
Ġcon fec
ĠEs cala
Ġmu riÃ³
Ġcomputar izada
m n
ĠReun iÃ³n
Ġro ta
hibi ciÃ³n
se g
Ġrad ial
Ġpu ente
ch i
Ġcol itis
Ġheter ogÃ©n
Ġasigna tura
Ġay ude
b ul
Ġhor mi
re e
ĠF ORMA
Ġsal iÃ³
OD UC
Ġplas mÃ¡tica
Ġllam an
ĠCatal unya
keto profeno
Ġmater nidad
Ġtranspar encia
Ġta quip
Ġprev Ã©
Ġencontr ados
Ġr ÃŃg
Ġcos tal
Ġa qui
Ġo pacidades
tel la
ĠAlim entos
Ġdes favor
Ġco pias
ens i
ĠV ill
li x
Ġcerv eza
Ġtriun fo
ĠSp O
ĠMan ejo
ĠUro bilinÃ³geno
Ġcontemp la
Ġanorm ales
an ta
ÃŃc ola
Ġsol ares
Ġmar keting
ien es
Ġver b
Ġfle xiÃ³n
ĠcardÃŃa cas
Ġleve mente
cip ital
Ġtrans curso
Ġprescri p
Ġocup aciÃ³n
iz ador
mis os
ĠI m
Ġembri ones
Ġoblig ado
Ġmorbi mortalidad
Ġro b
uer to
xilo facial
Ġent iendo
ier ro
Ġcomp lica
P ar
ac ep
Ġas s
Ġapun tan
Ġlevan tar
Ġrecog idos
ĠtÃŃ pica
ĠSN C
Ġlog ÃŃstica
Ġth ese
Ġcarre tera
d ÃŃan
Ġtra que
Ġab o
fa gos
entan ilo
tr Ã³geno
Ġpolic ÃŃa
Ġpancre atitis
ĠMo der
ĠEmp leo
Ġacu pun
Ġaz ucar
Ġreg eneraciÃ³n
Ġv ea
Ġ" Â¿
ĠE jer
Ġpla to
an gi
ĠEl lo
ĠR ica
Ġred acciÃ³n
Ġes encia
ĠW ar
ĠM P
Ġfun dador
Ġdec Ãºbito
Ġprac tica
Ġnaran ja
Ġdetal l
Ġb eca
Ġmultic Ã©ntrico
Ġinvas ivo
Ġidentific aron
Ġtri al
Ġrelig iÃ³n
ĠFran k
en ne
Ġdemostr aron
ĠMol ina
ĠtÃŃ pico
ĠF ORM
ĠEl la
r ÃŃcula
Ġfr ÃŃa
Ġprecis ar
Ġabs ceso
Ġoportun o
ĠA para
M ed
Ġconcre tos
Ġsu dor
Ġju gue
er y
r ÃŃt
ĠPar lamento
kin s
Ġadquir ido
Ġhemi tÃ³rax
Ġarquitec tura
ĠcartÃŃ lago
Ġrecon ocen
Ġintern as
l ac
se d
Ġing estiÃ³n
Ġcogni tivos
ĠN unca
Ġmuer tos
Ġfis cal
g icas
Ġapare ciÃ³
ven a
ĠMe mor
Ġpar ada
Ġex por
ĠC AN
ĠÃ³v ulos
Ġdesaf ÃŃo
ĠEs co
o t
Ġabier tas
ĠOR L
et s
Ġexam inar
ĠEv oluciÃ³n
aliz ando
ĠD R
ĠS mith
oles cent
Ġencontra ban
Ġmedicin ales
Ġex posiciones
gre l
ens ible
Ġescuch a
Ġafec to
tres s
ĠC AL
Ġh ielo
enci almente
Ġdia frag
ĠcardÃŃa cos
Ġan iversario
os tomÃŃa
Ġper se
Ġres ec
ĠprÃ¡c ticos
Ġaten u
Ġa teros
Ġperif Ã©ricos
ĠColeg ios
Ġlo w
Ġestudi aron
Ġlac tosa
Ġ10 9
ĠGu iller
Ġhemor ro
Ġlac tante
Ġag itaciÃ³n
Ġhemb ras
dal la
Ġb el
Ġ ï¿½
gr ados
ĠDomin go
ĠA mp
ĠSe bas
Ġmanifies tan
Ġus arse
ĠP un
ĠCD C
Ġdefin idos
il i
Ġdescar ta
Ġte mÃ¡tica
Ġequiv oc
Ġ zo
Ġinfec tadas
Ġimpues tos
Ġurin arias
Ġrefer entes
Ġfarmac olÃ³gicas
... ).
cal e
Ġrique za
S alud
a Ã±os
Ġenv ÃŃo
ĠOs teo
Ġmedi al
ĠPre vent
Ġse m
pec ha
... "
all y
Ġsar ampiÃ³n
M adrid
tan der
Ġev acu
man es
ĠFi O
ĠG lic
Ġrevel Ã³
Ġconvers aciÃ³n
ĠPR OC
a bilidad
tudi o
Ġp p
ila del
Ġpeda gÃ³g
Ġt wo
Ġmaes tros
ĠPre mios
Ġadministr arse
Ġpsico terapia
Ġaplic an
ĠEs cri
Ġne ural
Ġprefer encias
Ġprema turos
ĠA gra
Ġexplor aciones
Ġrad ica
ĠINF ORM
Ġra to
Ġbiblio grÃ¡fica
ĠEn do
Ġac triz
ÃŃn cipe
v it
Ġconf ort
Ġdetec tan
Ġvulnera bilidad
ir as
Ġprofun das
Ġa zar
Ġm L
Ġhospital arias
Ġsecre to
ĠConfe deraciÃ³n
ac ciones
ĠÂ ®
tÃ³ pica
fic acia
Ġafec tando
Ġconsider adas
di pino
Ġver ti
ĠRo bert
ĠLatino amÃ©rica
ĠC etonas
Ġs tan
ol ona
Ġtecn olÃ³gico
v ing
ta mbi
Ġcon tigo
Ġcompon en
Ġinterven ido
Ġn arra
Ġmac ular
Ġsecu enciaciÃ³n
Ġdisf agia
Ġantagon istas
Ġprogram ada
ĠM AT
Ġpresent ada
T e
ĠtÃ³ xico
ba o
ĠD em
Ġactiv amente
plu tense
den tales
ĠB ul
ĠT am
Ġcru cial
ĠFrac tura
Ġacci dental
ĠAmi lasa
Ġdi pu
Ġcaus ante
Ġante bra
Ġgaran tÃŃas
Ġpil ares
Ġobserv ada
ĠD ro
Ġf lan
Ġdue le
ing res
Ġben igna
Ġcu rios
Ġrecuer dos
ĠJ ames
ĠCY P
Ġintegr ar
l aciÃ³n
TU RA
Ġsocios an
Ġprotagon istas
r ent
Ġinmunode ficiencia
Ġcl oro
Ġele va
Ġr aci
Ġanun ciÃ³
Ġcomun itario
Ġinmuno terapia
ĠjurÃŃ dica
Ġinform Ã¡tica
Ġpan tal
Der ivado
Ġpr is
Ġhal la
ĠT Ãĵ
Ġretros pec
Ġ-- >
Ġadministra tiva
Ġalter a
u i
ĠCom plutense
Ġsilenci o
ĠAs esor
ĠelÃ©c trico
Ġdescub riÃ³
Ġid Ã³n
mon ios
f amil
Ġocu pacional
ĠB ene
i adas
Ġtre inta
Ġle ÃŃdo
y er
Ġimpor te
Ġeval Ãºa
Ġcual idades
Ġw ho
ĠU SA
Ġest Ã©tico
ĠR C
Ġexperim ento
Ġsimul tÃ¡neamente
Ġre iter
ĠpsiquiÃ¡ tricos
Ġdesigual dades
rin olaring
Ġvic toria
ĠÃ³p tico
ĠPro blemas
Ġmal ign
ĠRe aliza
Ġvincul ados
ĠHe matologÃŃa
Ġemple ada
Ġun der
IS A
ĠTom Ã¡s
ÃŃng eo
color e
Ġintra o
Ġh ad
Ġs Ã©rica
te cas
cefal ia
Ġanunci ado
ue bas
ĠM ora
ĠNR L
Ġocas iona
ĠNe umonÃŃa
Ġjue gan
g icos
o ides
ĠHaci enda
Ġclim Ã¡tico
Ġreg ionales
ala pril
ha el
+ ,
ĠHospital aria
Ġexperim entan
Ġemp atÃŃa
Ġta x
Ġprofundi zar
Ġmul titud
EG A
Ġfeno tipo
Ġa xial
Ġch arla
V AS
Ġatra ves
Ġce guera
Ġanticoagul ante
Ġdep rim
guar dia
Ġdes fib
ĠP IC
ens or
Ġnico tina
hi po
Ġprecis an
ĠF ro
u rez
Ġma tar
ĠL y
ĠEfec tos
Ġenro jecimiento
Ġendome trio
Ġinter f
erv aciÃ³n
ĠB ell
Ġsobreviv ir
Ġcons ol
ri torial
Ġpro pi
Ġterri torios
Ġmuch ÃŃsimo
Ġcumpl im
Ġpecul iar
Ġdif uso
Ġtor neo
ĠVal orar
Ġdesapar ece
ĠT EN
Z A
ĠNav idad
or ios
qu io
Ġbio psias
ĠN acionales
Ġintro duce
tox icidad
Ġaleator izado
ĠD ental
ence fal
e ix
ĠAy er
Ġregres o
omegal ia
Ã¡m aras
vir on
Ġinfraestruc tura
Ġviv iendo
Ġneur onal
Ġacad Ã©micos
ĠmamÃŃfer os
ol eta
Ġcomp ut
Ġadh esiÃ³n
ĠF idel
ĠT aller
Ġci elo
Ġpa trimonio
col as
Ġcafe ÃŃna
Ġpre ven
ĠA v
Ġal gias
ur t
IC E
Ġcompor ta
ĠlÃ³g ico
Ġinyec ciones
ĠIn gres
ĠF L
Ġme te
ac y
Ġeurope as
ĠEf fec
Ġcercan os
Ġ198 4
ru gada
Ġlab ores
in aciÃ³n
di mientos
T M
tas ias
a Ã±o
ĠS yste
Ġdesaf ÃŃos
Ġoxigeno terapia
Ġay unas
Ġhabl ado
Ġlim Ã³n
ĠCo pa
Ġcon migo
ĠGreg orio
ib er
Ġextra e
ĠObes idad
oma tosis
Ġout com
mun ity
Ġhipo tiroidismo
Ġcaracter ÃŃstico
Ġvisu alizaciÃ³n
Ġin mue
ĠMicrobi ologÃŃa
r aciones
Ã¡s ico
G U
ti Ã©ndose
ĠfÃ³s foro
ia trÃŃa
ĠV III
ĠHo tel
Ġat m
ĠAs istencia
cal ci
Ġtransf usiÃ³n
Ġblan cas
Ġf es
, "
Ġab ar
Ġcontra er
Ġra p
Ġdel i
ĠÃī l
ĠRos ario
PI RA
paci o
Ġprema tura
ĠDes ta
n s
Ġascen dente
Ġd aba
Ġintelig ente
Ġaudi ciÃ³n
Â¡ Â¡
Ġpres ta
Ġd ad
Ġsta tus
: :
ĠCoch rane
ĠVe ga
ĠApara to
Ġcompren dido
om iel
Ġami ga
ĠPri mero
ĠVM K
P M
Ġagen da
Ġfal la
ĠanalgÃ©s ico
Ġines table
g ador
ĠSo fÃŃa
Ġde partamentos
e ma
ĠES TE
Ġes tero
Ġqual ity
f uer
ĠDirec tora
Ġester eo
Ġsuges tivos
Ġinter discipl
Ġsencil las
Ġfia ble
ĠSebas ti
Ġ7 00
d amiento
Ġintr ÃŃns
xic loro
ĠV igilancia
15 0
Ġdescub ri
Ġbeneficios os
Ġintent ando
Ġespor Ã¡
Ġenz im
ent ados
Ġmeta mizol
Ġdescar gar
Ġportavo z
Ġa pa
RA C
Ġingen ierÃŃa
Ġent us
Ġexten dido
AT OS
eb ra
Ġmascul ina
Ġtar des
u ci
ĠR usia
Ġacid osis
re la
Ġna tur
ist ad
ĠGu an
h ay
ĠA ce
Ġcran eo
Ġcar nes
ol la
Ġta za
Ġbol sas
es ivo
Ġtelef Ã³nica
Ġti enda
ĠnÃ³d ulo
________ ________
ĠmÃŃn imamente
r ador
Ġespiri tual
ta mol
Ġcho que
h el
ĠA un
p Ã³
ĠT it
proteÃŃn as
ĠT EA
ĠacompaÃ± ar
Ġdepres ivo
O H
es quel
Ġpas iÃ³n
ĠV ita
Ġcam is
ĠL l
Ġyo do
Ġpredic tivo
Ġsero tonina
Ġromp er
bl ecer
Ġfrag mentos
gra fia
ĠB ale
ĠVas cular
Ġtempor ales
Ġcombin aciones
Ġcan tante
ĠC ic
Ġparadig ma
ĠI A
ĠVis ita
cion ada
ĠHEM OS
vi al
ĠV ÃŃc
Ġespeci alizaciÃ³n
tis fac
and ante
Ġp Ã³li
m ala
ĠP es
ĠU ru
Ġtra e
ĠSil va
Ġgro up
Ġg iro
Ġtom arse
Ġconcord ancia
ĠV arios
Ġa ri
Ġg or
Ġa fici
Ġtur ismo
proteÃŃn a
Ġh ola
Ġambi entes
ulo patÃŃa
Ġperiodis tas
56 1
tr ÃŃas
Ġaspir ina
r ÃŃ
Ġc Ã³lico
Ġne gros
icar b
Ġinfer tilidad
ĠAb ril
Ġtu bular
ĠA E
Ġviv a
Ġlle ve
or ca
ĠP ra
Ġv uelo
Ġauto cuidado
ar ly
Ġvir tud
ĠSiste mas
Ġver des
Ġco opera
IL A
Ġadministr an
Ġincrement ado
Ġprome ted
ĠSer gio
Ġper cent
Ġc c
ĠR eb
Ã¡nd ola
ĠLib er
Ġis las
ar tos
OM B
Ġcari Ã±o
ĠaÃ³r tico
Ġreg lam
ĠSi gui
m ida
Ġle tra
Ġfa tal
Ġexac ta
Ġsibil ancias
xicloro quina
Ġb aci
Ġasegur an
go v
i tivo
Ġbas an
tal gia
Ġonc olÃ³gicos
G F
ues tras
AN O
Ġu p
Ġan tin
ce mia
Ġregistr aron
Ġinmi gr
ĠGuiller mo
ĠgÃ©n ica
Ġelev ar
Ġrecor tes
ĠDiv isiÃ³n
r ÃŃan
ra ya
Ġpiens an
fil is
Ġho tel
Ġplante ado
Ġanal ÃŃticos
Ġaten diendo
Ã¡g ri
IM C
ĠDes cu
ĠD Ã©
Ġimpo tencia
Ġp ir
Ġgastro enter
Ġsuscep tibilidad
etas ona
ĠEqui po
bern am
baj o
Ã¡n donos
Ġres istencias
ĠFib rinÃ³geno
he mo
Ġins tancia
Ġvar icela
Ġcoe ficiente
w ell
Ġcon vivencia
ig encia
s us
ĠT os
ĠCha gas
ĠV el
domin al
bi ta
Ġesper amos
ĠDoc ente
ques ta
Ġinvol un
ĠsÃ³l ida
ĠSOB RE
Ġmedio ambi
Ġcelebr ar
Ġv aci
con dri
Ġpres ion
ĠH ip
Ġemp o
Ġperson alizado
ĠDom ÃŃnguez
tu ar
Ġexpl os
dad ores
it ariamente
Ġdestac ados
Ġs creening
Ġpre ce
14 2
all ero
Ġun en
Ġespeci alizadas
fi gura
Ġobten iendo
ĠOr tiz
IN O
en dadas
Ġincis iÃ³n
Ġregistr ados
ĠEmerg encias
AS A
Ġinfrecu ente
Ġsos tiene
Ġvuel va
Ġcontin Ãºan
Ġhe mol
Ġdefin en
Ġdiar re
Ġper ina
Ġevi dentes
ĠacompaÃ± ante
Ġrestaur aciÃ³n
tambi Ã©n
Ġ( >
Ġex puestas
po tas
ĠMar zo
Ġnotable mente
ol in
Ġperf oraciÃ³n
Ġvis ibilidad
cis iÃ³n
ĠS t
Ġjug ando
gru pos
Ġencab ez
ĠDeb emos
Ġdis pensaciÃ³n
Ġhi jas
Ġcr ist
Ġrela tivas
j ando
Ġce pa
tar ismo
Ġexplic aciones
Ġsolici tado
Ġacudir Ã¡
Ġemo ciÃ³n
Ġfinanci ado
ĠPa ulo
ĠO rg
c entes
ĠsÃŃn cope
Ġme d
Ġmono terapia
Ġconfirm Ã³
Ġori ficio
Ġrespe tar
Ġges tantes
ĠIN D
Ġapreci ar
gra mos
Ġg Ã©r
ĠConstitu ciÃ³n
tor n
min ente
Ġmer can
gl esias
ĠI l
Ġcircuns tancia
ĠP Ã¡g
Ġimpos ibilidad
Ġrespal do
Ġplan tar
6 00
ĠNE UM
ĠA plicar
Ġhis p
ĠJos e
cl ÃŃn
uy ente
ie mia
Ġcolombi anos
ĠIN VEN
aci na
Ã¡ce os
Ġex ager
ĠV D
Ġop tim
Ġdomicili ario
Ġs pp
Ġrazon able
bi tal
Ġautoinmun es
icÃ¡r dico
Ġesf ÃŃn
Ġdestac ando
mpli miento
Ġte Ã³ricos
Ġade mas
Ġs ida
g encia
am icina
di lo
Ġin cen
Ġleg umbres
Ġeffec ts
ĠS tar
ĠL inf
Ġmalig no
ĠNe ona
d ona
Ġac ent
ĠCol um
es pasmo
er Ã¡
ĠRES UMEN
ĠL engu
ĠCientÃŃ fica
Ġ14 2
ĠDec lar
1 12
ĠJoa quÃŃn
ĠMo delo
Ġcrea tividad
ĠM ich
Ġrue da
ĠDise ase
Ġves ÃŃcula
Ġpu ber
Ġafirm ado
Ġtex tura
Ġens al
Ġco okies
Ġirri tabilidad
Ġdeses per
ĠAl go
Ġter res
Ġactiv ity
Ġvir ales
Ġmens ual
ĠC Ã¡mara
B S
Ġdis ecciÃ³n
Ġmulti fac
Ġaqu Ã©l
ĠD oppler
Ġmostr ando
Ġban co
Ġconci erto
Ġviv ido
ĠGen Ã©tica
ĠAd olesc
ĠN T
Ġso br
Ġconstitu ciÃ³n
idel ines
Ġ10 8
Ġmos t
Ġneuro logÃŃa
ĠDise Ã±o
C h
Ġintro duc
C U
Ġar ena
Ġsuf riÃ³
Ġdej amos
er io
Ġsu presiÃ³n
Ġvol Ãºmenes
Ġpercu tÃ¡nea
Ġden tista
ĠC ajal
ĠSta phylo
S N
ci oso
Ġtra ma
Es to
Ġquin ce
id ona
ĠH LA
tros copia
10 5
CI O
Ġpreca uciones
ic ul
Ġac aban
eg as
Ġcorri entes
Ġejemp lares
Ġonc olÃ³gico
Ġ1 11
ĠTen iendo
ĠMul ti
Ġmuer en
Ġretras ar
di ciones
ĠMe tod
ĠHepa titis
ĠJun io
Ġcaus ando
Ġprior idades
ĠAc ad
Ġdetec tÃ³
Ġespermatozo ides
ĠPro toc
Ġdefens as
ĠTC E
Ġagres ivo
ve d
ĠObserv atorio
Ġescri tura
Ġfoc os
Ġama ble
E X
Ġconci enciaciÃ³n
ĠRo jas
Ġconserv ados
th o
ton e
Ġcelebr ada
Ġenvi ado
ona zol
Ġvie jo
ĠG us
UR O
ĠA CM
Ġ( %)
Ġgen ial
ĠFl ores
Ġadecu aciÃ³n
ten so
P re
ĠLu z
ĠNÃº mero
Ġres fri
Ġexperim enta
Ġpor ta
ĠfÃ¡ ciles
Ġbacteri anas
ogene idad
Ġcon qu
TAS IA
IS TE
ĠH ist
uy an
Ġcul p
Ġa man
Ġecocardi ografÃŃa
Ġ11 5
ĠTÃ©cn ico
vi x
ĠC ier
Ġintegr ales
Ġre evalu
ici as
Ġpanor ama
d ole
Ġin capaci
Ġapren dido
Ġmos quitos
Ġt ec
Ġcompar ti
ac usia
Ġ( -
ĠR AD
Ġvari edades
Ġacon di
Ġatm Ã³s
ones a
ĠmandÃŃ bula
Ġcla us
ĠSan tander
Ġadic ciones
a zol
Ġconcent ra
ht ml
ĠAl to
Ġconsider aciones
ĠENFERM EDAD
Ġsent ado
Ġbio quÃŃmica
ogÃ©n ico
Ġtra umat
Ġpsicos is
ĠL iga
ĠAnal ÃŃticamente
Ġi ban
Ġdo y
Ġprogen itores
i ki
Ġmegal ias
Ġanat Ã³mica
Ġemp a
IS MO
ĠOme prazol
pe cia
Ġradi olÃ³gico
ĠÂ °
Ġlinf Ã¡tico
Ġsu ba
t ona
ĠCor respon
ĠD in
z umab
Ġpre vista
ĠSecre tario
Ġalter nar
ĠF UN
Ġencar ga
Ġdur ar
Ġty pe
ren a
Ġcambi ando
Ġglomer ular
ĠEs cas
ĠIn gesta
Ġju dicial
tr Ã©s
ÃŃm enes
ĠgÃ©r menes
Ġcer teza
Ġepid ural
ĠT P
Ġtele vis
Ġti bia
Ġprevent ivo
Ġh ero
Ġme ter
oy a
Ġcuan tos
L ES
b idos
Ġpe ores
Ġle p
Ġes pas
Ġhemo grama
am etasona
Ġdila tado
Ġalb Ãºmina
ĠDe le
uel ve
Ġecocardi ograma
B ar
ĠCom pos
Ġconf undir
ĠTra uma
Ġti me
mer gen
tom y
Ġdesconoci miento
Ġester il
Ġde ficiente
Ġindustri ales
200 1
Ġcre encia
Ġhac ÃŃan
Î ±
Ġayud ado
Ġapoy an
Ġsol edad
Ġpre ferencia
Ġhorizon tal
Ġidio pÃ¡tica
ab al
Ġunif orme
o bs
ĠN aciÃ³
Ġsal iva
Ã©pti dos
Ġvo to
gun a
ros o
Ġrecol ecciÃ³n
Ġc em
Ġqu it
ĠP SA
Ġesp esor
Ġmexic ano
Ġelectrocardi ograma
und amente
Ġdesarroll adas
ĠS pain
Ġautol imi
Ġsent idos
Ġhu Ã©s
ĠRel aciones
Ġsub raya
Ġfres co
Ġdol encias
Ġch i
Ġtraduc ciÃ³n
omÃ© tricas
U CI
ĠGeneral itat
Ġfarmac olÃ³gicos
tra tamiento
Ġam n
uch o
Ġrespec ta
ĠSu Ã¡rez
ampl ona
ĠC og
Ġdes pro
ora zepam
ĠB MC
Ġos cil
Ġ( <
fic ado
Ġfac ultades
Ġmode l
Ġflu idos
Ġalum nado
Ġpresu pues
Ġcor tis
TE RAL
Ġma ÃŃz
Ġcor ticos
Ġinmun oglob
Ġrefuer zo
Ġmaquin aria
es ter
ĠmÃ³d ulo
ĠSan z
Ġconstitu ir
ĠS ON
IP O
br ica
Ġexac titud
ech n
o b
Ġni trÃ³geno
pro tec
val or
Ġneuro trans
Ġpaci encia
ĠBale ares
in ing
Ġinter vention
Ġfec al
ĠEE II
ĠPÃºbl ico
Ġrecol ec
Ġdepres ivos
Ġac oso
ĠVal de
Ġest Ã©ticos
tern idad
id ney
ĠP O
Ġestudi ando
Ġj ud
ĠSoci o
Ġnos ocom
EM PS
ĠS or
EM IA
Ġinforma tiva
Ġfren ar
Ġdestr uir
Ġtrata ba
Ġmie dos
Ġcombin ar
Ġdese an
Ġconf i
Ġp ylori
ĠDi ario
Ġdescom pensaciÃ³n
ĠIngen ierÃŃa
Ġreca ÃŃda
Ġnom bra
Ġemb ol
er g
Ġre animaciÃ³n
Ġand ar
Ġpens amos
Ġten dÃ³n
Ġpuer to
Ġax ilar
Ġrad ic
Ġvar ices
Ġorg Ã¡nicos
tic uer
Ġinter pers
ĠS F
Ġfil tro
Ġ19 70
ici al
Ġmig raciÃ³n
Q ue
ĠH Ã¡bi
ĠJ J
Ġblan dos
ĠL ance
ĠImp or
Ã³gra fo
Ġconf un
Ġrepro du
Ġvisu alizar
Ġatra vi
Ġfisioterapeu ta
ĠC ien
Ġloc aliza
Ġllev aba
Ġdestin ada
ific ados
v ene
Ġform ados
U ER
or ales
Ġne fr
Ġantioxid ante
Ġtiro idea
Ġpar ecÃŃa
Ġcardio patÃŃas
il ares
im ental
Ġembri Ã³n
Ġrepi te
p Ã¡us
Ġpod Ã©is
Ġdon aciones
agÃ¼ ey
Ġ198 3
ĠLor enzo
ĠR CP
pi ta
H eb
ist ÃŃan
Ġta tu
ĠD ivers
Ġconduc tos
Ġenfr entan
Ġfalle cido
at ina
ION ES
ÃŃ colas
Ġespon tÃ¡neo
Ġreempla zo
Ġun idos
Ġmad uraciÃ³n
Ġactu alizada
ĠdaÃ± ar
Ġrestric ciones
ĠP ac
du re
Ġsigui Ã³
Ġ198 2
Ġmet formina
Ġvig ilar
ĠS PSS
Ġnega tivamente
Ġv enen
ma gn
ĠElec tro
Ġorto doncia
cor por
var d
Ġpeligros o
ĠÃ³ xido
ĠvÃŃ deos
Ġagres iones
ci ble
Ġexpon er
Ġmad rile
Ġco co
Ġequip amiento
Ġo u
Ġmanten idas
Ġacupun tura
Ġl la
ĠparÃ¡s ito
Ġbol s
v ino
ĠBil bao
Ġad quiere
Ġcre an
Ġcal ma
Ġn aciÃ³n
h ÃŃ
Ġdese mb
Ġbos ques
Ġesc la
Ġimplan tar
Ġreflexi onar
Ġmus icales
Ġinhal aciÃ³n
Ġre torno
Ġperju dic
Ġv ene
Ġsal ido
Ġene mi
Ġamig dal
ĠAg us
Ġher ed
an des
isten cial
ul t
Ġpropens os
g inal
Ġcef triaxona
ĠL og
Ġinform aciones
Ġes quel
Ġpl Ã¡stica
Ġregis tra
Ġabier tos
ĠUri be
ĠTo tal
ĠMic hael
ĠCa te
ĠÃģ vila
Ġmanifes tado
Ġsuper ado
Ġfras es
Ġmenstr ual
Ġc Ã³n
Ġgrad ual
Ġh echa
Ġcul turas
Ġc Ã¡maras
ĠAn gio
ĠL oc
Ġrec ambi
ĠHEMOS TASIA
Ġten gamos
R R
ul e
Ġinmo bili
OS IS
ĠJ an
or ragia
ens es
Ġcor tical
bier tos
Cu ando
ĠF O
ĠRes umen
Ġresal tar
ĠQuÃŃ mica
Ġc Ãº
Ġmam as
Ġindirec ta
Ġcontamin antes
ĠFo to
Ġfr Ã¡g
Ġmexic anos
Ġreno vaciÃ³n
S T
pro ducciÃ³n
ĠcÃŃr culo
Ġinter medio
ban as
Ġchar acter
ĠNeu tro
Ġescri tos
Ġperci bir
Ġfacil itan
Ġsorpres a
Ġar bi
Ġreconoci dos
Ġagres ividad
Ġent radas
Ġproven ientes
ĠDÃŃ meros
Ġartic ulo
f le
IT IS
Ġconvers iÃ³n
Ġsobres al
ĠCarta gena
Ġbron ce
Ġtend remos
an der
ĠRE F
Ġtro mp
Ã¡m icas
ĠC le
Ġpo tentes
ĠW o
Ġa moxicilina
Ġpens ado
Ġafron tamiento
ĠD O
qu ero
Ġneces ite
Ġmonta Ã±a
Ġrel ieve
Ġglob o
ĠpaÃ± al
Ġcri a
Ġincorpor ado
Ġdis uria
Ġaplic arse
ĠUru guay
Ġinv is
Ġgan ancia
ĠClÃŃn ic
ab ell
Ġacu te
14 0
Ġpier den
Ġmue ve
AR D
Ġdul ces
Ġg ala
Ġcompar aron
Ġjer inga
tr uir
Ġdes ech
ĠU V
Ġposi tivamente
ĠS ac
Ġata car
Ġz umo
a tiva
Ġt Ãºn
ĠN ingun
Ġpal adar
Ġrecib ida
Ġbicicle ta
Ġrin itis
ĠXV III
ĠEpiso dio
ĠPolic ÃŃa
Ġco bre
Ġs O
ĠF unciÃ³n
Ġsu puestos
Ġsimul tÃ¡nea
19 99
Ġendos cÃ³pica
ĠPad re
ĠV o
tu res
ĠBlan ca
Ġver ificar
ĠnÃºcle os
Ġreci piente
Ġsobre todo
ĠC ine
Ġmal e
Ġfel ices
Ġinterrump ir
ĠEC A
Ġjab Ã³n
Ġpropon er
Ġperju icio
Ġine vi
Ġconme m
Ġra tÃ³n
Ġendo carditis
ence f
ud al
Ġpa tr
ĠhÃŃ dr
ĠRo ja
ĠA quel
Ġcos tumb
ĠUnivers itaria
Ġperf or
n utriciÃ³n
Ġpaci ent
ĠPreval encia
Ġencuent ros
lan a
ment s
Ġoper ar
ĠJa ime
os io
quier an
olu ciones
C ol
Ġcompet ente
tic ales
ple j
ĠEn ero
Ġpobl ado
ol isis
Ġesper ado
Ġselec tiva
den s
Ġcor rupciÃ³n
Ġconduc tual
Ġsi go
ĠPre gun
ĠCas o
adÃ¡ ver
ĠMeta mizol
Ġc Ã³
Ġingres ado
Ġcons umi
ĠPara guay
ĠMo vimiento
Ġene migo
Ġmiocardio patÃŃa
Ġcontraindic aciones
Ġconf irman
ĠGer encia
Ġhemis fer
cl oro
ĠCons tantes
endo za
Ġmexic ana
Ġprefer entemente
Ġrode an
Ġconex iones
s ÃŃn
ĠR ay
Ġaprob ada
Ġ13 4
Ġhis torial
th ro
of f
Ġf us
ĠRoc ÃŃo
am ar
Ġpal pe
ĠBio quÃŃmica
ĠAl l
ĠRM N
Ġosci la
Ġmag is
Ġofre ciendo
ĠpÃ¡r pados
Ġtransi toria
Ġmalig nas
Ġsolu cion
ona tremia
ĠfÃŃs tula
Ġfi jo
Ã¡g icas
Ġdesarroll arse
iv es
Ġpublic adas
ĠGran de
Ġexig encias
Ġan Ã³m
Ġim mun
ĠS G
Ġneuro patÃŃa
ĠStaphylo coccus
Ġenc ÃŃas
Ġreal icen
Ġmu tu
Ġmodific ado
Ġobserv ados
ĠSig nos
Ġvo ces
Es ta
ĠVac un
ĠS H
Ġfic ha
Ġcent ÃŃmetros
Ġadministra tivo
Ġfron tera
Ġpar tos
Ġvi ento
Ġfeb rÃŃcula
ĠF ig
Ġescri be
ĠR oy
V O
Ġar ren
Ġqu ÃŃstica
ĠE m
Ġind ÃŃgenas
ocor tico
Ġcancer osas
ĠCol o
Ġaudi tiva
Ġtembl or
Ã¨ s
Ġsurg ir
ĠF AC
Ġsobre pas
Ġsuper aciÃ³n
ĠEn s
Ġextir paciÃ³n
Ġde cen
uc os
vi as
Ġdestin adas
as o
Ġur bano
ĠResul tado
Ġcontex tos
Ġpresent amos
Ġforma tivo
ĠCor ona
h l
Ġmus culo
Ġaneuris ma
Ġllam Ã³
Ġtrasl ada
Ġcon gestiÃ³n
Ġdivi de
di ar
Ġcaus ados
TI EN
Ã² n
Ġre umat
Ġent ran
Ġvia bilidad
Ġaisl adas
t adoras
rolÃ³g ica
ĠSoci edades
ĠRiv era
ta Ã±a
Ġley endo
Ġas ume
Ġs aco
pa z
ĠLuis a
ĠP se
ac al
ĠPe que
Ġplac enta
ĠAu ton
Ġc aca
Ġrecom bin
TR OL
ĠQuir Ã³n
Ġlo gran
Ġcoordin ado
Ã©nd olo
ĠP ie
Ġbil iares
Ġg on
vul Ã¡nico
8 00
ĠF r
11 6
S ON
Ġimpor tant
que ta
ĠEco grafÃŃa
Ġseden tarismo
Ġh arÃ¡n
der son
Ġauxil iares
ĠM R
Ġan si
ĠCri terios
Ġperman entes
Ġfrag ilidad
ĠS tu
ĠM all
Ġca e
ĠDic ha
Ġrin orrea
pe da
Ġbeb e
Ġacu diÃ³
ĠCu adro
ac ea
Ġlig amento
Ġregular mente
Ġm ico
Ġpur ul
Ġper icar
ĠCam pe
Ġcerv icales
ĠINFORM E
Ġcontar Ã¡
ur ÃŃa
ent ando
Ġmedi ca
Ġesco g
Ġiz q
ĠV ER
Ġpresti g
Ġo pi
Ġv era
ĠAn s
-- >
Ġconduc tuales
i era
Ġper miso
ĠGu adal
ĠG l
Ġmedias tÃŃn
ac tivas
ĠÎ ±
Ã©c til
coh ol
Ġantimicrobi anos
ĠP amplona
pat olÃ³gicos
ci ent
Ġsubcu tÃ¡neo
Ġdiagnostic adas
Ġcateg or
Ġmulti plic
Ġad vir
h ista
ti Ã³n
Ã³di gos
Ġpsicos ocial
cu enta
ĠCr isto
ĠLance t
ur y
fal o
ori ales
Ġr al
an ts
Ġpubl ici
ĠpediÃ¡ trico
IM IENTO
ĠMar cos
Ġ19 60
Ġc adÃ¡ver
Ġman us
en g
tad ura
Ġmedic al
cons ulta
Ġb asta
tÃ³ x
Ġterapeu ta
Ġinvers iones
fre do
on ados
ĠIs las
Ġsensor ial
Ġdi plom
Ġme tales
ĠFu entes
Ġcar encia
Ġsatisfac toria
ĠSan itarias
Ġdis pu
con duc
Ġasc enso
Ġases ina
di di
tor vastatina
Ġinyec table
ĠCÃ©s ar
ĠDis tribuciÃ³n
Ġalgo dÃ³n
ĠNI H
ĠatmÃ³s fera
Ġarch ivos
Ġinhib e
en ciÃ³n
Ġapropi ada
icarb onato
Ġro ck
Ġpropa gaciÃ³n
Ġd uc
ĠP SO
Ġur ticaria
pas s
Ġpre dnisona
ĠACTUAL IZADO
tiv es
Ġdop amina
teri ales
Ġconta ba
ĠHum ana
Ġtranscur rido
ĠMÃºs ica
P OR
aliz as
ĠM Ã¡r
Ġanti gÃ¼edad
ĠCons ell
Ġreco p
ĠD rug
ÃŃs imas
c tomÃŃa
Ġgen Ã©ricos
Ġci tar
?? ?
Ġpersonal mente
ĠGuer rero
Ġvideoj uegos
j ala
meno pÃ¡us
u res
ĠgÃ©n eros
Ġas istente
Ġox igen
D EN
Ġartic ulares
Ġfalle ciÃ³
Ġcontinu Ã³
tan eo
potas emia
Ġri gor
Ġesp in
matos is
ĠincreÃŃ ble
p ic
ĠCh an
Ġpapil oma
Ġmes as
ĠR V
Ġpsicos ociales
ce des
Ġcompren den
Ġpreserv ar
ĠHar vard
Ġto que
Ġn itro
Y C
Ġtro pas
Ġmoder ados
ĠBos ton
Ġdi l
Ã³r icamente
ĠDa ta
Ġger iÃ¡
ĠC ER
Ġcomo didad
ĠSos pecha
ĠÃ©po cas
es en
Ġre mon
Ġingres ar
ĠRich ard
ĠIn icia
ĠInfec t
far o
Ġov arios
Ġv ieron
Ġhialur Ã³nico
Ġinver tir
id s
ĠS chool
Ġpropon en
ogra fÃŃas
AD AS
ĠRES P
Ġcastel lano
Ġcontinu amente
ĠJ or
Ġinvers a
Ġme to
Ġsubje tiva
ĠIC C
Ġdesempe Ã±a
Ġforma tivas
ĠClÃŃn icas
cl ina
Ġreper cusiones
Ġfi jar
Ġterren os
Ġplen amente
Ġmalig nos
Ġmul tin
ac tivos
ĠO br
Ġmas tic
Ġacum ula
ĠsÃ³l ido
Ġpro cl
Ġent eral
hospital aria
ĠF le
Ġvincul ado
ĠDef ensa
Ġalo jamiento
ce f
Ġcer tificaciÃ³n
IL O
diagn Ã³stico
Ġtu viera
Ġconsens u
ĠL ig
Ġexpl ÃŃ
ĠCon duc
Ġtom o
Ġpens aba
Ġpa tri
ĠES PE
Ãĵ G
Ġagu deza
tric s
ĠU TIL
Ġrese Ã±
iste mas
ĠInter venciÃ³n
ĠMan tiene
Ġtermin Ã³
a Ã±ad
Ġfavor ables
an cy
Ġgran os
Ġinteg ran
g ener
Ġrela to
Ġvent il
ĠÃī tica
Ġf at
th a
ĠCab rera
AG UL
ĠAlter aciones
Ġtermin ado
Ġcaro tÃŃ
Ġoto Ã±o
ĠMa Ã±ana
Ġrecom endadas
Ġpiel es
Ġin ca
ĠS ara
ĠPr Ã¡ctica
Ġtri go
Ġc recen
ph ic
Ġvoc aciÃ³n
Ġdeclar Ã³
Ġmas co
Ġc y
O r
Ġ198 1
Ġhom bros
ĠF lu
Ġob ede
Ġcal ificaciÃ³n
cop ÃŃa
Ġ cia
cul itis
Ġcar as
ĠT S
Ġin duce
Ġcompren diendo
Ġplata formas
Ġati enden
Ġterri torial
Ġleuc o
P a
Ġdiscre ta
Ġaprob Ã³
Ġrela ted
ter ÃŃas
Ġaliment ario
Ġasintom Ã¡ticos
Ġdis cos
Ġpreval ence
ĠperiÃ³ dicos
Ġhu bieran
Ã¨ n
Ġaleator izados
me dic
ĠTÃĵ RAX
Ġg ing
gi Ã³
Ġsorpren dente
Ġcir cular
Ġencar gada
Ġton os
Ġten din
Ġconsecu tivos
Ġdesa grad
mÃŃn icos
Ġtu tor
Ġdor so
Ġdesequilib rio
C an
Ġangio tensina
Ġaer Ã³b
Ġfaculta tivos
Ġm s
ĠVÃŃc tor
ĠNo bel
Ġdepen der
IEN TE
Ġconcl uido
ĠUnivers itat
ĠV ive
Ġmen ingo
TOR IA
ĠEs tÃ¡n
" ).
Ġpene traciÃ³n
n g
ent arios
aliz arse
acion s
idas a
" :
Es paÃ±a
ĠD IC
Ġagre gÃ³
ĠpsiquiÃ¡ trica
Ġtu ber
Ġactiv ar
ĠOs car
ol itis
Ġpar ar
Ġimplic adas
Ġamar ill
Ġmedi cinas
Ġtum efacciÃ³n
ox a
ce mos
ĠINVEN CION
Ġheredi taria
OL U
Ġimpul sos
ĠjurÃŃ dico
ĠF rente
Ġperman ecen
Ġal so
Ġagu jas
tÃ¡n eas
b aciones
Ġangio plastia
Ġrestaur antes
Ã©n icos
ard ÃŃn
Ġmi tos
Ġca tÃ¡
ĠPa u
Ġdese ado
ĠCo vid
Ġfisi olÃ³gicos
ĠO cho
Ġtri p
ĠperiÃ³ dica
ac Ã¡r
ĠES P
ĠAb s
Ġines per
Ġhinch ada
g ement
Ġtu b
Ġer Ã©ctil
pto coccus
f ur
Ġp uro
d Ã©s
r um
Ġenfo ques
Ġanterior idad
Ġampli tud
ind d
Ġloc alizar
ĠAmb as
Ġestrech amente
Ġrever tir
gl io
ĠT I
Ġcomple mentos
Ġbibas ales
Ġcar gas
ĠR ela
blas toma
k es
fer entes
Ġendos copia
CuÃ¡l es
15 2
Ġpor quÃ©
ĠEs tre
ido grel
un t
Ġotor ga
f an
tra um
i aca
Ġpre ju
Ġregres ar
ue ta
Ġre ju
Ġcontrib uido
ĠSegun do
Ġutil ice
re os
Ġcin ta
ĠWilli am
ĠSU PER
Ġcaracter izaciÃ³n
Ġadministr ada
Ġmer cados
ĠMar ina
Ġa tac
ĠPe ter
ĠmetastÃ¡s ico
NA E
ci alidad
Ġperio d
ĠIb ero
me lo
ĠMe xico
Ġin cur
Ġsu mar
ĠD or
Ġveg eta
ĠUn i
Ġarch ivo
Ġp ÃŃl
Ġgig antes
b ron
ĠDis positivo
enfer medad
Ġl ingÃ¼
ĠHig iene
Ġcre y
ĠG an
Ġhipertens iva
par se
ome di
ĠH B
ĠPSO E
Ġmedi ano
Ġper ÃŃmetro
Ġdeclar ado
Ġemple ando
Ġo y
Ġviv imos
10 2
Ġsuperfici ales
c Ã¡n
Ġven daje
Ġconstitu ida
Ġdenomin aciÃ³n
ide as
B NP
Ġcons tancia
Ġasign aciÃ³n
ĠC IR
Ġpsic Ã³loga
Ġphys ical
mar ca
ĠYo u
ol ares
Ġag encias
Ġdepor tivos
Ġpredic ciÃ³n
as s
Ã¡s tico
ĠB L
Ġam istad
Ġamp l
ĠMas s
Ġauxil iar
uer te
Ġaplic able
ĠB ri
ĠB EG
Ġblo od
Ġadi poso
Ġhist Ã³ricos
Ġguar dar
Ġrevolucion ario
Ġco hor
Ġcap tur
Ġtes ts
Ġconj u
ĠRecuer da
Ġgus tado
Ġdivi dir
Ġmor tales
Ġbos que
medi cina
Ġsemej ante
Ġentus ias
Ġpropor ciones
ol ol
Ġre absor
Ġco ex
Ġdi je
Ġro jas
Ġprevi ene
Ġin mer
OL ÃĵG
ĠPr uebas
S G
Ġneutro filia
Ġir Ã¡
omiel itis
Ġ1 19
Ġhe mic
Ġchar las
Ġavan za
Ġvaso dila
bu tamol
Ġconform idad
In s
Ġfisi olÃ³gica
O CI
Ġhipo gas
ĠdiseÃ± ados
ĠPÃ¡g ina
Ġaliment arias
p icamente
Ġlig amentos
Ġ13 3
ent Ã³
ĠH ID
Ãĳ O
ĠE de
ps i
Ġrecog ieron
ĠC G
Ġconstr uido
ĠFuer za
P ero
Ġex tr
Ġgal ard
ĠGe orge
Ġcabal lo
ĠMo vil
Ġescas ez
Ġdis puestos
Ġobs tÃ¡culos
Ġreg ulares
cÃ³ cica
Ġba zo
Ġcostumb res
ine te
Ġsub grupo
ĠÃ© tico
Ġso plo
Ġor inar
ĠestadÃŃs ticos
ĠNa ture
Ġtra tÃ³
ĠEstad ÃŃstica
bacteri as
s ible
Ġgu itar
av ir
Ġref rig
Ġoxida tivo
Ġestim aciones
T IS
ĠCon cepciÃ³n
Ġsignific ant
jal Ã¡
ĠN osotros
th s
ĠIntens ivos
cu ando
m ante
ĠLo u
ĠacompaÃ± an
Ġqu eso
ol l
Ġre ces
erv a
ĠMedi terrÃ¡n
Ġd ÃŃ
ĠO M
Ġconserv a
ĠMad re
Ġap endi
Ġfac ultad
Ġmach os
ĠResul ts
D i
ĠD OL
et ts
Ġcolec tiva
Ġb ut
ĠRecomend aciones
Ġsel f
c ron
ic ana
dr os
Ġdem ora
ĠMa x
Ġcolec ciones
Ġobserv amos
ma x
ĠR R
Ġcomplement arios
Ġpri va
Ġpe ti
Ġaz itromicina
ĠCam p
F ES
ĠC olor
w an
Ġcal zado
Ġentre ten
Ġquin ta
tom ÃŃas
Ġa xil
Ġsin t
Ġinform ados
ĠPhar ma
Ġfortal ecimiento
Ġhall aron
Ġadul tas
cul aciÃ³n
Ġfinanci era
re y
ĠMAT ER
ĠS y
Ġsus trato
ĠcatÃ©ter es
Ġgratu ito
Ġc ÃŃ
Ġmayor itariamente
Ġsuper viv
ĠG A
ien ce
ÃŃ tis
ĠC EN
Ġmus lo
Ġte Ã³rica
ĠF I
Ã¡ qu
tens ion
Ġps ych
Ġes poso
ĠCh ica
Ġplu ri
Ġrehabil it
ĠAs per
Ġenc am
d ina
Ġradi ologÃŃa
ĠcrÃ©di tos
Ġon ce
ĠCientÃŃ ficas
Ġori ental
Ġse pa
Ġconsigui endo
ĠColabor adores
oles terol
Ġs c
ĠtÃ³ picos
Ġconta g
Ġexpon en
istan ce
no ut
Ġplan ificar
ĠAr ri
Ġno tificaciÃ³n
ĠF ase
ĠJ ack
Ġinstitu cion
ĠIn tel
Ġcolon oscopia
ĠVil lar
al ia
g ante
un ar
ĠAn g
Ġayudar Ã¡n
Ġesco ger
ul osa
min ares
b anos
Ġmejor ia
ĠSe gura
Ġinform Ã¡tico
Ġmas to
ĠPer man
Ġrecog ido
oprol ol
ĠGener ales
ĠDetermin ar
ta men
ale lo
Ġdis posiciones
Ġpa pa
ÃŃns ula
ĠP ros
ĠCuer po
Ġmac rÃ³
Ġdi ga
Ġsegui mos
Ġverte brales
Ġprotein uria
Ġvege taciÃ³n
Ġfr uc
ogrÃ¡ ficos
ab uena
ĠfÃ©r til
Ġradiof recuencia
Ġin her
ĠK le
Ġan as
Ġcer rada
Ġcatal og
Ġperme abilidad
f ano
f y
ĠCons ide
Ġdolor osas
Ġglob ales
ĠEs tra
Ġsocioecon Ã³mico
Ġmoder no
Ġcu ch
Ġefec tivamente
cla je
ĠMic ros
Ġs mo
ĠSue cia
ĠR EL
o v
ĠGal le
Ġenfr enta
Ġatrac tivo
ce le
Ġprof undamente
ĠPan amÃ¡
Ġcatedr Ã¡tico
ĠG GT
Ġencuent ren
ĠL ec
Ã©r dida
Ġradi olÃ³gicos
er ador
Ġterm ome
h as
ĠP ESO
Ġmi ento
H R
Ġsurg iÃ³
Ġhacer le
Ġperf un
ĠPol it
Ġsuscep tible
Ġcar ece
Ġdetec taron
Ġneuro psic
Ġultra vi
Ġ( +
Ġactu alizar
Ġalgor itmo
ĠET T
IM A
Ġdes vent
gu ero
Ġgen Ã©ticamente
Ġidi omas
Ġprimor dial
Ġpredis pon
B C
wo od
Ġh ones
Ġs oma
Ġe yecciÃ³n
): .
ĠMer cedes
Ġcontempor Ã¡n
ĠTÃ³ rax
Ġhi lo
Ġen cu
ĠNe t
ĠPres entaciÃ³n
Ġneurotrans mis
i dencia
Ġprop uso
ĠES PA
Ġmax ilar
Ġrar os
Ġbiblio teca
ĠMil los
Ġmultiv ari
g aron
ĠRadio grafÃŃa
pen di
Ġresuel to
Ã©cn ica
vie do
Ġvari ada
uc al
Ġgu bernam
ĠLab oral
Ġsing ular
lop idogrel
LD L
Ġl ech
Ġparticip ante
ĠPer e
Ġpro ges
ĠAdminis traciones
os ta
Ġest acional
Ġpa th
pro te
Ġmac ros
Ġper diendo
ĠAN TI
Ġcolon ias
Ġart ÃŃstica
Ġsel lo
Ġl Ã¡gri
Ġc Ã³digos
ĠAn exo
ĠAd ri
s s
ĠCom pe
Ġb ac
lo dipino
Ġcap ilares
ra te
fici l
Ġgrues o
Ġdiges tivas
Ġdirec tiva
Ġso ja
do i
ĠV ice
Ġor ÃŃgenes
Ġapor tes
Ġselec ciona
Ġbor rosa
ĠAu tismo
Ġdescan sar
Ġestric to
Ġproce dencia
ĠCor on
la za
ĠDES CR
Ġobjetiv an
Ġla ter
Ġti endas
Ġsab ido
Ġidenti fi
Ġdesgas te
Ġmues treo
Ġperju dicial
ĠDeclar aciÃ³n
cul tural
Ġgas tritis
Ġacog ida
Ġin hibir
el ia
Ġlogr ando
Ġdepor tista
in ados
ĠIs rael
Ġcog er
Ãģ S
verte bral
Ġla var
Ġr x
titu ciÃ³n
Ġdos ificaciÃ³n
ĠSeÃ± or
om io
Ġfom ento
Ġepi teliales
Ġsin cer
Ġje fa
Ġfic ciÃ³n
Ġdis tensiÃ³n
ĠMexic ana
ĠPsychia try
ĠSebasti Ã¡n
v Ã¡n
Ġp Ã¡nico
ĠN P
Ġur bana
Ġpade cimiento
aci os
Ġi ra
ĠPr ueba
Ġpros ta
Ġses go
ĠRel aciÃ³n
Ġaro ma
Ġprofesi ones
ci encias
Ġcaus antes
Ã¡nd olos
in arios
Ġsol dados
Ġmi xto
Ġsegu idores
d ras
Ġdi ces
Ġpon der
Ġsimp li
H a
ĠI X
ĠF AM
Ġpre fi
M Ã©
gui to
Ġmanio bra
Ġadj unto
Ġindic ando
Ġba terÃŃa
Ġelectro dos
v ulas
Ġde velopment
Ġpractic e
Ġabog ado
Ġparie tal
Ġ19 59
Ġdol encia
Ġfib rin
Ġfinanci ero
Ġand alu
ĠE G
ĠAs pectos
ef es
Ġde cid
aj ara
t ti
ad illa
Ġter mo
Ġfuerte mente
ĠT ÃŃtulo
Ġmi algias
ĠHal laz
ĠÃºn icas
Ġayud ando
O F
od g
Ġhubi ese
ĠP OSI
Ġanaliz adas
Ġrefer idos
Ġofrece mos
tiv ity
Ġjus tifica
omÃ© tricos
Ġr osa
Ġfran cesa
M o
Ġsu c
Ġcor tar
lu encia
ĠCP AP
ab oraciÃ³n
Ġaudi tivo
uch as
Ġs ymp
op h
ĠNo viembre
torÃ¡ci co
Ġaur ÃŃcula
Ġrell eno
Ġpas aj
Ġinto xic
T OM
Ġayudar te
Ġeritematos o
ĠreÃºn e
Ġtra yecto
pens as
Ã© ramos
ĠAy uda
Ġex ante
Ġsue los
ĠAutÃ³n omas
ĠApo yo
blas tos
ĠT rin
enes s
ĠNo ticias
Ġca za
ĠAC V
P res
z h
ĠA AS
ĠHa bi
f oc
Ġesque mas
Ġcontrovers ia
ĠNe o
Ġin us
TR OS
ĠBol etÃŃn
ĠMill onarios
Ġfisi ologÃŃa
Ġconsider aron
Ġdedic ar
b ach
iz arse
Ġdise minaciÃ³n
10 4
Ġhiper colesterolemia
Ġinter media
Ġpropor cional
it enci
ĠSal ut
Ġfluc tu
Ġe cl
ĠT AM
Ġpu ri
Ġdedic ados
Ġoscu ra
Ġconsul torio
Ġconside re
ĠPÃºbl icas
Ġcar Ã³
Ġpa ta
Ġtard ÃŃo
Ġcualita tiva
Ġsustan cialmente
ĠF ron
Ġultrason ido
Ġcu a
Ġsolici tÃ³
ĠM IN
ĠSi tuaciÃ³n
Ġselec tivo
trop ol
Ġprim arias
Ġindic ados
ĠtÃŃ picos
ĠCam po
Ġseguir Ã¡
Ġbas Ã¡ndose
Ġirri table
us os
Ġmad urez
Ġcontrol adas
ĠTIEN E
Ġenf ise
Ġcambi an
Ġcav idades
Ġconduc tor
Ġadap tada
Ġcohor tes
us ional
se a
Ġun ir
Ġpre c
Ġnove dad
ĠL CR
Ġnefro patÃŃa
ĠPa tricia
Ġ36 0
Ġac eta
Ġmetab Ã³licos
Ġescas as
mo der
tum bre
ĠEupne ico
ĠA IN
ces s
ĠtÃ³ pico
ĠMed ina
ĠDoc um
pa to
Ġsalud os
li tos
th erapy
Ġprofun dos
Ġintu baciÃ³n
ĠC ron
ona tos
Ġdise Ã±os
Ġsever as
Ġ19 78
Ġab ur
Ġobserv arse
ĠX VI
ĠFran co
Ġdeamb ulaciÃ³n
Ġpul sos
Ġ11 4
ĠM endoza
era to
ĠNo ta
f uegos
tir Ã¡
Ġcambi Ã³
ĠSer rano
Ġbronqui tis
Ġidentific Ã³
ĠGu ate
Y o
Ġal Ã©r
Ġreserv as
Ġinquie tud
Ġcoordin adora
ĠPos ible
S P
gi osa
Ġpas iva
Ġ> >
ĠPa ti
un idad
quÃŃ deo
se vier
ĠV O
Ġintens iva
am ora
Ġenfrent arse
B R
Ġcompara tivo
Ġcaracter ÃŃsticos
Ġestim ada
Ġconstitu cional
Ġmenci ona
Ġcon tando
v ac
Ġregul an
Ġtar da
Ġetique ta
Ġmicro bio
cion istas
Ġrol es
Ġextin ciÃ³n
ĠI t
Ġte a
12 9
Ġmultifac torial
ĠR og
Ġrel len
ĠNÃº Ã±ez
GRA F
Ġprescri bir
ĠAn alizar
Ġmal igna
Ġmito condri
Ġper diÃ³
Ġderi van
Ġhipogas trio
Ġint entado
Ġamar illa
Ġsuero terapia
ĠJohn son
Ġdetal lado
13 8
ĠEncuent ro
Ġsuprar renal
ĠR ecu
Ġre pos
Ġ* **
Ġpos turas
Ġpol is
Ġdoctor ado
Ġjun ta
Ġcoinci diendo
B N
Ġempe orar
Ġpr isiÃ³n
ĠD if
ĠPR OB
ÃŃng ea
ĠPro p
s ue
Ġampol las
Ġdisper siÃ³n
ĠAs ma
Ġrequi riÃ³
gu er
ĠCan aria
Ġdiar reas
Ġver emos
Ġagre ga
Ġco au
ol s
ĠD ATOS
ĠsÃŃmb olo
Ġalucin aciones
Ġrec tor
Ġinnov adores
om onas
k en
Ġampol la
Ġestr en
Ġexcre ciÃ³n
Ġalter ada
Ġsobre dosis
Ġcolg ajo
Ġsimi li
Ġaber tura
tro ke
ici embre
Ġure tra
Ġa ula
Ġbil irrubina
ĠEjer ci
ĠBoliv ia
Ġme tro
Ġmic ciÃ³n
Ġy ug
Ġpor tu
Ġreg alo
tra cciÃ³n
ve jecimiento
mej or
de la
Ġapor tando
e gos
ĠS oc
Ġap ical
Ġdesencaden ar
Ġarrit mia
Ġtra ÃŃdo
Ġsim ulaciÃ³n
Ġobs truc
ĠacompaÃ± amiento
Ġalum inio
Heb ron
Ġagre gar
Ġperi fer
Ġdeb ut
Ġreg ion
ĠTh omas
ĠTom ar
Ġal co
j adas
os ex
ĠAl var
ĠL esiÃ³n
ĠO p
Ġse gur
Ã©is bol
es to
ĠNic ol
Ġcontro ver
Ã¡l icos
ĠLi mi
Ġcoher ente
Ġsist Ã©micas
l ara
ĠA J
ĠEN TRE
Ġedi ciones
ĠTener ife
Ġlinfo penia
ĠT oma
v ados
Ġinde x
ĠF an
Ġadi ciÃ³n
por ts
ĠRu b
ĠÃģ cido
ĠDIS P
Ġgra m
Ġbuc o
ĠPAR TE
Ġg oles
Ġ9 00
rec tomÃŃa
ĠM ens
se gÃºn
ĠseÃ± alizaciÃ³n
Ġmec Ã¡nico
ogrÃ¡ fica
Ġpon ga
Ġbenefici arse
ĠM ec
ĠB is
/ -
Ġse men
f eno
Ġinaugur aciÃ³n
v ÃŃ
on ef
Ġ19 76
ĠEmpres a
ĠG i
Ã©rg ico
ĠRu bio
Ġla x
Ġher n
Ġp om
Ġaument ada
Ġlimp io
Ġne utrÃ³filos
Un ivers
tu aciÃ³
Ġus ada
S erv
vo ca
Ġdes pre
Ġt echo
ĠH BP
Ġinform an
ad ie
Ġinfec ciosos
jec t
Ġpus ieron
olo go
Ġconden s
Ġadul ts
fici ts
Ġameric ano
f ÃŃs
Ġvolun tario
iti asis
Ġb er
ier es
Ġagrade cimiento
Ġcuan tas
Ġapun tado
Ġb reast
Ġamena zas
ĠCla u
ĠRen al
Ġest ri
Ġpriv acidad
gÃ¼ enza
Ġinconven ientes
ĠM ach
Ġpol en
Ġprodu zcan
Ġol vi
Ġautor izado
Ġfir st
Ġreun ir
Ġodon tologÃŃa
Ġrealizar Ã¡n
Ġtraslad ado
Ġginec Ã³logo
Ġvesti r
Ġlan zado
ĠR ock
Ġobliga toria
s ta
Ġren unci
Ġvent riculares
d ores
ICA CIÃĵN
h um
Ġ13 2
ĠIn ci
Ġ14 3
ĠCa teg
Ġregis trÃ³
Ġanat Ã³micas
Ġdra ma
10 1
t ulas
om icina
A meric
Ġpen icilina
Ġ19 79
dem y
Ġsencil los
ĠparÃ¡ metro
Ġdenomin ados
Ġo pres
Ġdistin ciÃ³n
Ġllev ada
Ġcar ro
ac ar
Ġpat ente
ĠBur gos
f unciÃ³n
Ġbo tul
ĠO viedo
ĠA I
ĠD T
Ġci tada
ĠSu p
tel erÃŃa
OLOG IA
ĠMetod ologÃŃa
ach ing
Ġca va
z il
ami lo
k ers
ĠDes cripciÃ³n
Ġat mos
Ġv ideos
Ġcar tas
Ġexpres ado
ĠautÃ³n omo
ĠE ri
ĠAler gia
A d
Ġpan demia
ĠEmil io
e dia
s h
Ġcer em
Ġsobre aÃ±ad
Ġsever os
ĠOx ford
ĠNi Ã±a
Ġantigu as
ec al
Ġni Ã±ez
Ġesc Ã¡n
ĠcÃ³mo do
Ġan titu
li p
ER G
Ġdesfib ril
ĠR EG
Ġvacun al
Ġcur sar
ĠFo od
ĠG AS
Ġpres encial
Ġent r
Ġrequer ido
com icina
ric h
Ġves icular
ĠFis cal
ĠInd ustri
Ġpar alelo
fi eld
Ġque m
Ġsom bra
ĠRES PIRA
Ġpig ment
bal gia
Ġres ol
Ġasoci ar
l um
Ġcam inos
Ġre ten
ĠVir us
Ġreg ener
Ġcomp ras
Ġincluy a
Ġpar lam
Ġhom osex
ri Ã³n
Ġcor tas
th el
z ones
Ġtendr Ã¡s
ĠL lam
Ġad olescent
ĠRad iologÃŃa
Ġv alidad
M i
Ġanti psic
Ġcalcul Ã³
Ġjar din
i guar
bi mos
Ġinf artos
Ġre porte
Ġpers isten
Ġcontinu ado
H T
Ġba Ã±
Ġpredic tor
ĠelÃ©c tricas
Ġplante Ã³
Ġsyste m
ĠEn seÃ±
Ġsent imos
ĠvÃ©r te
Ġmanz ana
Ġpro tÃ©s
ĠAgu ilar
ve a
Ġ11 7
ĠZ ona
iz acion
ĠMe del
Ġmanifes tÃ³
Ġllev amos
tra que
Ġsa Ãºde
Ġincu mplimiento
Ġhemorro ides
it Ã©s
C ER
un es
Ġeduc ar
Ġcontr ar
Ġcosm Ã©ticos
Ġradio grafÃŃas
Ġcompe ticiÃ³n
Ġfalle cidos
Ġap as
ĠF aci
an ismo
ima gen
Ġmascar illa
Ġhist olÃ³gico
ĠD ich
Ġalcoh Ã³licas
Ġun ilateral
ĠCh il
Ġch ica
on os
ter ectomÃŃa
Ġex istan
ĠsÃŃ filis
Ġrelo j
Ġsiste mÃ¡tico
D is
ĠF recuencia
Ġinf in
ĠÃ³se os
Ġinvas ivas
Ġprim ary
Ġo k
Ġpol lo
Ġmetabol itos
N M
w al
pa tas
Ġsal Ã³n
ĠvÃŃn culos
iz umab
Ġinstitu to
Ġbras ile
uls iÃ³n
Ġperju diciales
j anos
onal d
Ġpa ula
Ġdis cur
ĠV EN
fic aciones
ĠFuer on
Ġsosten ida
Ġaceler ar
Ġba ilar
Ġde uda
Ġyog a
ĠA merica
Ġb ic
Ġadvers o
Ġa jo
Ġic tericia
Ġmotor as
Ġfaculta tivo
ĠV HB
Ġinici an
Ġan od
ĠV aria
Ġque ma
Ġimp iden
Ġmorf ina
lo gia
ne ica
ĠCar olina
ph ia
ĠÃ¡tom o
b ados
hu ana
c ÃŃa
ĠCan dida
ĠGuate mala
P ue
far mac
Ġsist Ã©micos
ĠA Ã±o
Ġb ecas
tan ol
ĠTecn ologÃŃas
Ġvisit antes
Ġvent ila
rol imus
Ġadelga zar
ĠSe p
Ġresul tante
ĠPACI ENTE
Ġas sessment
Ġo titis
ĠS olid
Ġpe o
ĠAn emia
V ER
Ġoptimi zaciÃ³n
Ġimplic an
Ġa rea
Ġmen ciÃ³n
Ġcam ina
Ġra bia
Ġprodu jeron
Ġprecis Ã³
ĠF orma
ĠAl fredo
es os
Ġoftalm Ã³logo
Ġes tir
Ġpalp acion
Ġpin cha
Ġper pe
Ġexpres iones
Ġpen al
Ġsub grupos
ar tritis
Ġrec rea
ĠM io
ĠJ ar
Ġcons ecuciÃ³n
ĠPro gramas
ĠExcel ente
ĠPol ÃŃticas
l ados
Ġarg umento
ĠD al
Ġ19 75
ĠFAR M
Ġpie dras
Ġsuici da
in cu
Ġmover se
Ġreac cion
ari ta
ĠAca demy
Ġsuger ido
Ġorg Ã¡nico
Ġsu bl
Ġhiper plasia
ĠZ ika
c Ã©
ĠPuer ta
Ġmicros copio
s ul
c am
Ġform Ã³
Ġcomunic arse
ĠL am
Ġsu yo
Ġlu x
Ġw ar
Ġajus ta
Ġal mo
Ġdeb idamente
Ġcompar tido
ĠrÃ¡p idos
Ġpol o
Ġpo deres
Ġrev esti
es s
Ġdis plasia
Ġnormo colore
Ġd re
lan dia
Ġencar gados
Ġpion ero
cre tamente
Ġhor t
m y
Ġhiper glucemia
Ġpor tÃ¡
ĠCor te
Ġe char
Ġ13 1
H H
e des
Ġirre versible
Ġ3 50
Ġdel ito
Ġapro x
Ġprecoz mente
ĠdiseÃ± ada
Ġw ell
hor abuena
Ġen ju
am bres
ĠPor tal
Ġfabric ante
ic ciÃ³n
ĠperiÃ³ dicamente
tu ximab
Ġ12 8
ĠInd ustria
Ġpu de
Ġdegrad aciÃ³n
f isis
Ġman dibular
Ġnas ofar
Ġantebra zo
ĠelÃ©c tricos
Ġpertin entes
ĠTRA NS
Ġviscer al
Ġse des
Ġextraordin aria
ĠAr ro
dl ine
Ġcircu itos
ĠS ES
Ġconf ron
cal cemia
ĠAs istencial
Ġempez ado
Ġocasional mente
ĠQuiz Ã¡s
Ã©p ticas
Ġpresi dencia
Ġes fera
Ġanti hista
Ġch ina
it ana
ĠR on
Ġhemo cultivos
Ã ¯
Ġdo taciÃ³n
Ġsuper an
IN G
ĠCor uÃ±a
Ġsi gan
il ure
Ã©n dice
ĠQ ual
EN AL
ĠHum ano
Ġqu estion
Ġcondi ciona
ca ps
Ġrevis ado
an i
Ġcompren didas
car b
Ġdo i
Ġas us
AB LE
Ġinevi table
ĠtÃ³ pica
Ġfrus traciÃ³n
indo ws
cu er
ĠPh il
Ġ11 6
Ġluc es
Ġamp u
Ġnum er
Ġen amor
ĠvÃ©r tigo
Ġl itro
ĠA um
ĠTi enen
V er
ĠSu iza
ĠÃ© tn
Ġprovo cada
Ġvis tas
ĠÃ©xi tos
Ġperiodon tal
S IDA
tu oso
Ġexig ir
ĠR EP
ĠRES ULTA
Ġpre mis
Ġesta tus
ie go
ĠpÃ¡r pado
f ety
ĠF isi
Ġedi tor
gu da
Ġdise ases
Ġdisli pemia
Ġdeb ÃŃan
Ġfu ga
ĠOrg Ã¡nica
Ġaus cultaciÃ³n
Ġcotidi anas
ĠBlo g
Ġinse guridad
ĠA plic
os Ã³
Ġjus tificar
Ġrepe tidas
cl ar
S ab
v s
Ġatle tas
Ġu rea
Ġau tÃ³
Ġinspec ciÃ³n
Ġresul te
ĠNeutro filos
Ġr icas
Ġendo telial
Ã³rm ula
ĠSal Ã³n
ĠSer Ã¡
15 36
Ġsopor tar
il le
Ġimplic ado
ĠCON TROL
Ġalcohol ismo
ĠCÃ¡ diz
Ġam aman
ĠPR OP
Ġmoder nos
vene cimiento
Ġres ide
Ġneo plÃ¡s
Ġalcal de
Ġest aciones
ĠEste ban
ĠChica go
Ġeffec t
Ġvom itos
Ġre tom
pan ish
Ġdespren de
ĠmacrÃ³ fagos
Ġsal to
Ġalcan zando
Ġmanten ga
C AR
p ig
ĠM ILL
Ġfi el
Ġ11 3
r s
ĠA EC
Ġespon tÃ¡neamente
Ġrecor rer
ĠCien fuegos
Ġsubray ado
Ġpeligros os
ta tivos
pira toria
MS S
p ensa
Ġgeno tipo
Ġautom Ã³vil
Ġinadecu ado
c ampo
Ġmio pÃŃa
ĠMedic amento
Ġalo pecia
mi lar
ĠES TU
P er
ĠmÃŃn imas
Ġsuger encias
r idos
ĠM ama
ĠMil itar
Ã©m ur
ĠC Ã¡r
Ġlocal idades
Ġre tic
Ġej es
Ġbronco dila
Ġga to
ĠGab riel
ta ment
Ġro j
Ġproduc tores
Ġresul taron
Es tados
ec lam
ale tra
Ġreca ÃŃdas
\ ,
Ġo ÃŃdos
ĠAN TICO
Ġmencion adas
Ġpos esiÃ³n
r eros
Ġthe y
Ġdere chas
z ona
Ġocup an
dez co
ĠColom bi
ol ÃŃtico
Ġinvit ados
Ġobserv adas
Ġfabric antes
Ġh un
ĠJ P
Ġcaracter izar
vel a
Ġaspir antes
ĠV in
Ġanticoncep tivo
Ġac h
Ġres tante
Ġofer tas
Ġestric tamente
Ġexten so
Ġdesapar ecen
ĠSue le
t aciÃ³
Ġreno v
Ġneces ito
ĠCh r
ĠsÃ© pti
Ġirrad iaciÃ³n
Ġcump lan
Ġa o
ĠtÃ³x icas
Ã¡s trico
Ġtu bercul
13 0
Ġentren ador
Ġal a
Ġhier bas
ĠRE AL
ona vir
on ucle
Ġrela tions
onef ritis
Ġvincul adas
ĠGEN ERA
lan os
ĠEsta ble
Ġrevel an
Ġcompar te
Ġadministr Ã³
Ġcu entos
Ġoc Ã©
ÃŃn tesis
Ġseman ales
Ġmer curio
ĠANTICO AGUL
ĠMe dico
Ġag ro
ĠCambi o
10 3
Ġron da
Ġcatara ta
UL P
Ġdetermin aciones
Ġconces iÃ³n
ĠE ur
Ġnorm alizaciÃ³n
por ina
Ġ Ã±
Ġd ure
Ġul timo
tos o
Ġas al
ĠConse jos
Ġsu pl
ac he
ĠPas cual
Ġpos tural
ĠCon ven
ola to
Ġdiges tivos
ĠReci bido
ĠcoÃ¡g ulos
Ġpeo ple
Ã ¢
Ġcent rar
Ġsin us
Ġmo co
Ġaver iguar
Ġfin alizado
h on
ĠRo che
Ġacum ulada
ph il
ic ÃŃlico
ĠA se
Ġcefal eas
om ic
Ġcon ges
Ġperif Ã©ricas
Ġlevel s
tu ri
Ġadeno carcinoma
Ġprovis ional
Ġ19 58
Ġ12 3
Ġintrao cular
Ġapare cido
Ġap ell
Ġj ap
Ġmejor Ã³
Ġc Ã©
ĠHemo din
Ġhal o
per io
Ġinmue bles
C as
Ġa mio
trib u
Ġdetal la
Ġinstrum ental
Ġmonitor izar
Ġro le
fer ente
ĠHÃ¡bi tos
ĠNie to
ĠV A
ĠAl ianza
ĠM ON
ĠdÃ© ficits
ĠAgus tÃŃn
UL AS
Ġsil ic
Ġfran ces
co cos
gr Ã©s
ar mac
lo ba
bl an
Ã¡ ticamente
ĠDe tecciÃ³n
iv ir
car se
ĠW ol
Ġul tima
ĠDol ores
d ora
Ã©r vix
ĠLic enciado
Ġad yuvante
ĠS CA
ĠR P
Ġfrag mento
d ones
ĠS ie
Ġserv ido
U T
sa bilidad
Ġre ingres
Ġhemb ra
oci aciÃ³n
par esia
ĠVal dÃ©s
Ġqued aron
Ġadministra tivos
p rin
Ġdiscu tir
Ġcercan as
ĠGuadal ajara
Ġli br
ari ales
RA M
ĠGre cia
ĠhuÃ©s ped
F IS
ĠProvin cia
ud ar
u ps
aj us
Ġcuadr ado
Ġcos tumbre
Ġbrus ca
f ÃŃ
Ġopera tivo
us k
Ġun irse
Ġa ero
ĠcÃ³mo da
ho ut
ĠCOMP OSI
ĠT G
Ġatmos f
Ġmicroorgan ismo
ĠNEUM ON
Ġsepar ados
Ġabo ut
Ġtener se
al quil
Ġprevent ion
Ġtes ticular
t Ã©n
Ġide ales
ĠLac tante
Ġautom Ã¡tica
Ġhall Ã³
Ġlan z
or cio
Ġâī ¤
Ġs aci
Ġfisi olÃ³gicas
Ġent rÃ³
ific ada
dnis olona
ĠHallaz gos
it ada
ĠcatÃ¡ logo
Ġdi Ã³xido
Ġaprob ados
Ġfle x
Ġvis ite
ĠcutÃ¡n eos
RA Z
Ġexisti endo
Ġtraum Ã¡tica
ĠABD OM
ĠPlata forma
ĠSan itas
al la
Ġtraslad ar
Ġpreten den
Ġdisor ders
ĠCo operaciÃ³n
Ġapr ueba
ĠSa tur
Ġopi Ã¡ceos
Ġn eb
Ġrandom ized
Ġzapa tos
Ãĳ A
ĠUn os
ĠB acteri
Ġde a
ĠAn im
Ġestu viera
Ġespu to
s ec
Ġp Ã©ptido
ĠAr t
ĠJor di
ĠDOL OR
Ġfer til
Ġpresu puestos
Ġsuges tivo
Ġm ante
ĠP H
Ġep ÃŃ
mar t
Ġb icarbonato
Ġon co
per ci
ue vas
Ġque jas
IS T
aci miento
Ġprotec tores
h ua
Ġneona tos
ĠM F
ĠOB JE
ĠD iciembre
ĠC Ã©lulas
Ġusu almente
Ġenvas es
ĠMall orca
Ġbi omÃ©dica
Ġprofes sional
Ġpuber tad
Ġpalpe bral
Ġplante amiento
Ġfoc ales
Ġh arÃŃa
Ġclas s
Ġre ple
Ġapo p
Ã©nd ole
tÃ¡n eos
ĠalÃ©rg ico
incl uyendo
Ġc raneales
CA A
Ġli p
Ġdi vis
Ġcons isten
ĠCS IC
om b
th y
ĠestÃ© ril
D AD
Ġpolim orf
ĠCam agÃ¼ey
Ġreflex iones
j Ã³n
Ã¡s ticas
Ġcar ecen
Ġaisl amientos
ĠL ea
OS O
teÃŃn a
Ġagres iva
Ġreform as
enci ados
Ġretino patÃŃa
Ġingres Ã³
Ġaclar amiento
ĠJe an
ĠM ID
Ġperci be
terior o
Ġges tores
Ġexclus ivo
Ġejecu tivo
ĠCr Ã³nica
Ġas um
cl or
ĠtelÃ© fonos
Ġconcep tual
par as
Ġdi ficil
ĠInstitu t
ĠEl sevier
Ġalquil er
Ġmate mÃ¡ticas
Ġdefin iciones
a ta
ul an
Ġtrop icales
Ġna tal
E mb
Ġtradicional mente
ĠmÃ³d ulos
Ġali ento
Ã³g enas
Ġinde termin
Ġocul ta
Ġtit ulares
Ġmanif estar
Ġvec tor
ve mos
Ġflu or
ĠvÃ¡l vulas
ocito penia
ari edad
Ġinv itado
Ġespe jo
ĠV amos
Ġdeci den
ar don
odg kin
16 0
Ġirreg ulares
Ġinterfer ir
Ġprepar ada
ĠdÃ© ci
u f
gu ida
Ġdecl ara
Ġsul f
Ġorigin an
Ã± e
yec tos
om y
rel aciÃ³n
M on
ec os
su re
Ġdesgr acia
Ġtrans cripciÃ³n
ĠVar gas
Ġesc amos
Ġdismin u
Ġcuan tÃŃa
Ġsecre taria
ĠDe presiÃ³n
Ġpapel es
Ġescuch ado
ĠCul tural
ĠMara Ã±Ã³n
Ġex puesta
ven osa
Ġcristal ino
Ġsu man
Ġad yacente
ril l
Ġdev olver
Ã ¤
Ġcombus tible
ĠMon itor
Ġpo esÃŃa
Ġepigas trio
Ġestudi an
cion ario
b ulo
y cho
Ġprovin cial
ĠMe dline
ĠlÃ¡ mina
Ġas istido
ĠempÃŃr ico
Ġdescub rieron
Ġmicrobio ta
Ã³n icamente
ĠEn con
Ġdolor osos
a ur
Ġcan cel
direc tor
Ġcontrar res
iv ar
Ġman uales
and ra
Ġmen ing
Ġol igo
g amiento
Ġfacil itando
ĠCef al
Ġgu iar
ĠChar les
Ã¡ zar
Ġ12 6
Ġagr ÃŃcolas
perit oneal
ĠM AL
Ġsex to
ĠvÃŃ rica
ĠfÃŃs icamente
ist Ã¡n
ĠR ol
ĠK e
ĠN EGA
Ġradi aciones
am arca
Ã³d ulo
Ġl Ã³bulos
ĠMe thod
d x
ĠL SD
ĠDe mo
ĠEj emp
ĠPar to
Ġejer cen
Ġtra gar
Ġcolabor adora
ĠK ing
ten a
par te
Ġf ama
Ġvo tos
Ġbas ura
Ġreco pil
bier ta
ul inas
ĠQu i
Ġonc olÃ³gica
Ġorg ul
Ġf Ã©mur
Ġins cri
ĠT M
Ġinfec tions
Ġapar tados
Ġint entan
ĠCÃ¡ tedra
UR L
ĠRes ulta
Ġconci ertos
Ġparenquimatos a
Ġn acen
ĠacompaÃ± ados
Ġp io
iz as
ĠDi pu
Ġâ Ĩ
Ġe go
esi onal
Ġutiliz amos
ĠbritÃ¡n ico
Ġenemi gos
Ã¡ce a
d ur
ĠPal mas
n ormal
ĠH P
ĠQuir Ãºrg
Ġespecta cular
Ġtab Ã¡qu
EL L
Ġavis o
Ġne ed
Ġasoci arse
glic er
ĠHb A
Ã© tera
Ġlimi tados
Ġal as
ĠcrÃ©di to
Ġdeber ÃŃamos
depen dencia
Ġpol ar
Ġperman encia
tar y
Ġrecord Ã³
ĠC ell
tr aci
Ġsac ro
Ġsub venciones
Ġflu ores
Ġdespi erta
Ġdis ten
estes ias
Ġe gres
Ġk ilo
Ġdesarrollar Ã¡
li que
Ġcerebro vasculares
Ġanaliz ando
ur in
ĠGu ÃŃas
Ġmari huana
fer ol
Ġsol v
Ġproduc tivo
Ġintens os
U I
EM P
Ġcontro lan
ĠA socia
ĠAc ceso
Ġmuer e
eclam psia
ĠCom en
Ġgen Ã³mica
ĠEs truc
Ġmil los
ĠL ID
ill y
Ġmam ografÃŃa
Ġsurg ery
iladel phia
pi de
Ġfal so
ĠH acer
b ack
val o
Ġsi entes
ĠA H
Ġhemodin am
Ġmodific ada
ĠCoordin aciÃ³n
Ġfeder al
ĠïĤ ·
Ġex cus
Ġile g
liz umab
ĠInmun ologÃŃa
Ġexitos a
N H
ĠNicol Ã¡s
ĠS UM
Ġreemp laz
or mo
ĠCoordin ador
Ã©rg ica
Ġenve j
Ġci tados
ES A
F I
p ical
lam aciÃ³n
Ġnave gaciÃ³n
Ġexpe diente
ues to
ĠR ED
m ul
it mos
Ġdetec tados
Ġdiet Ã©tica
Ġpau tada
Ġvulner able
ĠF recu
Ġtu bos
Ġrecuer dan
xa to
Ġempez ando
Ġata xia
Ġneutro penia
Ġasigna turas
ĠNutri tion
Ġrespec tivos
J o
ĠEl los
tan zas
Ġconec tar
Ġinterven idos
Ġor ejas
Ġpi den
es clerosis
Ġvas culitis
Ġpor ciones
Ġmeas ure
Ġcas ual
Ġfortal eza
ĠFarmacÃ©u tica
ĠO tor
Ġactu alizado
Ġrecu b
Ġloc alizaciones
Ġvene zol
Ġconcl uyen
Ġrequis ito
Ġg li
QU IER
Ġguar da
se t
Ġir se
Ġurban as
ĠCam pos
Ġdirec ciones
Ġgan glio
Ġca Ã±a
Ġ17 0
P acient
ĠNeuro cirugÃŃa
especi almente
Ġb r
Ġfal los
Ġdes pl
Ġana tomo
ĠI de
ĠPo der
Ġdeb idas
Ġremi tido
Ġcumpl ido
as on
Ġbar ra
Ġresiden cias
Ġtermin ales
ĠE c
Ġpsicomo tor
Ġdu plic
Ġlevan tarse
Ġb ÃŃ
Ãºlti ma
Ġanas tom
ĠD U
Ġextra Ã±os
ĠR O
Ġoportun a
Ġalmo h
Ġrepor taron
ĠdÃ©bil es
Ġper icÃ¡rdico
Ġll or
h ab
Ġpro puestos
Ġre af
ter m
tr Ã¡n
ĠG ru
Ġcuidados amente
Ġadquir idos
Ġ11 8
ĠpÃ³li pos
ĠSec und
Ġman dar
Ġajus tes
Ġrepro ducir
Ġsuple ment
ne ga
Ġjur ado
ĠPUE DE
trans fer
Ġintim idad
j arse
ĠPro gram
Ġcorrespon der
Ġgus tan
us h
Ġdedic an
ogÃ©n esis
Ġa tÃ³pica
cas o
ĠTex as
ĠE va
Ġma quilla
Ġde cor
gu Ã©
Ġcomp one
ticuer pos
tan to
Ġins iste
ĠE gi
Ġetc Ã©tera
he d
ĠS ent
Ġpas aron
Ġreserv orio
Ġpar ado
ĠAl bert
Ġconjun tivitis
Ġsum amente
ĠR itmo
ĠF IS
bi t
Ġne umon
ĠPal ia
Ġsatur aciones
Ġestan cias
idal go
Ġexud ados
Ġc ens
Ġinvas ivos
ĠG es
ĠJ R
Ġfron teras
ĠvÃ¡l ida
Ġsal ga
Ġcur vas
Ġse gre
Ġver gÃ¼enza
Ġu ma
ĠRes puesta
Ġlig ada
Ġcualita tivo
2 123
ĠIN CL
Ġdirig iÃ³
Ġesta bilizaciÃ³n
ĠPR EV
ĠDepen dencia
ĠFeb rero
ĠP iel
ĠT ol
Ġpes ca
ĠDis trito
uel va
Ġhue co
ĠMEN OS
Ġsil ves
men da
Ġper tur
AD OR
Ġasegur arse
Ġdur as
Ġbas ed
Ġvan guardia
Ġcompar Ã³
bas ed
ĠAcudir Ã¡
ec tomia
ĠA ta
Ġautom Ã¡tico
Ġpas ados
19 98
Ġsin dic
ĠTras plante
ĠBro wn
Ġeviden ce
ci ano
ĠT IC
ĠMinis tro
Ġn ursing
ĠEn g
Ġdis trito
vi ta
Ġencontr Ã¡ndose
Ġs tu
ĠHer ida
ĠF Ã©
Ã ¬
Ġinnov ador
ĠApro ximadamente
Ġins truc
diz aciÃ³n
Ġdes gar
Ġcoci n
ĠPsych ology
ĠDismin uciÃ³n
Ġvi entre
ĠFer rer
Ġrecomend ados
Ġacces ibles
Ġtrabaj amos
Ġintrodu cido
ĠMari ano
ĠFED ER
Ġneur Ã³logo
ar tria
Ġcomple tos
pe des
ĠPh iladelphia
ĠSÃŃn tomas
ĠSe min
mon s
mic ro
Ġmeta anÃ¡lisis
Ġagr ÃŃcola
ĠcÃ¡r cel
ĠT es
Ġay uno
var tis
Ġalcoh Ã³lica
ĠP om
tin os
ren ales
Ġtesti monio
Ġelas ticidad
Ġfisio patologÃŃa
Ġm Ã³r
Ġre quieran
ĠEsta tu
Ġofici almente
ĠL egal
Ġdis tor
Ġclor uro
pra mida
ĠSA HS
Ġpostopera toria
ti ra
ĠO S
ĠCons iste
ĠCom posiciÃ³n
Ġpau tado
Ġregistr ar
Ġcor e
Ġlib era
na ire
ĠAn ual
Ã© imer
Ġacu dieron
Ġmad rugada
Ġdefin iÃ³
ĠenseÃ± anzas
ĠCM V
ĠAndalu za
Ġpros pecto
Ġdedic adas
Ġllu via
b ares
ĠS IG
com p
ell er
qui as
Ġfal sa
ĠMy co
k el
ĠsanguÃŃn eas
Ġsospech ar
Ġcomien zos
ĠAr tritis
Ġpaque tes
ĠInfec ciosas
ud ina
Ġdef iende
Ã± ones
Ġtoma te
prof loxacino
Ġgrad iente
fib ro
Ġcontes tar
zh Ã©imer
ĠC EL
Ġad mir
ĠT OD
ĠAN AL
erop uerto
ĠbioquÃŃ micos
ĠperiÃ³ dicas
i Ã¡n
Ġk e
Ġital iano
ĠAgr icultura
Ġlogr aron
ĠG or
Ġ12 7
Ġges to
ĠÃīs te
Ġinform Ã¡ticos
Ġgluc os
ĠB ach
C OM
K g
Ġin da
ĠpÃ¡r ra
Ġin tac
Ġfan tÃ¡s
ĠDER EC
ĠRealiz amos
Ġcrist ales
T u
Ġhab Ã©is
ĠG in
Ġelec toral
Ġgu ard
Ġinclu ÃŃa
Ġclas ifica
Ġacos tarse
Ġ19 77
ten o
ver de
bacteri um
Ġde pre
is ter
IN F
Ġsegur as
cis mo
ĠAden o
B D
Ġf ito
Ġcol ap
Ġth ose
Ġhema tomas
Ġdesencaden ante
it antes
Ġpla zos
se lo
Ġtend ones
Ġpol imer
Ġsens acion
Ġri ego
ola teral
Ġdismin uyÃ³
Ġmiel oma
Ġte tra
ĠNor mo
ĠS R
Ġde bi
Ġmie lo
Ġelectro magn
Ġt here
ĠSu pre
ĠCh o
Ġlan zar
P AS
Ġaudio vis
Ġdesigual dad
s mo
Ġuro cultivo
mÃ¡ ticamente
Ġindividu alizada
Ġcoordin ada
fisi ologÃŃa
Ġpo eta
Ġcopa go
H TA
I E
Americ an
ari lo
tisfac ciÃ³n
olo til
Ġajus tado
Ġtraslad Ã³
Ġdemostr ada
Ġdescubri mientos
Ġbloque ar
Ġpl us
TRA CT
Ġnegoci aciÃ³n
Ġincons ciente
u di
ĠD osis
hi te
Ġven cer
Ġtermome trada
Ġden un
dis ta
pue de
Ġinquie tudes
Ġk now
Ġpredic tores
ĠMi ra
Ġe yac
ĠR as
Ġpa tas
Ġso b
Ġblan da
Ġalcan z
Ġexpres Ã³
ĠmÃ¡r genes
Ġci tologÃŃa
ab dominal
Ġanun cio
ĠestratÃ© gico
Ġfamos a
Ġ12 1
ĠW indows
Ġencefal opatÃŃa
toc lo
Ġliber ar
ac ha
Ġtransform ar
Ġdes orden
ĠCar cinoma
Ġfisioterapeu tas
Ġcoci nar
ĠANTICOAGUL ANTES
Ġhos pe
Ġinter viene
Ġmar rÃ³n
Ġhospit alizaciones
ĠQu iero
tin es
ida e
Ġcortis ol
Ġpose er
N T
Ġgig ante
Ġrecog idas
Ġre ma
Ġoc cipital
ĠgrÃ¡ fico
ci Ã©ndose
Ġpo quito
Ġajus tada
ĠPers iste
led ge
VID AD
Ġac Ãºs
on io
el li
Ġultravi oleta
Ġanal y
CION AL
Ġabor tos
ĠSN G
ĠUnivers al
Ġse para
A CI
por que
Ġgol pes
po t
ĠWilli ams
ĠempÃŃr ica
Ġi b
gl uciÃ³n
Ġtransmis ibles
Ġfund ada
o ur
Ġc lo
Ġcomun itarios
Ġocur ra
ĠÃº rico
Ġ12 2
Ġevalu ation
Ġbacter iemia
Ġinclus ive
Ġ12 9
Ġdej aron
Ġjugue tes
de re
ĠÃģlvar o
Ġhipo x
ĠGre en
Ġilumin aciÃ³n
Ġcon tenciÃ³n
ĠLu gar
Ġhort alizas
iv ing
Ġinvestig ando
ĠMe t
Ġbo tÃ³n
ĠFlor ida
Ġcomprome te
ER C
ĠStre ptococcus
Ġconcentr ado
Ġmonta Ã±as
rinolaring ologÃŃa
ĠTum ores
Ġpresent adas
Ġgluc Ã©mico
ar emos
Ġpublic an
lo g
tÃ¡n d
Ġinnov adoras
Ġpref ieren
cin g
Ġdiagnostic aron
Ġpol if
ĠquirÃºrg icamente
Ġavent ura
s is
ĠCar re
Ġrecu pera
Ġre quiera
Ġhe matÃŃes
Ġavan zando
Ġterri ble
un os
Ġan f
ĠV ig
ĠPrecis amente
ic ulo
ĠPo blaciÃ³n
b urg
ĠG Ã©n
Ġrecambi o
ĠCan al
Ġtens iones
l lo
Ġch ico
Ġcompro misos
Ġcubier tas
F YC
Ġdi vor
Ġpre di
Ġaplic adas
Ġtrop ical
Ġvec tores
Ġforma tiva
Ġsocial ista
ĠCon cretamente
par o
Ġimp i
ĠCam pus
su b
g ol
AM IENTO
ĠQuiz Ã¡
Ġatrib uye
ĠL ara
ĠM II
vi ra
ĠSer ÃŃa
C al
Ġpis cina
Ġbo dy
Ġorg ullo
dar d
Ġincrement an
uter ino
ĠG S
Ġpos traum
Ġespi ro
ĠPer fil
ĠH ULP
ĠCo un
Ġejecu tar
Ġconserv adora
ĠIz quier
Ġprotagon ismo
Ġverdadera mente
Ġbrad icardia
Ġex ti
Ġmar ch
Ġinform aron
ĠUni ted
uel en
Ġconside ro
tron omÃŃa
ĠS he
Ġimpues to
ĠM IC
Ġfo und
Ġpro visiÃ³n
Ġex acto
Ġpar ciales
ĠT rump
Ġma tric
ĠUnivers idades
ĠDE N
ĠgrÃ¡ fica
Ġimpor tar
ĠAndalu z
ĠantibiÃ³ tica
Ġconec tado
Ġingre diente
Ġbenig no
Ġplas mÃ¡ticos
Ġsuf riendo
Ġ12 4
Ġencontr adas
trop ina
TERA PIA
Ġcu en
toclo pramida
ĠCompos tela
Ġen vÃŃa
Ġgal ardon
ĠAnd re
Ġoper ado
Ġex istÃŃan
Ġenerg Ã©tica
ri me
il as
Ġpermitir ÃŃa
Ġmanda to
ne as
Ġrepor ta
Ġpic adura
Ã³s ter
Ġrefer ida
ec tasias
Ġvari adas
Ã¡nd oles
l amos
ĠPrevent iva
Ġanos mia
Ġpreopera torio
Ġbi omÃ©
Ġpersonal idades
ĠMas ter
Ġdegenera tiva
Ġapar ezcan
ward s
Ġpl omo
ĠP AD
Ġcre cido
ĠN ar
ĠO C
Ġmar gin
i anas
us ieron
Ġcontrib u
Ã©r mica
ĠFib ro
Ġm ech
le a
Ġtransf orma
Ġpreocup ante
K G
Ġimag inar
ĠB aja
ĠLe uc
Ġv uestros
10 6
Ġdibu jos
Ġpon entes
dis pon
ĠB las
Ġpr endas
Ġmec Ã¡nicas
Ġga tos
Ġabsor b
Ġt rea
era peu
Ġcin cuenta
Ġah i
irÃ¡ mi
N D
Ġcu ota
Ġab dom
ĠHos p
uls ivo
Ġhipo acusia
IZ ACIÃĵN
Ġalim entar
Ġdescu bre
Ġderiv aciones
Ġevalu ada
Ãĳ OS
Ġprolon gar
Ġperina tal
Ġmos quito
Ġcolap so
tor nos
ĠðŁ ĺ
Ġpreco ces
Ġcomprome tido
ĠL ife
Ġproduc tor
Ġdescri biÃ³
ĠA EP
uel ta
ch em
Ġz an
ĠCur s
Ġoblig ados
Ġrefle jos
Ġpon emos
Ġrequer ida
Ġj efes
Ġdedic Ã³
TIC OS
Ġde mor
Ġexcl uir
Ġh Ã©ro
Ġd ucha
Ġprofesor ado
ĠRodri go
Ġta pon
Ġhon go
ĠCab allero
Ġdefin idas
fila xis
ĠR AM
Ġsub es
Ġconse gui
tiz ados
Ġneuro muscular
un do
Ġviv iÃ³
esti ona
Ġcono zco
ĠA TP
tan ce
FICI ENCIA
Ġflan co
ĠSe ptiembre
ĠDes car
Ġba u
2 50
cre di
ĠFamil iares
ĠdesempeÃ± ar
Ġenci clo
Ġcorre la
Ġgluc ocortico
g lu
AP S
Ġmonta je
on t
ĠAl rededor
esi on
S al
Ġdiagnostic an
Ġinv al
Ġqu iso
tre xato
Ġdin Ã¡mico
Ġnota bles
Ġdese en
TER IOR
O s
Ġcuan tificar
Ġci t
tri es
il lan
gra f
ĠCol e
ĠDS M
IS IS
ĠEupne ica
Ġpre dom
Ġpe d
Ġcompens ar
tiaz ida
Ġfinanci ar
Ġemis iones
Ġpreli minares
may or
Ġpat olÃ³gicas
Ġdirec tores
Ġdesarrol le
Ġn Ã£o
ol fo
Ġar dor
Ġbe havi
Ġse ll
Ġconduc en
Ġad yacentes
Ġ% ),
Ġgan ador
Ġrepar ar
Ġfund Ã³
ten cias
Ġfin alizaciÃ³n
ĠCate dr
ĠAns iedad
Ġhemato poy
Ġes car
Ġbenefici ar
ĠsimÃ© trica
Ġimprescindi bles
ĠT y
ĠÃŃn dole
tri p
Ġhuel ga
Ġpor tadora
isti endo
ĠaÃ© reo
ĠXV II
ĠJ ane
Ġpredominante mente
ĠS Ã£o
Ġg arra
ĠRad i
m ec
Ġhabi taciones
Ġapendi citis
ĠVir gin
er es
Ġs era
Ġprotec tora
of t
Ġdur ant
ug inosa
** **
ar quÃŃa
Ġso ber
Ġpal iar
Ġheredi tario
ĠClar o
ocitos is
Ġacent u
Ġhe m
Ġes encialmente
Ġver rugas
ista g
ĠTRA S
ĠNo vartis
ĠAgra de
Ġcurios idad
Ġintra opera
Ġaliment icio
Ġdesapar ecido
ĠI Z
Ġcer rados
ĠRec ons
Ġagres ivos
inf orm
Ġapren de
Ġrelacion arse
Ġofre ciÃ³
Ġsuges tiva
m cg
ĠNor th
Ġevidenci an
Ġre versible
ron utri
Ġsuce der
... ,
Ġacu dido
Ġol ig
Ġtrad iciones
lo gy
ĠEnfer mera
tr ante
ĠIn dependiente
Ġobes ity
ĠÃļl tima
000 1
ÃŃcl ico
TI TU
Ġesper aba
dific aciÃ³n
Ġfavor eciendo
Ġfor zada
tens a
Ġlar vas
Ġcuar enta
ĠH UM
e mas
Ġsens oriales
Ġla tidos
Ġac lara
ĠHu bo
ĠBl ack
Ãº e
ĠW C
Ġcuadr ados
15 1
Ġenfise ma
vers a
Ġmin or
Ġhip onatremia
ĠF ID
b ÃŃ
Ġpl Ã¡
ri tus
ĠPro ceso
Ġcoloc ado
Î ²
Ġque ja
Ġcolon izaciÃ³n
Ġf ores
Ġgus taria
Ġval iosa
ĠAus cultaciÃ³n
G AN
ĠCar rera
lÃŃn ico
ĠH ierro
Ġhemorr Ã¡gico
Ġcu ras
Ġdes tre
âĢĵ ,
Ġredon de
Ġpref iere
Ġs tress
ĠI RC
olog ic
Ġvincul aciÃ³n
Ġcardi Ã³logo
Ġfinanci eros
Ġcercan ÃŃa
Ġendometri osis
di era
ĠE EG
li tis
ĠGo bern
ÃŃ fica
c ente
Ġbene fi
g ente
esof Ã¡gico
17 58
Ġen com
Ġs core
omedi cina
f loxacino
ien se
ĠL ucÃŃa
ĠT im
14 6
ĠB lando
Ġahor rar
Ġimagin aciÃ³n
ĠC RE
Ġino cu
r arse
ĠTera pÃ©u
om ida
ĠH OS
ven ido
br ados
Ġap las
ĠA vis
gun as
quirÃºrg ica
ul oso
Ġe osino
Ġconf iar
ĠestratÃ© gica
ul tados
Ġaum ente
Ġsindica tos
Ġte mÃ¡ticas
Ġam ÃŃg
Ġdel incu
Ġ19 50
Ġcontrac ciones
Ġdemocr acia
Ġde biÃ³
nes ia
Ġconfiden cialidad
Ġfundam entos
crip ciones
ĠBea triz
Ġoftalm ologÃŃa
EN TOS
ĠEspecial idades
ĠC es
Ġpro biÃ³ticos
ĠIm mun
ĠABS TRACT
Ġhab le
Ġhep Ã¡ticos
ĠM V
ĠX a
Ġcal entamiento
Ġban cos
ĠMa tanzas
Ġrelig iosas
Ġd ona
Ġmen Ãº
Ġinca paz
Ġaudi encia
Ġprolong ados
ro mo
Ġmal nutriciÃ³n
Ġl anza
ec om
Ġredon da
unda tion
ĠTu berculosis
f ina
Ġp Ã¡
re al
CO O
Ġre ino
ĠA INE
Ġpro mes
il y
ĠEs tom
Ġglu ta
Ġex pos
ĠValde cilla
t to
id an
Ġsent ÃŃa
ĠPod cast
el in
Ġ14 4
UE L
Ġdem encias
. ?
TO P
Ġginec ologÃŃa
Ġconven iencia
is tics
ĠN UE
ĠM Ã©ndez
Ġespec tÃ¡culo
Ġconjun tival
tu be
Ġrepar to
Ġperci bida
Ġevit arse
ĠsÃ³ dico
Ġempez aron
ĠMunicip io
Ġreconoci Ã³
ĠMar k
Ġent era
ĠRepres ent
enci o
ĠEn gl
Ġintelig entes
Ġmedi ada
IV A
Ġcontra tar
Ã³ cra
Ġdermat Ã³logo
ĠMedel lÃŃn
S EM
Ġseleccion aron
estruc tur
Ġcon ti
publ ic
Ġemi tir
Ġse di
Ġor bi
Ġn ula
ĠN um
Ġvalor able
Ġbar ri
m bre
PI TAL
Ġox idaciÃ³n
Ġperiton ismo
gu as
Ġve ÃŃa
Ġsymp tom
Ġagu an
Ġapas ion
Ġsociodemo grÃ¡ficas
Ġpro vienen
on y
Ġcontrib uyendo
Ã¡s trica
la zar
Ġextraordin ario
Ġinform ada
Ġvari ados
Ġmac ho
Ġinteres adas
ĠT reatment
Ġago tamiento
C AM
Ġeviden ciÃ³
Ġinterfer Ã³n
Ġmo des
mas car
ĠG las
Ġder matologÃŃa
Ġcomple tas
Ġcre ador
Ġconten gan
Ġateros clerosis
ĠpronÃ³s ticos
Ġin cÃ³mo
Ġan ex
Ġfa una
Ġcomprome ter
ĠGra m
ht m
Ġconvir tiÃ©ndose
En fer
Ġse cas
Ġde gluciÃ³n
ĠCu atro
Ġinde fin
ĠCh am
Ġdescom pens
Ġcalci ficaciÃ³n
Ġpar ches
f umador
Ġtu tores
Ġcarb Ã³n
Ġclasific ados
Ġp ica
p ales
ran go
Ġconvers aciones
Ġlis to
Ġp Ã³l
Ġpresent arÃ¡
ĠpÃ©lv ica
Ġdismin uida
SI ON
Ġpeligros a
tin e
Ġelec tricidad
Ġmaquilla je
Ã¡ cido
ĠSig lo
o us
Ġdes tina
Ġenten dido
... ),
Ġto po
ĠCog ni
ĠT ru
Ġmedi taciÃ³n
Ġsindica to
an ina
di vers
ĠE J
til l
ĠsobreaÃ±ad idos
uy o
ĠMon tero
ĠME TO
ĠðŁ Ļ
Ġalve olar
f s
Ġome prazol
Ġcap tura
Ġc ese
Ġsoci almente
nes to
Ġpr Ã©s
n ico
Ġvoc ales
Ġp ilar
min ales
Ġdisfru te
f ÃŃn
ĠS co
ĠSi endo
bo x
Ġhipo gluc
ti as
l x
Ġconoc ÃŃa
e cieron
Ã©l gica
Ġub ica
Ġtum oraciÃ³n
Ġrepres entado
Ġemerg entes
a gr
Ġo pon
ĠB ru
ine al
ĠC AB
ĠH AB
Ġprevis tas
Ġsuple mentaciÃ³n
Ġsatur adas
B ER
id Ã³n
Ġrar amente
Ã¨n cies
Ġhig her
Ġcru zada
Ġemple adas
Ġextra celular
ol ÃŃticos
Ġab riÃ³
Ġimp u
Ġllan to
Ġesque leto
Ġlar inge
Ġsu ch
ĠOcho a
ĠCon clus
Ġlinf omas
ĠON CE
ĠOrden aciÃ³n
Ġdig it
Ã³ tidos
Ġmonitor eo
Ġsup uso
Ġfor os
Ġcuri oso
? "
aj ada
ĠCal der
Ġeti olÃ³gico
Ġindi cios
Ġpar ezca
Ġinmun izaciÃ³n
Ġginec olÃ³gica
Ġmo to
Ġpelo ta
Ġmanifes tarse
TIC AS
Ġl iso
ĠEgi pto
ĠDi plom
ĠIn terior
aj aja
Ġvincul ada
Ã¡c til
ĠL I
ĠH ill
Ġci ones
ĠInici almente
Ġas citis
l uen
cer es
ĠPre vention
Ġcumpli endo
Ġcla u
Ġp ista
Ġrec re
Ġintens ivo
ĠD IR
Ġhemisfer io
ĠB Ã¡sica
Ġbo x
ill ado
C V
ĠÃ© bola
ĠS pi
iz er
Ġsal va
Ġfer ritina
Ġcorticos teroides
me t
ci osa
ĠanestÃ©s ico
Ġmete or
ĠMan if
Ġsuce dido
Ġverda deros
Ġpobl adores
Ġmoles ta
Ġcon torno
Ãį AS
ĠS ir
ĠG E
Ġalter ado
Ġmun diales
Ġley enda
Ġyog ur
ĠCal vo
Ġprevis tos
rig ht
VI H
Ġa mo
Ġafirm aciÃ³n
Ã³s idos
ri e
Ġhidro xi
Ġappro ach
D el
Ġo clus
Ġalea toria
apro pi
Ġbronco espasmo
Ġat ento
Ġtermin an
form es
ver n
Ã³ j
Ġbuco dental
re f
se x
ĠMedi das
ĠJu ventud
Ġman guito
? :
â ī
Ġpon encias
dar ona
ĠX II
Ġcontr ala
ti gar
Ġneur onales
Ġheter ogeneidad
Ġari lo
Ġintelec tuales
Ġdiur Ã©tico
Ġerrad icaciÃ³n
Ġrefi riendo
Ġcron icidad
Ġme dalla
ĠSel ecciÃ³n
Ġno dular
Ġfo od
Ġcol ch
po fol
Ġhar ina
Ġs Ã©ptico
gu ido
ĠO per
Ġt amb
Ã¡ce as
Ġinjer tos
Ġexpor taciÃ³n
Ġc res
pl oma
Ġpol y
Ġcampe Ã³n
Ġhabl Ã³
Ġsi entan
Ġfil osÃ³
Ġinnov aciones
Ġimpuls ado
ĠEs pin
15 7
Ġindu cido
ĠProb able
Ġf osfato
Ã¡s icos
ĠB at
Ġpon encia
, '
Ġadvir tiÃ³
Ġap res
Ġcompar aciones
ĠCon oci
Ġyug ular
T V
in to
di Ã©ndose
Ġblo ques
Ġhabi a
Ġjue z
Ġexhaus tiva
ĠAc ta
ico bacter
c Ã©n
ca t
Ġth ree
on ÃŃa
ÃŃn ea
Ãį S
Ġetique tado
IB LE
ĠRec on
Ġanun cios
Ġag ran
os ter
di ll
Ġin al
f ied
h ÃŃa
ch ado
Ġcuchar ada
ĠW at
Ġdej en
ĠAdi cionalmente
IC AM
ĠC ADA
Ġmalign idad
Ġdud osa
ĠÃŃn tima
Ġsuger ir
Ġconduc tores
Ġfunc tion
d t
mer ia
Ġac ud
Ġev itan
ĠProtoc olo
ĠV era
ĠSer ie
Ġins ta
ges tas
ue ga
Ġs Ãº
Ġsolid aria
Ġnervios ismo
qu Ã©s
Ġdesarroll en
Ġenfa tiz
oxa parina
ĠS ÃįN
Ġemp i
Ġelabor ados
ĠMir anda
Ġmon os
tric ciÃ³n
Ġasi mil
ĠActu alizaciÃ³n
onces to
Ġre baj
Ġinv ad
ĠB E
menopÃ¡us icas
Ġa ga
Ġfac tura
Ġpre gn
19 97
Ġantirretrovir al
Ġa vena
pla tino
Ġnoci vos
Ġab uela
Ġparticip ando
Ġtra umatologÃŃa
Ġafec tos
Ġpas tilla
Ġrit mos
tra mos
ĠProb ablemente
der ly
Ġcolon ia
ĠdesempeÃ± an
Ġrevis a
ac ta
ul ador
ĠN H
Ġinfec tado
ĠClÃŃn icos
U FICIENCIA
ĠInf orma
Ġcoleg iados
ĠConf lic
ĠDes arrol
Ġol v
ĠNue vas
Ã³ p
Ġsub tipos
Ġcamis eta
Ġdis cal
Ġconfirm ada
Ġafec tivo
Ġt orm
ĠSe guir
ĠaÃ© reas
Ġs Ã©ricos
r ones
Ġpl ur
Ġpreserv aciÃ³n
Ġrecu biertos
tÃ³ pico
Ġexig encia
Ġecu aciÃ³n
lic e
D AS
Ġclasific an
pro p
Ġvacun ados
ĠP inar
ĠAs untos
Ġcombin ados
Ġrefer ir
ĠEfec to
ĠS Ã¡
ĠSin trom
Ġpermitir Ã¡n
Ġmedicamentos as
Ġe ficientes
Ġdomin ios
ĠCon ten
ĠPalia tivos
Ġp icos
ĠIntens iva
Ġtradu cir
ĠHon or
Ġres istance
Ġinforma tivo
n to
Ġfo i
Ġapop tosis
15 6
ĠGus tavo
Ġfo bias
ĠNeg ro
ĠT L
Ġinform acion
ris to
Ġaltern ando
ucle ar
Ġsi guieron
Ġn aciones
Ġcardio pulmonar
" ),
Ġd ys
oc y
Ġprovo cÃ³
Ġsepar adas
Ġulcer osa
Ġre ina
Ġcompar ada
Ġlibre mente
Ġme lo
pl antes
Ġro mÃ¡n
Ġotor gado
ĠGuar dia
Ġpreval entes
ur se
val ente
Ġendocr ino
Ġmal tra
Ġtransi torio
Ġfres ca
ĠA com
ĠElec trÃ³n
Ġseleccion adas
Ġv ello
Ġencontr ada
Ġpun tuales
Ġsac erdo
Emb argo
Ġmo di
Ġpi ra
Ġminis terio
ĠT SH
Ġrefer irse
Ġba ile
Ġen ormes
Ġdis tancias
Ġe arly
Ġmitocondri al
ul ness
cardi ograma
ĠE ch
ĠMar g
bloque antes
oci o
Ġtit ulaciÃ³n
Ġexcl uidos
Ġdi es
Ġdiet Ã©ticos
Ġtrascen dencia
IS TRA
didi asis
Ġd adas
nos is
ĠAP L
ĠIg M
Ġempres arios
Ġevolu ciona
Ġsir va
Ġjur is
Ġprolong aciÃ³n
ĠH idalgo
u mp
Ġsolici tan
Ġdex ametasona
ĠTo xic
Ġep igen
ton os
t oles
Ġcent ran
Ġabsor be
Ġgimnas io
Ġo xi
ĠP ier
Ġesta tura
ĠMo tivo
Ġcereb el
D eb
Ġtom en
th al
Ġconoci Ã³
Ġque do
Ġvac a
ĠLabora torios
ĠPres encia
Ġcefal orra
ci tado
iz aron
man as
Ġtor rente
ĠN ada
Ġca udal
Ġfil trado
ï¿½ ï¿½
Ġobliga torio
ĠSeÃ± ora
ĠN F
Ġtrans port
Ġfil tros
Ġco bra
Ġincomple ta
ĠEstra tÃ©
ĠVirgin ia
ag ue
Ġneurodegenera tivas
ist s
ĠFeder ico
Ġinterven ida
ĠDIA GN
Ġplie gues
Ġthro ugh
Ġlig ado
Ġinfraestruc turas
o u
des a
Ġsome tidas
ĠTer cer
ĠMS D
Ġagu jero
Ġso fis
Ġresuel ve
ĠMar y
Ġimplan tado
de fin
ke y
ĠTra tamientos
ĠVe ter
Ġad renalina
ĠRe fer
Ġsir viÃ³
tim amente
U Y
Ãĵ S
ĠE II
ĠOf re
Ġtransmi ten
Ġfec undaciÃ³n
Ġrefle jar
Ġagru paciÃ³n
Ġli f
c aba
i mia
Ġcoci ente
Ġblog s
di acep
tor ales
ĠPu b
Ġrefuer za
ĠAGU DA
Ġdemostr ando
ĠSex ual
ĠA gua
ĠCientÃŃ ficos
os ina
ari Ã¡
Ġir rig
Ġincre as
Ġsuces ivas
ara gua
ĠEr nesto
Ġal ianza
per idona
par tment
Ġgru pal
ĠQT c
Serv icio
e Ã±a
Ġvan comicina
Ġinforma tion
Ġsuav es
Ġacces os
ĠmÃ¡s ter
Ġdis cul
Ġven den
Ġla tente
Ġser ios
tur ados
ĠAu gus
Ġvej ez
qu ent
fic acy
EM OS
ĠmÃ¡ ximos
Ġapoy os
ĠAlcal Ã¡
cer eb
Ã© ter
Ġabs cesos
Ġmetod ologÃŃas
ĠM AD
el ing
Ġvoluntar iado
ti empo
Ġbo th
ĠtÃ³x ica
Ġri f
Ġaten didas
Ġsar co
traque al
ĠPac ÃŃfico
Ġun ida
tos copia
fr ÃŃos
Ġla go
ĠC is
OL ES
Ġmus eo
ĠFo undation
Ġperci ben
Ġmunicip ales
Ġsepar ar
Ġdesencaden antes
Ġllen ado
Ġneces s
ĠTra tado
Ġa eros
ma gem
Ġhe art
trÃ³ leo
Ġtelef Ã³nicamente
g rim
tar lo
ĠLo zano
mi zaciÃ³n
mb er
ICI NA
Ġposicion amiento
ar ch
ĠÃīs ta
Ġaconse jar
cloro tiazida
ĠAl icia
v ina
Ġin a
ĠBra zil
ĠH ues
Ġch u
ev al
Ġcosto fr
Ġpat Ã³geno
Ġexpec tativa
ĠmÃ© xico
Ġmas ajes
ĠCr isis
ci ence
Ã¡ vez
Ġd anza
Ġactu ando
ĠtÃºn el
ĠDe amb
Ġsens ores
Ġaconte cimiento
Ġdef i
Ġba Ã±os
ier os
Ġfal tan
Ġremi tir
ĠCom pro
ĠA ur
ĠHon duras
tar Ã¡n
Ġllev arse
TI ON
Ġci lin
10 9
Ġobserv ando
Ġcoher encia
Ġmon e
%) ;
Ġru tas
ĠF en
ĠT AR
ÃŃgen a
==== ====
ir s
Ġaplic ados
Ġdesa perci
Ġwe ight
ĠtÃŃ picas
erop enem
Ġdetermin e
Ġs chool
Ġ19 61
c ano
Ġo dio
Ġmal formaciÃ³n
ĠDro gas
Ġro bus
cion ados
Ġin apropi
ĠA EMPS
ĠH odgkin
Ġsensi bilizar
guir re
Ġtel es
uel to
um ina
Ġa min
Ġcaus e
ĠZ el
Ġpregun tÃ³
Ġmam ario
Ġaf ro
Ġrefu gi
P s
ĠPR ODUC
ĠMATER IAL
Ġins cribir
Ġdecen as
Ġsensi bil
mp a
ĠB au
Ġsuperviv ientes
Ġneg ras
ta Ã±as
ĠEn tero
Ġle gi
Ġconec tivo
Ã³ meros
ĠautÃ³ c
Ġins tan
Ġresal ta
Ġt ela
ĠAn estes
ĠBar re
ĠcÃ¡n ula
form ance
Ġfamil y
ar le
le u
ĠRe producciÃ³n
Ġdes infec
ĠFar ma
Ġas om
S NS
op ol
ĠRe tir
ĠContinu ar
Ġinfec tada
Ġimpac t
ti us
G C
Ġlu jo
Ġrecomend Ã³
Ġer up
Ġti p
Ġval le
ĠIncl uye
ĠTrin idad
Ġloc alizadas
is io
Ġse destaciÃ³n
Ġcoordin ar
I AR
Ġsuces os
ĠCOMP UES
ĠRies gos
Ġpermi ti
Ġresfri ado
Ġten Ã©is
Ġresid uales
ĠH O
ĠImp lan
ĠK im
Ġhis tori
Ġtur nos
Ġcircula torio
Ġpeligros as
ĠTrad icional
n ivel
far ina
Ġrela tos
Ġmanip ular
Ġfabr icar
b Ã©
Ġsal ario
Ġdo bl
Ġacces orios
ĠCol on
gÃ©n icas
Ġfac tible
i u
Ġadj unta
Ġlin k
ĠP rÃ³tesis
Ġti mp
tra je
Ġsul fato
Ġfin as
ÃŃs imos
Ġcompar tida
Ġadministra tivas
ĠC IV
Ġgrad ualmente
Ġevolucion ado
m enos
ĠS AT
Ġinnov adora
go ci
Ġcan to
Ġinmun itaria
Cu Ã¡n
educ aciÃ³n
ĠFÃ© lix
u idas
ĠMar cha
ĠM ez
ĠIg E
Ġsustan cial
Ġfigur an
w th
ar tan
Ġr Ã©c
ĠBra vo
Ġseleccion ada
ĠC res
Ġvia jeros
ĠovÃ¡r ica
Ġe mite
ĠConven io
Ġdecir le
ĠMon tes
Ġdistrib uidos
Ġextrac tos
ĠPlan ificaciÃ³n
! ,
Ġestu ve
Ġdenomin adas
Ġhemorr Ã¡gica
Ġmoder n
Ġvag inales
v estig
g ologÃŃa
ter ritorial
Ġap Ã³sito
Ġve an
Ġacer camiento
Ġtra cciÃ³n
Ġdis c
ĠOr top
Ġdisf unciones
ĠOl iv
Ġarren damiento
Ġex pensas
Ġ19 74
Ġcre ÃŃa
Ġayud Ã³
z ono
ĠS IM
Ġmonocl onal
Ġanti f
T T
Ġv ina
Ġexperim entaciÃ³n
ĠDer mat
ĠJ E
Ġgra tis
ĠmÃ© ritos
Ġpreval ente
Ġdivi den
Ġo puesto
Ġg ase
Ġcl ic
vers ibles
Ġapar ezca
ĠG C
ĠME J
Ġan ces
Ġayudar le
Ġpobl acionales
Ġtama Ã±os
inas a
ĠAlim entaria
Ġc able
Ġg re
Ġsin cron
Ġco pi
Ġpas aba
ĠPER O
Ġre bo
Ġjubil aciÃ³n
Ġcomple tado
ĠmÃºs icos
Ġcosm Ã©tica
Ġinici aron
Ġras go
ĠEnfer magem
tÃ³n ica
aj or
ĠFac tor
Ġs trateg
Ġf Ãºn
Ġc lopidogrel
Ġalgor itmos
de ri
Ġcine mato
r ue
Ġes can
ĠS ED
ĠPro por
Ġaum entos
mon ella
ho od
u era
Ġenorme mente
ĠvÃ¡l ido
ĠEdi ciÃ³n
Ġcateter ismo
Ġh ia
ec Ã©
Ġcontinu as
Ġdon ar
ĠÃ³r bita
ĠAl ba
Ġautom Ã¡ticamente
ĠAT B
um as
Ġsemej antes
ada p
Ġproteg ida
Ġadap ta
ĠalÃ©rg icos
Ġofici o
Ġinvoluc ra
Ġwh en
ĠÃ¡ ra
mus culares
7 00
Ġdemo grÃ¡ficas
ĠP TH
Ġac Ã¡
Ġsilic ona
ĠTro mb
i po
Ġrazon amiento
Ġma ta
pues tamente
ĠPedia tr
Ġaci dez
Ġinm ensa
ĠRESULTA DOS
Ġsofis tic
Ġau tista
D a
d am
Ã¡ logo
ĠaminoÃ¡ cido
Ġidentific adas
us ter
Ġfundam ento
Ġlan zÃ³
v ales
Ġmoder nas
emb ol
h ol
Ġrelig iosa
Ġcolombi ana
Ġdep ilaciÃ³n
ĠG y
ĠC uen
h ue
ici das
Ġpas ivo
Ġprefer ible
Â® ,
ĠT ORA
Ġrestaur ante
ĠHol guÃŃn
ĠsimÃ© tricos
iz os
Ġsolu ble
Ġll orar
ĠJ aco
rela ted
Ġp Ã©ptidos
pre via
Ġac ero
Ġpon go
Ġcar n
ĠA bra
Ġotor gar
ĠIns trum
ĠMa te
Ġloc alizados
Ġescal eras
ĠSo to
Ġpopular idad
mo ide
Ġintraven oso
uestion ario
Ġu ve
pro tecciÃ³n
Ġentren ar
Ġazul es
ĠÃ³v ulo
ĠInform Ã¡tica
ĠpolÃŃ mero
Ġcos tado
ĠDoc tora
Ġadop tado
u tas
ĠPubl ica
ĠExper iencia
bl ia
Ġense Ã±a
en cy
ĠS panish
ĠPe da
Ġta bi
Ġn utr
ach os
Qu iÃ©n
Ġacab o
Ġindi que
Ġaer uginosa
S on
ĠE VA
ĠP f
EM B
ĠF om
ĠCONCLUS IÃĵN
Ġa tero
ĠA rias
Ġcuer das
Ġacep tables
ĠL IB
Ġap p
Ġfa ilure
ĠfÃ³s iles
ĠIden tificar
Ġtit ulada
ana hor
ĠFer ia
Ġcefalorra quÃŃdeo
ici oso
Ġmer ecen
h isto
Ġcal ib
ER N
Ġcigar rillo
Ġser ologÃŃa
Ġinici arse
ger y
Ġnum ber
Ġmedi do
Ġlengu as
ĠSue Ã±o
Ġgus tos
Ġeti quetas
Ġp ra
Ġus Ã³
Ġrespon dido
Ġma Ã±
Ġinci dentes
m ullo
Ġre mun
ĠA moxicilina
qu ido
ĠSec tor
Ġfarmacocin Ã©tica
Ġan Ã³n
ĠaÃ± aden
Ġcar encias
Ġproce den
Ġintra muscular
Ġampli os
Ġsyste matic
ĠLi bre
Ġpres iden
Ġapoy ado
ĠB rig
Ġhier ba
Ġdeleg aciÃ³n
Univers idad
Ġtra bal
Ġ19 73
Ġesc alo
ve lo
Ġestimul ante
ĠIn fil
Ġdiffer ences
Ġcar tu
Ġpa ga
Ġton el
pre dnisolona
Ġdeci dieron
ĠG old
ĠhÃ¡bi tat
ĠA dap
Ġw it
ĠVacun aciÃ³n
und ante
ĠFE V
Ġma gia
Ġdeba tir
Ġrutin aria
Ġgener alizadas
ĠS igue
Ġviv encias
Ġad quieren
ĠImp erio
Ġacab ado
15 5
ĠAn estesia
Ġenf ri
Ġ- ,
Ġins tante
ĠAcep tado
Ġpes cados
Ġo ÃŃr
tab ina
ICI L
Ġreempla zar
Ġsub e
DR OME
C omo
Ġarteri ales
r ante
Ġfor t
ĠC AD
CS IC
Ġtendr ÃŃan
ĠHemo grama
Ġaban ico
ĠFisi ologÃŃa
i tiva
Ġpr en
Ġpractic an
Ġdiscapaci dades
it ados
ĠI glesias
Ġpes quis
Ġdespren dimiento
ĠlipÃŃ dico
b ene
ĠP AN
ĠmÃ¡ ximas
Ġlle guen
Ġcul min
Ġdis olv
Ġab uelos
rec ciÃ³n
ĠAs tra
ve da
Ġexplic ando
p ing
Ġejemp lar
Ġexante ma
Ġcivil es
ĠMediterrÃ¡n eo
ĠR ece
ul adores
ĠTe orÃŃa
10 7
Ġsitu ados
Ġpol ip
Ġidentific ada
Ġa telec
ĠEn dos
Ġven ÃŃa
ĠX I
Ġ22 5
: '
Ġdesign ado
b aci
ri mos
Ġpais aje
a x
ĠJa Ã©n
Ġl ina
ar tÃ¡n
Ġ24 0
Ġben Ã©
di lla
ĠGu z
ĠPri eto
Ġexpe diciÃ³n
Ġdis tales
Ġcri anza
13 1
Ġbar rios
Ġinsul in
r ida
oci lizumab
Ġvia ble
Ġre tiro
Ġex tras
ĠIn dex
Ġambul ancia
ĠLuc as
tr ona
Ġarri es
Ġneb ul
v Ã©ase
Ġinv enciÃ³n
ĠPres idencia
Ġestira miento
Ġinmun olÃ³gica
Ġcomen zando
ach us
Ġhidro xicloroquina
ĠCorona virus
ĠZ amora
ĠCor tÃ©s
la y
a k
z ante
Ġestr Ã³geno
Ġcolabor ado
Ġbenig nos
Ã¡g icos
Ġgranul oma
Ġpar t
ĠVi go
ĠRespon sable
ĠB U
ĠJ en
er ÃŃas
ĠDesta ca
M L
Ġh echas
Ġmis iones
pas a
ul ario
ĠHig h
ĠreseÃ± ables
olog ico
za pina
mi tte
Ġex hib
Ġmis terio
ĠPR EP
Ġarmon ÃŃa
tiv eness
TRA S
Ġcampe onato
ĠlÃ¡gri mas
c amos
ĠV ers
Ġinstitu cionales
in sa
Ġo ch
i us
ĠTe ma
Ġsam ple
taneo us
Ġtoler ado
Ġcromos Ã³micas
Ġproces ados
ĠLac tato
ay os
Ġprecis ado
ĠRe ferencia
ĠA CO
.. -
ĠVir tual
Ġaplic ables
Ġon ly
Ġemple Ã³
Ġv on
ĠAn derson
Ġlu br
Ġsustitu tivo
Ġin como
Ġbon ito
Ġbenefici arios
ĠM ÃŃn
ĠpsiquiÃ¡ trico
Ġgen Ã©rico
Ġentre gado
ĠAt lÃ¡n
Ġfal sas
D C
Ġprogram ado
ĠBR CA
Ġexpuls iÃ³n
in ea
ĠPROC ED
Ġintegr ados
b uen
Ġcoloc an
F G
ĠK ra
Ġol e
Ġcoron arios
Ġcuan tificaciÃ³n
ĠOcci dental
g ing
Ġguar dias
Ġortop nea
ĠN ursing
Ġsal iv
ĠR EM
ĠNE UR
ĠinespecÃŃ fico
h it
Ġase ver
Ġbols illo
Ġ19 62
ĠExper tos
Ġdeb u
Ġesta tales
Ġtom ada
ĠGonz alo
Ġpreli minar
Ġcump la
ĠcompaÃ± era
S EN
Ġproces s
estig os
Ġrecib ÃŃan
Ġh Ã¡
ĠB oy
Ġangio grafÃŃa
ici da
Ġnovedos o
EN DE
Ġprepar aciones
ĠHol anda
fi anza
Ġneuro pÃ¡tico
ĠPr ÃŃncipe
Ġparox ÃŃstica
Ġdiafrag ma
Ġca deras
Ġabs ur
Ġpes a
ĠG RAN
Ġaden oma
ĠDepen diendo
p enem
Ġvis itado
Ġtecn olÃ³gicas
Ġampli as
Ġdescon ocen
s ive
d olor
c ÃŃtica
ef ore
Ġalterna tivo
ĠDig ital
brid ge
ĠAn dro
Ġpel os
Ġaproxim ada
Ġves ÃŃculas
u an
Ġregis tran
Ġre posiciÃ³n
ĠgrÃ¡ ficos
Ġt ech
Ġpar am
ĠLi mp
ila tes
Ġesca par
Ġin na
ci era
ĠPse ud
ich ia
Ġman d
CI P
! .
Ġcomplement ar
Ġantipsic Ã³ticos
Ġreg ÃŃmenes
Ġtom arÃ¡
ĠA gosto
gres iÃ³n
Ġmol de
Ġalm end
gn a
ĠRe medios
AC O
Ġaf inidad
Ġl echo
Ġocci dentales
Ġvalor ables
Ġinde se
Ġdoctor al
ĠDe terioro
eta mina
ĠSE F
ĠMana gement
11 1
l is
Ġfu ma
Ġur banos
Ġprocedi Ã³
terapÃ©u tico
ĠHern ia
Ġasi metrÃŃa
ĠAmbi ental
pan y
ĠD OS
ĠV idal
Ã©r mico
TI R
Ġre plicaciÃ³n
iv ed
Ġdis artria
Ġdefen dido
ĠH all
Ġerrad icar
ĠMar ÃŃn
ĠDes cribir
Ġa ulas
arc os
ĠA mor
Ġo val
L AS
Ġagra v
Ġinterac tuar
ON AR
Ġdeber es
ĠTur ismo
ĠU GR
ĠInstitu ciones
l lam
Ã¡ til
Ġo ur
Ġgastroenter itis
S o
Ġtin ciÃ³n
Ġdesemp leo
abell Ã³n
Ġespeci fica
Es tamos
Ġindustri as
gan o
Ġdar les
Ġami lo
ĠB ase
Ġmencion ada
ĠSci ences
Ġmo tilidad
Ġhom oci
Ġlimi tan
ĠPro yectos
Ġdar Ã¡n
Ġderro ta
pe ar
Ġcier ra
Ġdivi dido
Ġdibu jo
Ġj ardÃŃn
ĠSen ado
Ġtaquip nea
ĠA plicaciÃ³n
ĠNue vos
Ġencontrar Ã¡s
Ġsobre vida
Ġreci ban
ĠP ic
ritis h
ĠIns pec
Ġsho uld
Ġbotul ÃŃnica
ĠEsper amos
ĠNIH SS
Ġcontrala teral
Ġorigin almente
v ari
no va
Ġubic ados
ĠO ut
Ġmultidiscipl inario
Ġinf rac
ĠCom paÃ±
Ġcin tur
Ġconsidera ba
ad yuvante
Ġa is
Ġrepor tes
ĠRev olucion
ĠH AS
ICA CION
Ġalterna tivos
Ġron cus
Ġmuc osidad
Ġ ud
ĠseÃ± ora
Ġsuges tivas
Ġen cen
Ġhacer nos
ex iÃ³n
Ġtraum Ã¡tico
acea e
g et
EN TAR
ĠÃŃn tegra
Ġca ida
Ġabund ancia
ĠlÃ¡ tex
Ġme la
Ġdemos traciÃ³n
Ġdeleg ado
Ġpic aduras
Ġperiton itis
paci entes
Ġgus te
Ġpres crito
Ġpar cel
Ġgu iada
ĠMay ores
Ġpar estesias
ES S
Ġgu antes
ĠG eron
Ġaprovech amiento
Ġprote gen
ĠN orma
Ġcompra venta
es tad
Ġsol as
Ġhern ias
Ġenfo car
Ġhomeo patÃŃa
Ġad ren
di litis
Ġest om
Ġprotoc ol
ĠfarmacÃ©u ticamente
Ġdeba tes
Ġdes ple
Ġpa tria
Ġcont un
j amos
ĠCom plicaciones
Ã¡m icos
ta mo
ĠL eo
Ġdes lus
ce do
pira torio
Ġefectu Ã³
ĠUR G
ĠCON TIEN
ĠC CAA
Ġcas eros
Ġf ul
Ġno tado
ĠCh Ã¡vez
11 4
cer v
Ġro cas
Ġdis oluciÃ³n
o fo
ĠCas as
ĠPas tor
Ġceb olla
Ġ- --
ĠCor ea
Ġdes liz
co ag
cent r
Ġreac cionar
ĠEL A
Ġfirm ar
ĠT her
Ġ19 68
Ġpe trÃ³leo
Ġfir mas
Ġsemil la
Ġuter ina
it ch
ĠB ran
Ġr ent
Ġanastom osis
da te
Ġsuf ra
Ġdor s
Ġart ÃŃstico
Ġca ÃŃdo
ĠBio Ã©tica
ĠAr turo
ĠLac tancia
il able
Ġmes o
Ġesc ro
Ġvig entes
Ġalmacen ar
Ġocul to
Ġvina gre
Ġrevis aron
Ġco difica
Ġprop Ã³sitos
Ġnec ro
os por
ĠB Ã©lgica
ICI O
ĠC ES
Ġexces ivamente
Ġmaravil loso
ĠJ U
Ġcarcin omas
Ġestric ta
Ġpers igue
ĠSer ra
Ġch ino
vil le
omÃ© trico
iz adores
Ġpu p
OL A
ĠrÃŃt mica
Ġcompet entes
U TR
ca v
+ .
Ġmicro gramos
ĠOR IG
Ġindirec tos
ĠContac to
Ġqu is
ĠF UR
he x
ĠSi tio
ĠfÃ¡ brica
Ġde vas
Ġhil os
ĠhomogÃ©n ea
ĠCon ocimiento
m all
ur ar
Ġdo tar
Ġirrad ia
GEN CIAS
Ġofre cido
Ġpost grado
Ġelabor ada
Ġad or
ĠanÃ¡ logos
ĠAc osta
Ġprecis os
Ġconec ta
p ad
Ġâ ĸ
es table
Ġper didos
ĠR he
Ġlipo proteÃŃnas
Ġadap tados
b able
n ell
ill erato
Ġauton Ã³mico
Ġbre ves
Ġ- >
ĠF umador
ĠJ r
Ġexten dida
ĠO ne
ĠPa th
Ġcardi orres
Ġjus ta
Ġpromue ven
ĠON U
Ġh erv
ĠF ol
Ġca z
Ġnaci mientos
tÃ³n ico
Ġinstaur aciÃ³n
ĠR ÃŃos
19 95
Ġleg almente
Ġsegu idas
ĠP AL
Ġcru z
Ġtempor adas
Ġru tinas
Ġdis p
Ġcapit Ã¡n
Ġdue Ã±o
ĠLi tera
b ara
ĠB ir
Ġmi den
Ġfin o
ti g
do pa
Ġplan tillas
g ren
n el
Ġcl on
Ġpol Ã©mica
Ġelectro do
Ġepid Ã©mico
Ġa que
Ġperio pera
Ġ ill
lo y
ĠtrÃ¡ mites
Ġavi ones
Ġprecur sor
ĠPos ee
al b
ĠD ren
IER E
ĠGar cia
ĠA Z
Ġglucocortico ides
Ġv enci
ĠINS UFICIENCIA
ĠF inal
Ġapor tado
Ġhay as
EP A
ĠS ens
Ġz anahor
18 0
Ġtrans aminas
Ġqui ta
Ġenerg ÃŃas
Ġpermi tieron
Ġv ÃŃs
ĠAl cohol
adr ado
ĠV Ã©ase
Ġol vido
Ġarg entino
Ġmusculo esquel
ĠAl merÃŃa
ĠAb or
Ġ2 20
r pm
Ġ2 14
Ġentusias mo
tic es
mor e
ĠApar te
Ġurg entes
ĠA jus
Ġindic adas
ĠEl imin
ifica tion
erra t
ĠÃļl timo
go gÃŃa
Ġdi ger
olog ica
Ġins trucciÃ³n
CO V
Ġsi tÃºan
Ġbien venida
M ED
tu osa
aria ble
Ġcontrol led
ĠG ue
Ġtu vieran
Ġactiv an
Ġcal ambres
quirÃºrg ico
B O
Ġpare cida
Ġs tra
Ġto xic
Ġdocum entado
Ġlimp i
ĠOl ÃŃmp
Ġoscur as
Ġcertific ados
u z
Ġinter consulta
Ġro t
ĠImp uesto
Ġtom adas
ĠGer iatrÃŃa
ord ina
Ġefectu ado
Ġac ro
Ġcont enta
ĠCI E
hemo globina
Ġov ulaciÃ³n
Ġconjun tos
R NA
w or
ĠRo jo
ĠplÃ¡s ticos
an dos
tan ea
ĠÃ Ĺ
Ġconjun tiva
k al
s ent
Ġpro hibiciÃ³n
Ġes mal
ĠE QU
ap pa
ĠL ocal
ĠInstitu ciÃ³n
ĠBen ito
vent ilaciÃ³n
Ġfran ca
is iones
Ġtesti monios
ĠL im
com un
Ġdel a
Ġaf asia
U PO
Ġadolescent s
d all
Ġti ros
Ġpre eclampsia
rolÃ³g ico
Ġconsum ido
tid ina
divers idad
ĠLe w
Ġpublic aron
tu ber
ve ment
del l
ins t
ĠHOS PITAL
ĠFil osofÃŃa
ĠIn c
ĠCom por
adr Ã³n
Ġinvis ible
Ġn istag
Ġintoxic aciones
Ġdel ir
Ġc usto
mis sion
Ġrespon diÃ³
UN D
Ġmejor amiento
cÃ³ picas
Ġrefi riÃ³
Ãł s
Ġregistr ada
ĠCam paÃ±a
ĠEC V
Ġus adas
c amente
ĠRE VIS
ĠcongÃ©n ito
Ġla tÃŃn
ĠM UC
ĠF J
Ġape go
Ġinci de
ĠVer de
Ġe mail
Ġad misiÃ³n
Ġcompu tadora
E O
ĠW est
ĠP UL
Ġenten dimiento
ĠS ul
Ġro edores
Ġpul gar
ĠInter territorial
ĠG aran
n c
ĠT NF
Ġcono zca
Ġban dera
Ġinci piente
Ġdeci mos
Ġs t
ĠCu anto
tÃŃcul a
Ġexpres amente
Ġterres tre
Ġsol itario
Ġanormal idades
ĠCu idado
Ġus ual
ĠW HO
Ġtele fon
Ġwit hout
u ga
Ġdin am
Ġas pira
Ġincu baciÃ³n
ĠPat olÃ³gica
Ġsos tener
Ġdiscre to
Ġs is
as i
Ġbrus co
ĠH ORA
ĠAz ul
um adora
Ġmeto trexato
con azol
Ġcal Ã³rico
Ġir is
ĠCastel lÃ³n
ĠR ENAL
ĠBer lÃŃn
ĠH am
Ġindic aron
Ġbio ps
Ġdistrib uir
ĠQuer emos
Ġatravi esa
ĠHel icobacter
pi demia
Ġlle ven
ci ts
Ġpro min
ac ruz
Ġb ec
Ġad min
Ġpoder oso
Ġhacer me
ĠTum or
Ġcor o
ĠS ISTE
bun ales
Ġauto con
ĠResi dencia
n on
TE L
Ġmus los
Ġproxim idad
Ġsegment aria
Ġagon istas
los os
Ġco oper
Ġper u
Ġinter rup
ĠE van
Ġno tificado
Ġile gal
ĠT echn
Ġsolid ario
ĠPaÃŃs es
Ġinvi ta
ĠCuen ca
Ġm y
Ġdese ados
Ġjun tas
Ġasi ento
Ġdistin gue
E H
di tis
ĠPres u
Ġcuan tific
Ġbur bu
Ġque hacer
ĠConsul te
b ismo
er ciÃ³n
Ġresul tando
Ġnum ero
Ġases orÃŃa
Ġvie jos
OLU CIÃĵN
ĠCons erv
H is
cl ÃŃnica
ĠDomin icana
cher ichia
Ġpa gos
Ġmi er
Ã¡c ticos
par tÃŃculas
Ġdel itos
ĠdiseÃ± Ã³
Ġapare ciendo
Ġincom pa
Ġcenten ar
Ġalco xi
Ġserv irÃ¡
Ġpregun to
N OS
Ġson daje
d te
Ġes torn
m Ã³
Ġtromb ocitopenia
Ġ19 72
Ġreac tantes
Ġver Ã¡
Ġcontrib uciones
D oc
Ġlo como
cons ul
Ġconvoca torias
Ġresuel ta
Ġadquir idas
12 6
Ġanun cia
ĠObr ador
Ġabord an
ĠAus encia
ĠrÃ¡p idas
Ġbuc ales
alim entaciÃ³n
ĠO cu
Ġcontrac tilidad
Ġal titud
Ġcompro baciÃ³n
on eo
ĠF EC
Ġintrodu jo
O PS
un e
ĠIV A
Ġm ud
Ġacep tada
tras plante
Ġasign ados
ĠD IF
Ġab ren
Ġcalcul ado
ox etina
ÃŃcl icos
tifi cia
Ġcor rig
Ã¡ Ã±ez
Ġdes o
Ġg all
ĠU p
Ġmejor e
ĠNe ur
ĠMO TIVO
Ġromp e
ĠDA I
Ġsurg ido
ĠLon don
Ġestu do
ORA CIÃĵN
Ġeval Ãºan
Ġob viamente
Ġdenomin an
Ġhidra tada
Ġval idado
ĠV IS
Ġexig en
omÃ© trica
Ġcica tri
ĠG M
Ġnue ces
fic ada
Ġw o
ĠAcu erdo
ĠCardio patÃŃa
a fec
Ġapro bar
ĠMass achus
gan da
Ġestre pto
ĠUTIL IZ
um entos
ĠEn alapril
4 50
Ã³ bal
Ġmezcl ar
ĠCalder Ã³n
Ġelec trones
Ġcuanti tativa
Ã³r denes
Ġregres Ã³
Ġse mb
Ġtrabaj adora
Ġintra celular
estim ulaciÃ³n
Ġtr is
Ġpade cido
ĠhÃŃdr ica
Ġent ienden
Ġhipo xia
Ġjus tificaciÃ³n
z er
cord ing
ĠN ormal
Ġdescan s
Ġje je
Ġexci taciÃ³n
Ġincorpor Ã³
Ġlipos ucciÃ³n
Ġpal ma
ĠanestÃ©s icos
bi tis
Ġayudar nos
Ġduoden al
ogrÃ¡ ficas
C r
Ġllev ados
Ġrespec tivas
Ġpropens as
Ġest Ã©s
Ġpre cedentes
Ġoper ados
Ġp irÃ¡mi
Ġra te
Ġecos istemas
prin cip
Ġger men
Ġcell s
Ġplur alidad
Ġdef unciones
Ġacum ular
ĠMej orÃŃa
ĠR NA
Ġhid rÃ³
ĠCon tr
ĠWil son
Ġcatar ral
Ġme tan
oro este
Ġanti bacteri
Ġencontr ando
Ãį T
ĠIN GR
Ġocurr encia
Ġre gar
Ġmad ura
Ġsup port
GRAF ÃįA
Ġal zhÃ©imer
ariÃ¡ trica
ĠPal acios
ap ren
diacep inas
Ġrum bo
cion ante
jec tive
Ġan ular
Ġcap tar
ĠIC P
Ġtrasplan tados
ĠC OS
Ġcal mar
Ġimpar tir
ĠInter pre
en era
ĠA Ã±ad
ĠG PC
ĠEspeci alizada
ĠCic lo
z y
cl as
Ġhom olog
Ġpas eo
Ġregular idad
Ġenv ol
ol onas
res e
Ġau ge
19 96
menta tion
Ġplu ma
Ġevalu adas
Ġpare ciÃ³
ĠHi jo
Ġabsor ber
Ġtransf usiones
ĠINFEC CIÃĵN
Ġs ch
ĠCon venciÃ³n
Ġcereb ros
Ġinci dir
Ġinde mn
ĠFarmac ologÃŃa
Ġrealiz aba
Ġi ps
Ġri val
ĠJ ones
Ġsuce diÃ³
Ġdeform idades
Ġcoun tries
Ġmens uales
Ġconmem ora
Ġdes ier
ĠMemor ia
Ġsymptom s
en co
Ġrevel ado
t za
Ġimpor taciÃ³n
Ġmon tar
Ġapare cieron
Ġpreserv ativo
Ġdescen dencia
Ġautor izados
ĠCorrespon dencia
Ġpromo tor
ĠP Ã©rdida
Ġexhaus tivo
ĠH T
Ġtes tÃŃculo
ĠSecund aria
ĠO F
Ġher e
Ġvalor an
Ġgan ando
ĠFar inge
Ġdex ketoprofeno
Ġlaparos copia
Ġp esti
Ġafec te
ĠImpres iona
m id
Ġre tr
ĠN C
Ġrestaur ar
ĠG om
Ġincrement ando
Ġestimul an
Ġmela tonina
G arcÃŃa
Ġen marca
ĠP N
Ġobs esivo
Ġel derly
ĠE KG
Ġnervi osos
Ġhipo cond
Ġelimin an
Ġantagon ista
in k
Ġtrac tament
Ġno via
pro BNP
Ġag lu
ĠP F
ĠPa pa
y en
Ġcompos itor
ĠPues to
Ġbiom ec
S er
Ġper ian
Ġcur san
Ġevent ualmente
x ie
Ġactiv ado
Ġcardi Ã³logos
IL IDAD
ĠEspecial istas
Ġc aciÃ³n
Ġal re
ĠPe ar
Ġestable ciendo
Ġmostra ba
Ġreper fusiÃ³n
Ġcre es
Ġgener ados
Ġdestac ada
Ġfas cin
Ġf usion
Ġnar co
Ġcomprob Ã³
Ã ĥ
Ġmens aj
ĠParticip aciÃ³n
Ġmezcl as
ĠPRO TE
Ġacu osa
v ech
Ġins istido
Ġevolu cionar
Ġmetod olÃ³gica
ĠC B
Ġal gas
Ġprost Ã¡tica
Ġt ari
Ġbar ro
ĠSus ana
Ġam en
e us
ĠM am
ay as
ĠCa ixa
ĠO pin
path y
ad renalina
aci co
Ġpro la
Ġus aron
ĠO H
Ġexitos o
Ġp te
ĠAc ci
ĠPREP ARA
Ġinmunosupres ores
Ġconserv adas
efec tividad
ĠDeb en
id urÃŃa
Ġconviv en
ĠCin co
ci dades
Ġsu puestamente
z or
ec f
Ġdes h
ĠD OM
ĠAL TA
S EC
Ã² cits
Ġ8 50
Ġsu ya
Ġdo tado
Ġver lo
Ġadministr ados
Ġmarc ados
ti gma
Ġmon tÃ³n
Ġhumil de
ĠGru pos
D ES
Ġfia bles
Ġque den
Ġpes ados
ĠLe v
Ġbloque adores
ĠO MC
ĠSin dica
Ġta pa
Ġvalor ados
Ġcharacter istics
Ġpal idez
sÃŃn drome
ir os
ĠSil via
Ġinconven iente
Ġ19 57
ĠPa in
Ġreac tivo
s ter
Ġcar io
Ġciru gia
Ġreum Ã¡tica
G r
mo to
Ġres ume
Ġ( ...)
ID AS
Ġdeci dimos
Ġfar inge
Ġges tos
Ġgro ups
on d
Ġalter an
Ġevalu a
Ġrecuper ado
ĠD iar
ĠNic aragua
e mi
t ta
Ġre dis
Ġinci dence
Ġrela ta
Ġsup rimir
reg ulaciÃ³n
cep t
Ġ15 00
Ġsist Ã³lico
ĠAdul tos
Ġsintom at
ar ma
Ġrespon dieron
pl ant
TI VIDAD
Con trol
ĠPa tr
AC A
on se
ĠES C
Ġdirig entes
ta ke
ad io
ĠIn tra
Ġor ofar
ĠCas os
ĠhÃºme do
Ġpredom ina
id ol
Ġenfer mas
ĠCom p
t ch
Ġque mar
ĠT ron
Ġpers istentes
Ġequival entes
B arcelona
ÃŃ e
he im
ĠCOM UN
Ġdecl ive
ĠhÃŃ br
ĠA ri
Ġreum Ã¡ticas
ĠEn er
g ras
Ġinterpers onales
Ġciudad ana
ĠOR INA
ĠNo v
Ġfuncion ando
Ġbar co
Ġtes tÃŃculos
ĠFin anci
df ulness
Ġrepor tÃ³
Ġantivir ales
Ġgem elos
anal ysis
ĠI ECA
o cu
Ġinflu encias
Ġcabal los
Ġc Ã©rvix
ĠN u
ĠTit ular
Ġvegeta tivo
ĠGastroenter ologÃŃa
Ġampu taciÃ³n
ĠN adie
Ġinf rar
Ġse dimento
EP OC
r Ã¡s
ĠVita mina
Ġasesina to
Ġf osas
Ġvig encia
enter io
Ġpreju icios
Ġescalo frÃŃos
ma b
P F
j ol
ĠM iller
Ġsuf rieron
ĠCor reo
id ro
ĠC asta
Ġhal lan
Ġedi tores
Ġesf or
Ġconseguir lo
AS T
Ġorient adas
Ġp y
ber os
Ġpla yas
ĠAu xil
S AL
v uls
F ran
Ġdeslus trado
ĠMicros oft
ĠN Y
oler ancia
es tern
Ġas imÃ©
ĠV es
Ġcl ÃŃ
Ġrecom pensa
Ġs arcoma
Ġpon gan
Ġtri dimensional
Ġcualita tivas
Ġconges tiva
Ġreac tivos
Ġgrues a
HD L
Ġdesenca dena
Ġcons istiÃ³
we ver
Ġfamos os
p ula
Ġd ual
ĠD im
ĠðŁĻ Ĥ
ĠE osino
ĠClin ic
Ġman tuvieron
Ġalcan zaron
ĠCereb ral
ĠN AD
Ġtra queo
TA DO
ĠEs pec
Ġdiet Ã©tico
ul in
Ġvir ul
Ġmoder adas
Ġcomun itarias
Ġfollow ing
ĠL ong
Ġcri men
ĠCal ci
Ġdrug s
Ġl una
Ġnosocom ial
Ġev a
Ġdur os
Ġconstr uyÃ³
Ġestimul antes
Ġreconoci das
Ġbrin d
T en
il io
ti que
Ġb rillo
Sin Embargo
ĠHIP ER
idad a
Ġpres tan
Ġcompos iciones
t ÃŃan
14 1
Ġenvi Ã³
Ġlitera ture
Ġcu bierto
Ġof ens
Ġfil Ã³s
P lus
Ġdeman d
ĠPon tificia
Ġtra madol
yn dall
Ġacetil sal
Ġflu o
Ġin cid
Ġdesplaz amientos
Ġdiver tic
Ġaf fec
Ġconven cer
ĠT H
ĠY A
Ġreclam aciones
ĠA credi
Ġneumo tÃ³rax
b ec
11 5
i fera
ĠHu go
prim idos
m end
ÃįT ULO
Ġob vio
ga t
Ġselec tivos
Ġqued arÃ¡
man tes
Ġrobo t
Ġc aj
el amente
tia pina
am aciÃ³n
19 2
Ġch ile
Ġestable cieron
rig in
Ġpercep ciones
ĠGuz mÃ¡n
Ġin tran
Ġtal Ã³n
Ġesof Ã¡gica
ĠH as
Ġorient ados
e cidos
Ġrelig ioso
Ġen glob
ĠCrist Ã³bal
C or
ĠP LA
Ġpol io
ĠrÃŃt micos
Ġdetermin aron
Ġbenefici osa
Ġti bial
ĠK i
ĠOrto doncia
ur ses
Ġdeb idos
ĠNeona tologÃŃa
ĠBel Ã©n
Ġpar ac
Ġvesti do
Ġculp able
ĠEspin osa
Ġfin aliza
Ġafec tiva
Ġconten ida
Ġmir ando
tiv ely
Ġir Ã¡n
Ġempres ario
Ġbronqui olitis
ĠlÃŃqu idas
ĠDer iv
ĠIg A
Ġcontraindic aciÃ³n
uer do
Ġincorpor arse
Ġpropon emos
if eno
ĠJo ven
Ġduer me
la gos
y an
cu Ã¡l
tus iÃ³n
ĠI sa
tiro x
aliz ador
ar tic
Ġb one
Ġgrave mente
ur ado
fici encias
Ġat enta
Ġpri mo
ab ra
12 2
Ġconfirm ados
rit mias
Ġma pas
Ġhemo filia
mitte e
Ġexpe dientes
Ġquer idos
ĠImp acto
Ġdele ciÃ³n
Ġequ ivo
Ġcerem onia
Ġcompens aciÃ³n
ĠW ork
AS E
Ġine qu
Ġregistr adas
Ġinmigr ante
Ġis ola
Ġpon drÃ¡
Ġexp uso
ĠcongÃ©n itos
ĠVol umen
Ġproges terona
des arrollo
ĠRe view
Ġm ero
Ġle tal
Ġide aciÃ³n
n iciÃ³n
tÃ¡l amo
Ġdi rÃŃa
Ġcer do
Ġperci bido
Ġdiri gen
ĠMarg arita
ur go
ĠT ay
og ar
n ec
di to
Ġ19 71
pres idente
Ġatrib uir
D ia
ĠG rad
Ġ19 67
Ãºr pura
ĠRub Ã©n
ĠCon oce
Ã³ pata
ĠH acia
dor as
Ġran gos
ĠA K
ĠS cale
Ġcom munity
Ġtiro ideas
if orme
Ġobserv Ã¡ndose
Ġantiinflama torio
ĠGu ad
Ġautos Ã³mica
Ġsin Ã³nimo
ll us
Ġy ear
Ġci li
Ġprefer iblemente
ĠT CO
Ġgangli onar
ĠINF ORMA
ĠGENERA L
Ġe min
ĠCol l
Ġignor ancia
Ġinci den
ti t
Ġsin trom
Ġvacun ar
Ġpara vertebral
ĠAs sessment
Ġperman eciÃ³
Ġdemo grÃ¡ficos
Ġcorro bor
TI M
Ġretir ado
Ġbom bas
Ġreconoci mientos
Ġnorte americano
Ġgener ada
Ġmejor en
Ġinten ciones
ĠGR UPO
Ġevolu tiva
G I
Ġb ach
Ġmi diÃ³
ĠD ific
Ġ% ).
Ġdis puesta
Ġle e
Ġtal lo
tas e
âĢ ¢
ĠMa xilofacial
evalu aciÃ³n
ĠPa ula
Ġendo telio
f ru
Ġges tante
Ġrepresent ando
Ġris a
ĠCÃ¡ ceres
con oci
ĠJul iÃ¡n
Ġorg Ã¡nicas
Ġsum ado
Ġc le
in ares
Ġform ular
Ġbor ra
Ġreun ido
Ġcuanti tativas
ÃŃn ico
ĠMon ts
ĠEstudi antes
Ġocup Ã³
ada jo
Ġizquier das
ĠM B
ĠT ERA
aur icular
ĠglÃº teos
Ġcorrespon da
Ġba tal
ĠSEG UN
Ġtrami taciÃ³n
Ġans ioso
Ġt estigos
ĠM Ã³nica
Ġti rar
Ġcontac ta
Ġocup ado
ĠPedia trics
Ġavis a
Ġban c
ĠMur phy
ent adas
Ã© lite
ĠA ir
ĠPER SON
Ġcoli rio
va ilable
ĠAlter aciÃ³n
di ci
ler ÃŃa
Ġconcili ar
[...]
