{"<s>":0,"<pad>":1,"</s>":2,"<unk>":3,"!":4,"\"":5,"#":6,"$":7,"%":8,"&":9,"'":10,"(":11,")":12,"*":13,"+":14,",":15,"-":16,".":17,"/":18,"0":19,"1":20,"2":21,"3":22,"4":23,"5":24,"6":25,"7":26,"8":27,"9":28,":":29,";":30,"<":31,"=":32,">":33,"?":34,"@":35,"A":36,"B":37,"C":38,"D":39,"E":40,"F":41,"G":42,"H":43,"I":44,"J":45,"K":46,"L":47,"M":48,"N":49,"O":50,"P":51,"Q":52,"R":53,"S":54,"T":55,"U":56,"V":57,"W":58,"X":59,"Y":60,"Z":61,"[":62,"\\":63,"]":64,"^":65,"_":66,"`":67,"a":68,"b":69,"c":70,"d":71,"e":72,"f":73,"g":74,"h":75,"i":76,"j":77,"k":78,"l":79,"m":80,"n":81,"o":82,"p":83,"q":84,"r":85,"s":86,"t":87,"u":88,"v":89,"w":90,"x":91,"y":92,"z":93,"{":94,"|":95,"}":96,"~":97,"¡":98,"¢":99,"£":100,"¤":101,"¥":102,"¦":103,"§":104,"¨":105,"©":106,"ª":107,"«":108,"¬":109,"®":110,"¯":111,"°":112,"±":113,"²":114,"³":115,"´":116,"µ":117,"¶":118,"·":119,"¸":120,"¹":121,"º":122,"»":123,"¼":124,"½":125,"¾":126,"¿":127,"À":128,"Á":129,"Â":130,"Ã":131,"Ä":132,"Å":133,"Æ":134,"Ç":135,"È":136,"É":137,"Ê":138,"Ë":139,"Ì":140,"Í":141,"Î":142,"Ï":143,"Ð":144,"Ñ":145,"Ò":146,"Ó":147,"Ô":148,"Õ":149,"Ö":150,"×":151,"Ø":152,"Ù":153,"Ú":154,"Û":155,"Ü":156,"Ý":157,"Þ":158,"ß":159,"à":160,"á":161,"â":162,"ã":163,"ä":164,"å":165,"æ":166,"ç":167,"è":168,"é":169,"ê":170,"ë":171,"ì":172,"í":173,"î":174,"ï":175,"ð":176,"ñ":177,"ò":178,"ó":179,"ô":180,"õ":181,"ö":182,"÷":183,"ø":184,"ù":185,"ú":186,"û":187,"ü":188,"ý":189,"þ":190,"ÿ":191,"Ā":192,"ā":193,"Ă":194,"ă":195,"Ą":196,"ą":197,"Ć":198,"ć":199,"Ĉ":200,"ĉ":201,"Ċ":202,"ċ":203,"Č":204,"č":205,"Ď":206,"ď":207,"Đ":208,"đ":209,"Ē":210,"ē":211,"Ĕ":212,"ĕ":213,"Ė":214,"ė":215,"Ę":216,"ę":217,"Ě":218,"ě":219,"Ĝ":220,"ĝ":221,"Ğ":222,"ğ":223,"Ġ":224,"ġ":225,"Ģ":226,"ģ":227,"Ĥ":228,"ĥ":229,"Ħ":230,"ħ":231,"Ĩ":232,"ĩ":233,"Ī":234,"ī":235,"Ĭ":236,"ĭ":237,"Į":238,"į":239,"İ":240,"ı":241,"Ĳ":242,"ĳ":243,"Ĵ":244,"ĵ":245,"Ķ":246,"ķ":247,"ĸ":248,"Ĺ":249,"ĺ":250,"Ļ":251,"ļ":252,"Ľ":253,"ľ":254,"Ŀ":255,"ŀ":256,"Ł":257,"ł":258,"Ń":259,"de":260,"en":261,"Ġde":262,"es":263,"os":264,"Ġl":265,"ci":266,"Ġp":267,"Ġc":268,"Ġa":269,"er":270,"on":271,"ar":272,"as":273,"Ġs":274,"or":275,"al":276,"Ġe":277,"Ã³":278,"an":279,"ad":280,"in":281,"Ġm":282,"ent":283,"Ġla":284,"ue":285,"ti":286,"re":287,"Ġen":288,"un":289,"Ġy":290,"Ã³n":291,"di":292,"que":293,"Ġt":294,"aci":295,"Ġes":296,"Ġel":297,"ÃŃ":298,"Ġcon":299,"Ġque":300,"ro":301,"ic":302,"Ã¡":303,"om":304,"Ġn":305,"Ġh":306,"ta":307,"Ġun":308,"ra":309,"is":310,"id":311,"te":312,"Ġse":313,"Ġf":314,"Ġin":315,"ol":316,"ĠE":317,"Ġlos":318,"Ġo":319,"aciÃ³n":320,"Ã©":321,"Ġre":322,"Ġv":323,"ec":324,"to":325,"am":326,"ul":327,"do":328,"ĠC":329,"res":330,"Ġdel":331,"Ġpar":332,"ri":333,"ĠA":334,"ĠS":335,"ente":336,"Ġal":337,"ado":338,"Ġsu":339,"Ġcom":340,"Ġd":341,"Ġdi":342,"ĠP":343,"Ġpor":344,"ter":345,"le":346,"Ġlas":347,"tu":348,"ĠL":349,"Ġ(":350,"Ġg":351,"bi":352,"Ġpro":353,"ÃŃa":354,"mi":355,"tr":356,"ac":357,"Ã±":358,"ciÃ³n":359,"ĠM":360,"Ġpara":361,"Ġ1":362,"Ġuna":363,"tic":364,"ia":365,"tiv":366,"ones":367,"mp":368,"ento":369,"us":370,"Ġb":371,"ma":372,"Ġno":373,"iz":374,"tos":375,"ĠD":376,"idad":377,"cia":378,"qu":379,"ab":380,"ada":381,"Ġper":382,"Ġme":383,"io":384,"lo":385,"Ã¡s":386,"Ġcu":387,"Ġ2":388,"ica":389,"Ġan":390,"Ġdes":391,"uc":392,"il":393,"ales":394,"tor":395,"Ãº":396,"ur":397,"da":398,"Ġsi":399,"Ġac":400,"it":401,"Ġex":402,"ĠT":403,"el":404,"ten":405,"ĠR":406,"Ġtra":407,"Ġi":408,"mo":409,"ici":410,"ados":411,"entes":412,"la":413,"ĠI":414,"fer":415,"Ġcomo":416,"den":417,"Ġest":418,"ĠN":419,"ir":420,"go":421,"um":422,"tes":423,"Ġlo":424,"Ġres":425,"ante":426,"Ġha":427,"ĠH":428,"dad":429,"gu":430,"00":431,"iv":432,"tro":433,"era":434,"ĠF":435,"me":436,"Ġti":437,"ĠEs":438,"ÃŃn":439,"ico":440,"ĠmÃ¡s":441,"se":442,"co":443,"des":444,"iÃ³n":445,"Ã¡n":446,"oci":447,"miento":448,"po":449,"ues":450,"ida":451,"ĠEn":452,"ando":453,"bre":454,"ĠLa":455,"ĠB":456,"per":457,"Ġcomp":458,"ce":459,"cid":460,"ĠU":461,"Ġto":462,"Ġpre":463,"Ġci":464,"ĠG":465,"tra":466,"encia":467,"mos":468,"orm":469,"ĠEl":470,"ran":471,"ido":472,"cu":473,"Ġas":474,"Ġcons":475,"aliz":476,"ina":477,"aciones":478,"aj":479,"bl":480,"Ġ\"":481,"ca":482,"Ġpaci":483,"Ġpue":484,"Ġser":485,"tas":486,"Ġpo":487,"qui":488,"mente":489,"Ġent":490,"Ġ-":491,"og":492,"tar":493,"ras":494,"Ġdis":495,"ble":496,"pa":497,")(":498,"ch":499,"Ġma":500,"Ġinf":501,"ores":502,"pe":503,"Ġmedi":504,"Ġap":505,"Ġpres":506,"Ġ3":507,"ĠĊ":508,"ari":509,"ud":510,"Ġesta":511,"min":512,"ig":513,"ĠV":514,"onal":515,"ĠaÃ±":516,"cul":517,"ru":518,"Ã©n":519,"Ġso":520,"Ġca":521,"Ġob":522,"fic":523,"ĠO":524,"Ġmu":525,"Ġsin":526,"Ġcar":527,"ambi":528,"Ġpr":529,"Ġimp":530,").":531,"duc":532,"vi":533,"tudi":534,"dos":535,"Ġpa":536,"cl":537,"mb":538,"ene":539,"emp":540,"Ġr":541,"im":542,"entos":543,"adas":544,"..":545,"Ġsus":546,"tica":547,"ĠJ":548,"Ġpers":549,"Ã©s":550,"ĠSe":551,"fec":552,"Ġman":553,"tal":554,"Ġtrata":555,"der":556,"amente":557,"ĠIn":558,"Ġinter":559,"enci":560,"tivo":561,"Ġpos":562,"Ġson":563,"mer":564,"tico":565,"Ġeste":566,"gn":567,"Ġestudi":568,"ie":569,"Ġcas":570,"tin":571,"Ġcl":572,"Ġsobre":573,"Ġor":574,"ens":575,"olog":576,"Ġenfer":577,"ener":578,"Ġle":579,"tan":580,"na":581,"Ġpacientes":582,"esti":583,"til":584,"ers":585,"pl":586,"teri":587,"Ġ4":588,"Ġj":589,"Ġentre":590,"gun":591,"bil":592,"ÃŃs":593,"Ġsal":594,"con":595,"Ġdeb":596,"icos":597,"Ãºn":598,"Ġar":599,"Ġcor":600,"),":601,"Ġmo":602,"ario":603,"ara":604,"Ġpri":605,"ces":606,"uer":607,"endo":608,"ona":609,"ĠaÃ±os":610,"Ġad":611,"tros":612,"ez":613,"ga":614,"por":615,"pos":616,"Ġ5":617,"aria":618,"pon":619,"tri":620,"Ã³g":621,"eces":622,"ciones":623,"Ġni":624,"pec":625,"enta":626,"Ġrealiz":627,"ora":628,"Ġpuede":629,"Ġhac":630,"cer":631,"Ġmay":632,"Ġte":633,"Ġ20":634,"Ġbi":635,"Ġtratamiento":636,"tiva":637,"ÃŃas":638,"Ġcol":639,"je":640,"uch":641,"fici":642,"icas":643,"lan":644,"Ġfor":645,"ĠCon":646,"Ġu":647,"dic":648,"pi":649,"ana":650,"mas":651,"eb":652,"ĠUn":653,"erv":654,"he":655,"ologÃŃa":656,"ambiÃ©n":657,"Ġenferme":658,"jer":659,"ve":660,"Ġev":661,"ular":662,"almente":663,"Ġne":664,"Ġof":665,"ĠLos":666,"ĠRe":667,"idades":668,"ĠmÃ©":669,"Ġhe":670,"Ġinv":671,"Ġmej":672,"tis":673,"iste":674,"ven":675,"Ġpero":676,"rol":677,"Ġab":678,"tom":679,"Ġdos":680,"los":681,"tados":682,"za":683,"ismo":684,"Ġhi":685,"onas":686,"ero":687,"Ġri":688,"no":689,"Ġsol":690,"peci":691,"cip":692,"Ġ6":693,"gan":694,"Ġus":695,"vo":696,"baj":697,"gra":698,"ba":699,"Ġins":700,"Ġrec":701,"das":702,"Ġli":703,"Ġdur":704,"Ġmen":705,"jo":706,"ĠAl":707,"Ġqu":708,"rec":709,"car":710,"Ġau":711,"esi":712,"ren":713,"pit":714,"20":715,"Ġfun":716,"ĠÂ":717,"Ġhan":718,"Ġ19":719,"ĠNo":720,"Ġmayor":721,"paÃ±":722,"Ġsan":723,"aron":724,"olÃ³g":725,"Ã©r":726,"Ġposi":727,"Ġten":728,"Ġprof":729,"ĠtambiÃ©n":730,"Ġsalud":731,"Ã±o":732,"tado":733,"alidad":734,"Ġtrabaj":735,"idos":736,"las":737,"tras":738,"quier":739,"Ġmuy":740,"Ġrel":741,"arios":742,"Ġlle":743,"gr":744,"par":745,"Ġda":746,"Ġespeci":747,"Ġneces":748,"estig":749,"Ġya":750,"dr":751,"lic":752,"tura":753,"Ġestudio":754,"Ġmuch":755,"Ġpaciente":756,"Ã³s":757,"Ġcre":758,"Ġ/":759,"encias":760,"Ġforma":761,"Ġ0":762,"Ġmi":763,"Ġco":764,"tivos":765,"arrol":766,"cion":767,"Ġcada":768,"Ġ8":769,"Ġmejor":770,"gar":771,"Ġ7":772,"olor":773,"ier":774,"Ġnue":775,"Ġresul":776,"vis":777,"Ġtan":778,"titu":779,"Ġtras":780,"asta":781,"man":782,"ing":783,"cri":784,"ech":785,"pres":786,"if":787,"amos":788,"Ġgener":789,"ros":790,"taciÃ³n":791,"ospit":792,"Ġnues":793,"Ġdesde":794,"gui":795,"ĠMe":796,"Ġdurante":797,"dades":798,"Ġhab":799,"Ġreg":800,"Ġ9":801,"Ġfue":802,"Ġval":803,"Ġimpor":804,"ĠestÃ¡":805,"Ġ201":806,"Ġemp":807,"zo":808,"ormaciÃ³n":809,"ticas":810,"ador":811,"Ġpas":812,"âĢ":813,"Ġdesarrol":814,"du":815,"bilidad":816,"uy":817,"Ġpersonas":818,"ami":819,"em":820,"ea":821,"tir":822,"Ġ200":823,"gen":824,"Ġdia":825,"ĠclÃŃn":826,"antes":827,"Ġmg":828,"mÃ¡s":829,"tores":830,"tante":831,"Ġincl":832,"ĠY":833,"Ġenfermedad":834,"ares":835,"Ġpe":836,"Ġdifer":837,"uciÃ³n":838,"ĠLas":839,"li":840,"ĠCom":841,"ĠDe":842,"adores":843,"dio":844,"arse":845,"ĠAn":846,"Ġhay":847,"acion":848,"ano":849,"ticos":850,"Ġutil":851,"Ġinvestig":852,"gres":853,"Ġver":854,"Ġade":855,"Ġpueden":856,"Ġries":857,"Ġtodo":858,"gos":859,"Ġbas":860,"Ġtiene":861,"trol":862,"ĠDE":863,"Ġtran":864,"Ġdolor":865,"Ã¡l":866,"Ġproduc":867,"Ġsoci":868,"\",":869,"able":870,"Ġfin":871,"Ġhasta":872,"Ġ10":873,"ĠPor":874,"Ġalgun":875,"Ġefec":876,"Ġmar":877,"Ġcuando":878,"va":879,"ivel":880,"Ġgran":881,"Ġparte":882,"Ġcual":883,"Ãºl":884,"iones":885,"Ġdiagn":886,"gÃºn":887,"Ġpresent":888,"Ã±os":889,"paci":890,"uro":891,"pues":892,"pia":893,"Ġdo":894,"EN":895,"uen":896,"CI":897,"Ġvida":898,"Ġgru":899,"cre":900,"Ġcent":901,"Ġotros":902,"Ġnos":903,"Ġtu":904,"so":905,"amil":906,"ver":907,"isten":908,"Ġnivel":909,"acional":910,"ivers":911,"osa":912,"000":913,"Ġemb":914,"ĠAs":915,"tur":916,"ias":917,"Ġutiliz":918,"Ġvis":919,"Ã©c":920,"amiento":921,"Ġtrans":922,"ide":923,"ĠPro":924,"ĠâĢ":925,"Ġcer":926,"ĠÃ¡":927,"ay":928,"Ġobs":929,"Ġdon":930,"Ġriesgo":931,"Ġactiv":932,"Ġreci":933,"lam":934,"ospital":935,"cas":936,"ÃŃan":937,"Ġpu":938,"ES":939,"ib":940,"Ãºlti":941,"RA":942,"mac":943,"Ġand":944,"Ġw":945,"cir":946,"oc":947,"Ġactu":948,"tenciÃ³n":949,"ĠsÃŃn":950,"Ġtiemp":951,"Ġthe":952,"Ġcr":953,"mientos":954,"tion":955,"ĠSal":956,"isis":957,"Ġprin":958,"\".":959,"Ġden":960,"Ġproble":961,"bles":962,"ĠSan":963,"Ġsuper":964,"Ã³lo":965,"Ġestos":966,"Ġcontrol":967,"Ġmes":968,"ĠasÃŃ":969,"Ġay":970,"xi":971,"enen":972,"Ġsign":973,"Ġtodos":974,"pu":975,"Ġprimer":976,"Ġcan":977,"les":978,"Ġaum":979,"oma":980,"Ġtipo":981,"Ġbien":982,"th":983,"tec":984,"ON":985,"pen":986,"nos":987,"Ã©l":988,"Ġsiste":989,"Ġcaso":990,"icio":991,"Ġobje":992,"ist":993,"Ġtiempo":994,"cep":995,"OS":996,"dico":997,"argo":998,"ĠSi":999,"Ġagu":1000,"Ġcambi":1001,"Ġ%":1002,"Ġfamil":1003,"can":1004,"gÃŃa":1005,"Ġcasos":1006,"Ġafec":1007,"Ġcaus":1008,"Ġprofesi":1009,"ĠdÃŃa":1010,"Ġmujer":1011,"Ġanti":1012,"rea":1013,"dencia":1014,"cha":1015,"Ġhace":1016,"Ġfac":1017,"recu":1018,"toria":1019,"ita":1020,"Ġpes":1021,"Ġdebe":1022,"Ġref":1023,"tre":1024,"Ġ[":1025,"Ġcal":1026,"ĠaÃ±o":1027,"Ġmis":1028,"ios":1029,"Ġfuer":1030,"tivas":1031,"ceso":1032,"ÃŃcul":1033,"Ġtanto":1034,"Ġcomun":1035,"Ġhacer":1036,"Ġexper":1037,"Ġprincip":1038,"tens":1039,"ER":1040,"Ġcomple":1041,"Ġlu":1042,"ja":1043,"lar":1044,"ino":1045,"vas":1046,"Ġparti":1047,"ĠK":1048,"Ġra":1049,"Ġter":1050,"eno":1051,"uel":1052,"Ġgr":1053,"ne":1054,"Ġbaj":1055,"cho":1056,"Ġprim":1057,"Ġdonde":1058,"IC":1059,"Ġvez":1060,"Ġconf":1061,"Ġpi":1062,"ula":1063,"unque":1064,"ber":1065,"Ġinfec":1066,"onales":1067,"ed":1068,"Ġasoci":1069,"eg":1070,"unto":1071,"Ġexpl":1072,"minis":1073,"Ġnorm":1074,"fil":1075,"cis":1076,"truc":1077,"dia":1078,"Ã³stico":1079,"cio":1080,"Ġcam":1081,"Ġx":1082,"Ġmenos":1083,"Ġserv":1084,"Ġfrecu":1085,"Ġhor":1086,"Ġbuen":1087,"mia":1088,"Ġalter":1089,"Ġtrabajo":1090,"ment":1091,"lu":1092,"acia":1093,"und":1094,"ĠMar":1095,"TA":1096,"vers":1097,"alu":1098,"Ã¡c":1099,"ĠQ":1100,"Ġesc":1101,"eron":1102,"ĠEspaÃ±":1103,"Ġro":1104,"Ġsec":1105,"Ġcontra":1106,"):":1107,"Ġpermi":1108,"ista":1109,"ha":1110,"Ġpol":1111,"tera":1112,"rg":1113,"Ã³r":1114,"10":1115,"Ġdatos":1116,"arias":1117,"ĠCu":1118,"Ġgen":1119,"ĠdÃŃas":1120,"Ã¡ncer":1121,"ĠW":1122,"ĠCar":1123,"Ġotras":1124,"oraciÃ³n":1125,"Ã©cn":1126,"ola":1127,"ĠÂ¿":1128,"cular":1129,"ĠÃºlti":1130,"van":1131,"ĠUnivers":1132,"omin":1133,"acter":1134,"Ġtener":1135,"izaciÃ³n":1136,"ĠestÃ¡n":1137,"ĠSalud":1138,"Ġresultados":1139,"Ġdirec":1140,"av":1141,"Ġfu":1142,"ord":1143,"Ġqui":1144,"puÃ©s":1145,"ĠÃ":1146,"ĠinformaciÃ³n":1147,"Ġuno":1148,"yec":1149,"eta":1150,"ual":1151,"Ġcab":1152,"Ġcos":1153,"Ġmedic":1154,"arÃ¡":1155,"cina":1156,"Ġpodr":1157,"Ġam":1158,"AS":1159,"ien":1160,"pro":1161,"Ġalim":1162,"Ġgrupo":1163,"Ãºbl":1164,"Ġdere":1165,"anos":1166,"Ġporque":1167,"ĠNe":1168,"Ã¡r":1169,"Ġdef":1170,"gur":1171,"Ġedad":1172,"Ġconoci":1173,"Ġmun":1174,"Ġgra":1175,"ior":1176,"ĠniÃ±os":1177,"Ġps":1178,"terior":1179,"Ġdl":1180,"idas":1181,"tific":1182,"12":1183,"Ġmas":1184,"Ġtienen":1185,"Ġmal":1186,"Ġtom":1187,"Ġrecom":1188,"Ġ12":1189,"Ġmismo":1190,"ific":1191,"torio":1192,"Ġher":1193,"Ã³m":1194,"Ġhum":1195,"iciÃ³n":1196,"aba":1197,"Ġimportante":1198,"eo":1199,"Ġplan":1200,"gre":1201,"Ġpobl":1202,"dica":1203,"Ġmom":1204,"Ġobserv":1205,"ĠPara":1206,"Ġ15":1207,"Ġestudios":1208,"Ġorgan":1209,"ece":1210,"Ġuso":1211,"ĠcÃ¡ncer":1212,"ĠHe":1213,"Ġles":1214,"ulas":1215,"Ġsistema":1216,"Ġgeneral":1217,"aje":1218,"Ġdoc":1219,"ps":1220,"Ġpl":1221,"Ġsitu":1222,"Î¼":1223,"ĠLe":1224,"oso":1225,"AR":1226,"cias":1227,"...":1228,"Ġtera":1229,"Ġform":1230,"ĠDes":1231,"ĠpaÃŃs":1232,"Ġsub":1233,"Ġprev":1234,"Ġet":1235,"ĠtÃ©cn":1236,"oy":1237,"fica":1238,"at":1239,"cional":1240,"Ġsigui":1241,"ron":1242,"teg":1243,"ril":1244,"ĠatenciÃ³n":1245,"Ġencon":1246,"itar":1247,"Ġprogra":1248,"Ã¡lisis":1249,"Ġer":1250,"cuent":1251,"Ġej":1252,"Ġsido":1253,"ĠmÃ©dico":1254,"Ġz":1255,"Ġmujeres":1256,"Ġhoras":1257,"tomas":1258,"ĠsegÃºn":1259,"dente":1260,"OR":1261,"Ġdesarrollo":1262,"ĠdiagnÃ³stico":1263,"oles":1264,"ocitos":1265,"Ġop":1266,"Ġsab":1267,"Ġmues":1268,"venciÃ³n":1269,"Ġhom":1270,"termin":1271,"jos":1272,"Ã³l":1273,"Î¼l":1274,"ĠdespuÃ©s":1275,"ental":1276,"Ġce":1277,"Ġna":1278,"Ġmor":1279,"Ġencuent":1280,"edad":1281,"19":1282,"ag":1283,"Ġequi":1284,"cur":1285,"Ġfal":1286,"mon":1287,"Ġpubl":1288,"Ġaplic":1289,"Ġparticip":1290,"Ġenfermedades":1291,"Ġmil":1292,"echo":1293,"mero":1294,"usiÃ³n":1295,"ĠinvestigaciÃ³n":1296,"zar":1297,"Ġestas":1298,"Ġantes":1299,"Ġur":1300,"Ġpla":1301,"Ġestado":1302,"trib":1303,"Ġcaracter":1304,"Ġtrav":1305,"Ġadminis":1306,"Ġante":1307,"Ġsent":1308,"icios":1309,"Ã©u":1310,"br":1311,"Ġaf":1312,"end":1313,"Ġ13":1314,"ton":1315,"Ġsanit":1316,"inas":1317,"bier":1318,"Ġaunque":1319,"ifica":1320,"Ġmeses":1321,"cido":1322,"Ġamb":1323,"Ġsegu":1324,"Ġlugar":1325,"tamente":1326,"Ġotro":1327,"Ġvol":1328,"Ġdiferentes":1329,"et":1330,"Ġcontin":1331,"ĠSin":1332,"ĠtravÃ©s":1333,"tancia":1334,"oluciÃ³n":1335,"Ġmomento":1336,"Ġmanera":1337,"1000":1338,"emos":1339,"AL":1340,"Ġpues":1341,"ĠSu":1342,"ase":1343,"Ġ18":1344,"Ġhiper":1345,"ID":1346,"Ġevalu":1347,"Ġrad":1348,"Ġ14":1349,"osis":1350,"ĠrelaciÃ³n":1351,"Ġfar":1352,"Ġtres":1353,"Ġpul":1354,"ulta":1355,"ĠclÃŃnica":1356,"com":1357,"Ġpal":1358,"Ġespecial":1359,"ĠsÃŃntomas":1360,"pecto":1361,"ancia":1362,"Ġmin":1363,"ena":1364,"cal":1365,"Ġmediante":1366,"uso":1367,"ĠMÃ©":1368,"inf":1369,"tac":1370,"ĠnÃº":1371,"ama":1372,"Ġcalidad":1373,"empre":1374,"Ãºs":1375,"Ġsolo":1376,"cent":1377,"Ġmedicam":1378,"Ġcuenta":1379,"ible":1380,"dro":1381,"mun":1382,"Ġdetermin":1383,"Ġnuestro":1384,"ion":1385,"Ġsens":1386,"Ã±a":1387,"ĠcÃ©l":1388,"iere":1389,"Ġcompar":1390,"Ġapar":1391,"pacidad":1392,"entÃŃ":1393,"Ġvalor":1394,"mÃ¡":1395,"Ġindi":1396,"mento":1397,"ulo":1398,"ĠpoblaciÃ³n":1399,"tÃ³":1400,"Ġrelacion":1401,"Ġpat":1402,"Ġrevis":1403,"Ġproblemas":1404,"Ġconsi":1405,"Ġesti":1406,"ĠEste":1407,"Ġesto":1408,"mis":1409,"ĠEx":1410,"ducir":1411,"ĠAde":1412,"Ġrespon":1413,"Ġposible":1414,"Ġprimera":1415,"ĠfÃŃs":1416,"Ġlab":1417,"ĠademÃ¡s":1418,"ĠCl":1419,"tener":1420,"quel":1421,"Ġapro":1422,"Ġir":1423,"ĠHospital":1424,"Ġembargo":1425,"....":1426,"icaciÃ³n":1427,"cial":1428,"Ġsignifica":1429,"arc":1430,"Ġcur":1431,"ĠCh":1432,"tad":1433,"Ġch":1434,"ine":1435,"Ġprofesionales":1436,"Ġencontr":1437,"Ġren":1438,"IN":1439,"Ġtotal":1440,"Ġindic":1441,"istencia":1442,"Ġsea":1443,"ĠAc":1444,"dida":1445,"ĠEspaÃ±a":1446,"Ġprue":1447,"dicos":1448,"Ġpon":1449,"cimiento":1450,"Ġsiempre":1451,"uda":1452,"terial":1453,"ĠAdemÃ¡s":1454,"vid":1455,"Ġsex":1456,"ev":1457,"ges":1458,"tantes":1459,"Ġviv":1460,"Ġfueron":1461,"Ġprop":1462,"Ġah":1463,"ĠEsta":1464,"Ġciru":1465,"Ġtemp":1466,"Ġ30":1467,"ral":1468,"iar":1469,"Ġiz":1470,"Ġproce":1471,"Ġalgunos":1472,"puesta":1473,"tÃ¡n":1474,"Ã³mo":1475,"ĠâĢĵ":1476,"tÃŃcul":1477,"Ġmucho":1478,"utri":1479,"Ġestar":1480,"Ġotra":1481,"AD":1482,"Ġdosis":1483,"ĠRes":1484,"II":1485,"Ġrealizar":1486,"Ġllev":1487,"pat":1488,"ĠUniversidad":1489,"gue":1490,"Ġvac":1491,"ĠSoci":1492,"Ġpoco":1493,"11":1494,"Ġactividad":1495,"Ġproceso":1496,"Ġhabi":1497,"Ġacu":1498,"Ġfactores":1499,"Ġveces":1500,"Ã©tica":1501,"Ġalta":1502,"rac":1503,"Ġiden":1504,"Ġsue":1505,"Ġfr":1506,"ĠpÃºbl":1507,"Ġincluy":1508,"ĠcÃ©lulas":1509,"ĠMedi":1510,"Ġinte":1511,"ts":1512,"Ġllam":1513,"umo":1514,"Ġsegun":1515,"Ġdismin":1516,"Ġtr":1517,"Ġespec":1518,"laz":1519,"vil":1520,"Ġcereb":1521,"fÃŃa":1522,"teÃŃn":1523,"Ġpersona":1524,"entar":1525,".,":1526,"ical":1527,"Ġcuer":1528,"tada":1529,"iva":1530,"ĠIns":1531,"Ġve":1532,"ÃŃo":1533,"Ġello":1534,"yo":1535,"ĠprÃ¡c":1536,"olÃ³gico":1537,"ted":1538,"Ġtodas":1539,"ĠAr":1540,"ecer":1541,"ĠCol":1542,"Ġcri":1543,"Ġestable":1544,"ĠTo":1545,"Ġpeque":1546,"ĠcientÃŃ":1547,"Ġinici":1548,"lob":1549,"Ġmon":1550,"Ġayud":1551,"Ġcul":1552,"ulaciÃ³n":1553,"dentes":1554,"Ġadecu":1555,"Ġ199":1556,"Ġejemp":1557,"Ġtar":1558,"ĠnÃºmero":1559,"Ġ]":1560,"ĠPar":1561,"rig":1562,"ĠsÃ³lo":1563,"IS":1564,"Ġelec":1565,"Ġizquier":1566,"mor":1567,"ĠseÃ±":1568,"Ġdistin":1569,"terapia":1570,"bres":1571,"rim":1572,"greso":1573,"ducciÃ³n":1574,"mica":1575,"istas":1576,"Ġ11":1577,"lec":1578,"Ġcualquier":1579,"Ġju":1580,"ecu":1581,"Ġmedio":1582,"Ġcontinu":1583,"be":1584,"Ġpun":1585,"AN":1586,"Ġdif":1587,"Ġhecho":1588,"ome":1589,"Ġproyec":1590,"Ġtal":1591,"Ġera":1592,"uir":1593,"Ã¡g":1594,"Ġrecon":1595,"enes":1596,"Ġadministr":1597,"diente":1598,"Ġnormal":1599,"Ġvi":1600,"Ġon":1601,"ĠInter":1602,"Ġejer":1603,"Ġaquel":1604,"bo":1605,"Ġdetec":1606,"gas":1607,"Ġmie":1608,"Ġdescri":1609,"cos":1610,"Ġtoda":1611,"Ġobjetivo":1612,"Ġefectos":1613,"Ġos":1614,"Ġpiel":1615,"pira":1616,"TE":1617,"alizaciÃ³n":1618,"Ġhospital":1619,"tural":1620,"Ġevi":1621,"don":1622,"Ġcondi":1623,"cil":1624,"filos":1625,"fa":1626,"Ġpersonal":1627,"Ġnuevo":1628,"OM":1629,"dido":1630,"bas":1631,"ito":1632,"ables":1633,"ĠâĢ¢":1634,"Ġellos":1635,"Ġanal":1636,"cin":1637,"Ġconse":1638,"Ġapo":1639,"Ġextra":1640,"esiones":1641,"Ġven":1642,"15":1643,"ves":1644,"Ġtum":1645,"luc":1646,"ĠCa":1647,"Ġgu":1648,"ĠcrÃ³n":1649,"ple":1650,"Ġmundo":1651,"udad":1652,"acias":1653,"Ġmic":1654,"Ġorig":1655,"Ġag":1656,"Ġdiab":1657,"Ġis":1658,"ĠVal":1659,"oral":1660,"Ġ16":1661,"Ġvir":1662,"sos":1663,"Ġ25":1664,"eros":1665,"Ġcono":1666,"adr":1667,"Ġcier":1668,"Ġrecu":1669,"Ġequipo":1670,"ĠÃ³":1671,"Ġ24":1672,"Ġtrastor":1673,"Ġaumento":1674,"Ġsocial":1675,"Ġhis":1676,"Ġpublic":1677,"ĠquÃ©":1678,"sa":1679,"entaciÃ³n":1680,"dÃŃa":1681,"fico":1682,"ĠUna":1683,"Ġmad":1684,"Ġamp":1685,"Ġmuer":1686,"ep":1687,"Ġconsider":1688,"ĠDi":1689,"icamente":1690,"ÃŃtica":1691,"drome":1692,"dis":1693,"Ġnuestra":1694,"Ġese":1695,"embre":1696,"Ġcuerpo":1697,"ĠEnfer":1698,"ala":1699,"Ġunos":1700,"Ġep":1701,"ĠCent":1702,"Ġinform":1703,"Ġvas":1704,"mat":1705,"ĠlÃŃ":1706,"pas":1707,"olÃ³gica":1708,"Ġmuchos":1709,"eas":1710,"est":1711,"ĠMa":1712,"ex":1713,"Ã³filos":1714,"Ġfund":1715,"Ġrepres":1716,"ĠIN":1717,"ĠRo":1718,"ĠfunciÃ³n":1719,"ĠÃ©":1720,"entras":1721,"ĠDis":1722,"EC":1723,"Ġbene":1724,"Ġservicios":1725,"Ġdecir":1726,"ĠanÃ¡lisis":1727,"Ġrecur":1728,"Ġsino":1729,"Ġsuf":1730,"Ġcuan":1731,"Ġva":1732,"ĠNacional":1733,"EM":1734,"Ġejemplo":1735,"OL":1736,"tab":1737,"Ã¡rmac":1738,"Ġgas":1739,"Ġfarmac":1740,"Ġrecomend":1741,"cor":1742,"Ġpoder":1743,"Ġsa":1744,"Ġeso":1745,"Ġciento":1746,"Ġdeber":1747,"gado":1748,"orma":1749,"ĠX":1750,"posiciÃ³n":1751,"Ġpresenta":1752,"Ġbajo":1753,"Ġsiguientes":1754,"Ġtor":1755,"mina":1756,"Ġrefer":1757,"iendo":1758,"gual":1759,"ĠÃºn":1760,"Ġvent":1761,"Ġmedicamentos":1762,"ge":1763,"Ġdej":1764,"Ġeduc":1765,"dir":1766,"ĠMan":1767,"dose":1768,"Ġelev":1769,"mana":1770,"op":1771,"echa":1772,"Ġdar":1773,"Ġalgo":1774,"Ġavan":1775,"domin":1776,"tido":1777,"Ġcentro":1778,"Ġdefin":1779,"Ġmode":1780,"Ġesp":1781,"turas":1782,"ĠmayorÃŃa":1783,"14":1784,"ĠmÃ©dicos":1785,"tual":1786,"Ġdispon":1787,"ÃŃsticas":1788,"Ġdentro":1789,"Ġproblema":1790,"Ġembara":1791,"Ġbenefici":1792,"Ġsiendo":1793,"Ġcambios":1794,"Ġvacun":1795,"ĠcirugÃŃa":1796,"ivo":1797,"Ġocas":1798,"gi":1799,"ĠLA":1800,"Ġmos":1801,"ĠcÃ³mo":1802,"estiÃ³n":1803,"ĠÂ«":1804,"uego":1805,"ĠMon":1806,"Ġ50":1807,"13":1808,"ĠsituaciÃ³n":1809,"Ġidentific":1810,"ĠTambiÃ©n":1811,"Ġ17":1812,"Ġsangre":1813,"Ġpeso":1814,"ĠfÃ¡rmac":1815,"ĠPre":1816,"Ġniveles":1817,"ĠsÃŃ":1818,"Ġfaci":1819,"ĠformaciÃ³n":1820,"Ġhacia":1821,"ĠartÃŃcul":1822,"ĠPa":1823,"ĠEN":1824,"ies":1825,"Ġdepen":1826,"Ãĵ":1827,"bir":1828,"dan":1829,"vos":1830,"tud":1831,"Ġ*":1832,"zÃ³n":1833,"ĠZ":1834,"Ġindivid":1835,"Ġexperi":1836,"Ġejerci":1837,"Ġcomplic":1838,":.":1839,"Ã¡tica":1840,"tina":1841,"Ġdise":1842,"Ġinmun":1843,"ficiencia":1844,"guridad":1845,"Ġhal":1846,"Ġcardio":1847,"Ġdeben":1848,"orme":1849,"Ġcausa":1850,"Ġinci":1851,"mil":1852,"Ġprograma":1853,"ecn":1854,"ĠespecÃŃ":1855,"ĠCons":1856,"TI":1857,"Ġmisma":1858,"Ġlargo":1859,"quil":1860,"ĠmÃ©to":1861,"Ġagua":1862,"anza":1863,"Ġcolab":1864,"ura":1865,"olÃ³gicos":1866,"ial":1867,"ĠServ":1868,"Ġhipo":1869,"tivamente":1870,"Ãºrg":1871,"tamiento":1872,"ĠevoluciÃ³n":1873,"Ġmm":1874,"Ġrespuesta":1875,"Ġpresencia":1876,"Ġmus":1877,"Ġalteraciones":1878,"rir":1879,"ĠOr":1880,"Ġ100":1881,"gia":1882,"ĠinfecciÃ³n":1883,"Ġpad":1884,"Ġemple":1885,"Ġprofesional":1886,"eza":1887,"Ġcardi":1888,"itis":1889,"Ġhoy":1890,"Ġmuestra":1891,"ï¿":1892,"ï¿½":1893,"ĠMedicina":1894,"Ġrespira":1895,"avor":1896,"merÃŃa":1897,"Eq":1898,"presiÃ³n":1899,"Ġcir":1900,"--":1901,"Ġrela":1902,"ern":1903,"respon":1904,"Ġrespecto":1905,"Ġmul":1906,"tiene":1907,"Ġcompa":1908,"ĠCi":1909,"cen":1910,"ĠmEq":1911,"CM":1912,"Ġincre":1913,"Ġesper":1914,"Ġfamilia":1915,"Ġk":1916,"tividad":1917,"Ġsegui":1918,"tran":1919,"Ġmientras":1920,"Ġmuchas":1921,"Ġgrupos":1922,"olu":1923,"Ġmejorar":1924,"Â»":1925,"adrid":1926,"irm":1927,"xim":1928,"ĠPo":1929,"Ġactividades":1930,"mg":1931,"Ġconside":1932,"Ġderecho":1933,"Ã¡p":1934,"Ġquir":1935,"Ġpartir":1936,"AC":1937,"Ġide":1938,"Ġmenor":1939,"Ġefecto":1940,"ĠOb":1941,"18":1942,"Ġbase":1943,"icar":1944,"17":1945,"Ġdivers":1946,"Ġciudad":1947,"dice":1948,"Ġnega":1949,"ban":1950,"aban":1951,"Ġ'":1952,"Ġperio":1953,"ĠTra":1954,"iso":1955,"Ġpel":1956,"Ġcump":1957,"ibilidad":1958,"Ġmol":1959,"Ġconsumo":1960,"ut":1961,"ĠCo":1962,"ĠDr":1963,"ĠInstitu":1964,"aca":1965,"Ġbeb":1966,"ĠCas":1967,"Ġautor":1968,"emia":1969,"Ġurg":1970,"ĠEuro":1971,"16":1972,"ĠLo":1973,"ya":1974,"Ġbus":1975,"Ġvaria":1976,"Ã¡tico":1977,"Ġpsic":1978,"50":1979,"Ġloc":1980,"Ġacuer":1981,"tensiÃ³n":1982,"Ġselec":1983,"olo":1984,"tia":1985,"etes":1986,"ficos":1987,"Ġseman":1988,"ĠespaÃ±":1989,"IA":1990,"quÃŃ":1991,"Ġincluso":1992,"ĠSo":1993,"hi":1994,"Ġofre":1995,"Ġreac":1996,"Ġfrente":1997,"ĠpodrÃŃa":1998,"Ġnom":1999,"Ġnecesario":2000,"Ġcanti":2001,"Ġapor":2002,"ww":2003,"Ġpens":2004,"Ġevitar":2005,"Ġadul":2006,"Ġconduc":2007,"adamente":2008,"oro":2009,"Ġfundam":2010,"Ġnutri":2011,"aran":2012,"dez":2013,"Ġdemos":2014,"Ġ40":2015,"2020":2016,"Ġecon":2017,"Ġprob":2018,"biÃ³":2019,"dar":2020,"ĠUN":2021,"ĠPero":2022,"Ġfavor":2023,"pÃ©u":2024,"Ġtratamientos":2025,"jas":2026,"rin":2027,"ĠpaÃŃses":2028,"Ġempres":2029,"Ġconten":2030,"Ġ+":2031,"Ġintegr":2032,"Ġanaliz":2033,"Ġrenal":2034,"dial":2035,"Ġprincipal":2036,"Ġcompro":2037,"ĠMadrid":2038,"Ġlesiones":2039,"Ġalcan":2040,"Ġzona":2041,"fi":2042,"cel":2043,"Ġinfer":2044,"Ġestra":2045,"ulares":2046,"pir":2047,"ric":2048,"Ġfl":2049,"Ġgan":2050,"Ġdebido":2051,"Ġseguimiento":2052,"Ġalgunas":2053,"TO":2054,"Ġhaber":2055,"Ġmiemb":2056,"Ġcorrespon":2057,"Ġfi":2058,"Ġmayores":2059,"Ġase":2060,"ho":2061,"UE":2062,"Ġmill":2063,"AM":2064,"Ġetc":2065,"ĠPR":2066,"Ġpulmon":2067,"Ġproductos":2068,"Ġpap":2069,"trÃŃa":2070,"Ġcorrec":2071,"fo":2072,"Ġnueva":2073,"Ġdiabetes":2074,"trado":2075,"ĠGu":2076,"Ġpropor":2077,"pre":2078,"vir":2079,"Ġprocedi":2080,"Ġprovo":2081,"ÃŃt":2082,"Ġmanif":2083,"Ġcomer":2084,"che":2085,"Ġcontac":2086,"Ġesa":2087,"ĠÃ©s":2088,"Ġmec":2089,"val":2090,"porte":2091,"Ġsemana":2092,"Ġedi":2093,"Ġahora":2094,"Ġestruc":2095,"Ġsecund":2096,"ĠES":2097,"atro":2098,"Ġvari":2099,"Ġauto":2100,"CR":2101,"Ġayuda":2102,"Ġfrecuencia":2103,"Ġcap":2104,"Ġdirig":2105,"zas":2106,"ides":2107,"Ġpunto":2108,"Ġestr":2109,"Ġorganiz":2110,"demos":2111,"Ġconj":2112,"Ġintra":2113,"Ġbo":2114,"cios":2115,"Ġdesarroll":2116,"Ġprevi":2117,"Ġconsul":2118,"Ġabs":2119,"Ġcapacidad":2120,"Ġpermite":2121,"Ġconsecu":2122,"Ġmedia":2123,"imo":2124,"Ġsos":2125,"Ġinteres":2126,"Ġepi":2127,"idente":2128,"ys":2129,"bin":2130,"tales":2131,"ĠComo":2132,"Ġclar":2133,"Ġtecn":2134,"tus":2135,"Ġsolici":2136,"mbi":2137,"Ġtej":2138,"Ġlimi":2139,"Ġinde":2140,"Ġyo":2141,"Ġint":2142,"ĠquirÃºrg":2143,"ef":2144,"Ġalimentos":2145,"Ġfuncion":2146,"ĠPe":2147,"tel":2148,"Ġrealiza":2149,"icia":2150,"port":2151,"ĠprÃ³":2152,"Ġcin":2153,"Ġtratar":2154,"adora":2155,"Ġpregun":2156,"Ġgrave":2157,"ĠcaracterÃŃsticas":2158,"Ġprofes":2159,"ĠÃģ":2160,"Ġacuerdo":2161,"Ġfo":2162,"Ġservicio":2163,"Ġestim":2164,"Ġori":2165,"Ġintern":2166,"Ġconstitu":2167,"tero":2168,"Ġproces":2169,"Ġconte":2170,"Ġprecis":2171,"Ġhid":2172,"uela":2173,"ĠpÃ©r":2174,"Ġtro":2175,"vascular":2176,"Ġbuena":2177,"Ġpoten":2178,"Ġfib":2179,"Ġocur":2180,"tora":2181,"Ġneuro":2182,"ĠInf":2183,"dor":2184,"Ġcuidad":2185,"tt":2186,"Ġfrecuente":2187,"Ġmicro":2188,"ria":2189,"patÃŃa":2190,"ĠmÃ¡":2191,"ĠAd":2192,"terio":2193,"Ġencuentra":2194,"27":2195,"Ġgrado":2196,"Ġsemanas":2197,"Ġescri":2198,"Ġestad":2199,"Es":2200,"ĠhabÃŃa":2201,"aco":2202,"Ġdeci":2203,"iebre":2204,"venci":2205,"Ġigual":2206,"ĠGener":2207,"ulos":2208,"taciones":2209,"Ġtri":2210,"grafÃŃa":2211,"Ġblo":2212,"Ġregis":2213,"Ãį":2214,"itos":2215,"ĠtÃ©cnica":2216,"ĠAL":2217,"talidad":2218,"Ġresultado":2219,"Ġdific":2220,"itario":2221,"Ġalto":2222,"iÃ³":2223,"Ġapren":2224,"30":2225,"ĠterapÃ©u":2226,"mico":2227,"entan":2228,"uales":2229,"Ġcabo":2230,"Ġseguridad":2231,"Ġsuperior":2232,"clus":2233,"Ġderi":2234,"ED":2235,"Ġmer":2236,"Ġvarios":2237,"Ġpare":2238,"Ġtomar":2239,"plas":2240,"Ã±as":2241,"bilidades":2242,"ith":2243,"ĠprÃ¡ctica":2244,"xto":2245,"ph":2246,"Ġcambio":2247,"ecen":2248,"Ġlado":2249,"ell":2250,"ĠPres":2251,"teral":2252,"inal":2253,"diendo":2254,"Ġquien":2255,"vier":2256,"Ġactual":2257,"Ġdiagnos":2258,"Ġgras":2259,"ill":2260,"ĠCON":2261,"obier":2262,"ĠrÃ¡p":2263,"ĠsÃŃndrome":2264,"Ġexperiencia":2265,"imiento":2266,"tomÃŃa":2267,"uma":2268,"ĠvÃŃa":2269,"quiere":2270,"culares":2271,"Ġmater":2272,"xico":2273,"ĠJu":2274,"ity":2275,"CION":2276,"Ġnuevos":2277,"ificaciÃ³n":2278,"ÃĵN":2279,"rar":2280,"Ġinflam":2281,"Ġpruebas":2282,"AP":2283,"si":2284,"testin":2285,"Ġnatural":2286,"ĠCor":2287,"Ġprincipales":2288,"ologÃŃas":2289,"torios":2290,"ĠJos":2291,"ĠCan":2292,"Ġanim":2293,"Ġcuanto":2294,"Ġima":2295,"dific":2296,"ĠPer":2297,"asa":2298,"Ġimportancia":2299,"pciÃ³n":2300,"ni":2301,"Ġnecesidad":2302,"ĠtÃ³":2303,"son":2304,"Ġfalta":2305,"ima":2306,"Ġta":2307,"%)":2308,"ĠCuando":2309,"ĠmÃºs":2310,"Ġ%:":2311,"Ġgracias":2312,"iares":2313,"Ġanterior":2314,"ordin":2315,"cado":2316,"Ġmuerte":2317,"Ġexiste":2318,"24":2319,"viv":2320,"tadas":2321,"ger":2322,"Ġprodu":2323,"Ġrefiere":2324,"Ġayudar":2325,"Ġreco":2326,"ĠPaci":2327,"Ġinvestigadores":2328,"bar":2329,"Ġcasi":2330,"Ġhistoria":2331,"olesc":2332,"Ġpresente":2333,"Ġespaci":2334,"Ġprogres":2335,"Ġmoder":2336,"reas":2337,"Ġfinal":2338,"Ġlogr":2339,"Ġol":2340,"zos":2341,"Ġgrandes":2342,"ĠproteÃŃn":2343,"Ġvirus":2344,"ĠCentro":2345,"coh":2346,"Ġfis":2347,"200":2348,"Ġcantidad":2349,"Ã©tico":2350,"Ġconocer":2351,"Ġmanten":2352,"ĠintervenciÃ³n":2353,"Ġens":2354,"Ġacom":2355,"ficiente":2356,"pti":2357,"mio":2358,"ĠseÃ±al":2359,"ĠprevenciÃ³n":2360,"ĠtÃ©cnicas":2361,"Ġcentros":2362,"umen":2363,"tando":2364,"Ġhemo":2365,"Ġmillones":2366,"uye":2367,"Ġpesar":2368,"fr":2369,"Ġdieta":2370,"Ġconsulta":2371,"dios":2372,"Ġambi":2373,"ĠlÃŃn":2374,"ogra":2375,"ono":2376,"ĠpÃ¡g":2377,"utr":2378,"ĠEsto":2379,"Ġbio":2380,"ĠAsÃŃ":2381,"Ġproyecto":2382,"Ã©rica":2383,"Ġmedidas":2384,"Ġambos":2385,"Ġprepar":2386,"Ġinsu":2387,"Ġcorre":2388,"Ġfiebre":2389,"Ġemo":2390,"Ġesf":2391,"ficas":2392,"Ġdesta":2393,"gada":2394,"Ġ22":2395,"Ġru":2396,"ĠEL":2397,"Ġcuad":2398,"Ġjunto":2399,"ĠserÃ¡":2400,"Ġintens":2401,"var":2402,"Ġba":2403,"Ġpasado":2404,"entado":2405,"ace":2406,"trÃ³n":2407,"Ġinstitu":2408,"ĠThe":2409,"ĠInv":2410,"Ġgus":2411,"ĠpÃ©rdida":2412,"Ġmantener":2413,"ĠeconÃ³m":2414,"Ġtab":2415,"alizado":2416,"od":2417,"Ġsignos":2418,"Ġsimp":2419,"ĠÃºltimos":2420,"ticular":2421,"Ġcompren":2422,"Ġrealizado":2423,"Ġpan":2424,"Ġconserv":2425,"table":2426,"Ġcondiciones":2427,"ĠPA":2428,"Ġcel":2429,"ĠniÃ±o":2430,"rio":2431,"Ġunivers":2432,"ĠpresiÃ³n":2433,"ĠTras":2434,"Ġclas":2435,"orn":2436,"Ġflu":2437,"iedad":2438,"her":2439,"Ġcuatro":2440,"ĠfÃ¡rmacos":2441,"Ġsentido":2442,"Ġhospit":2443,"Ġdisf":2444,"Ġnaci":2445,"ĠclÃŃnico":2446,"ĠÃºltimo":2447,"Ġcuid":2448,"ĠInstituto":2449,"peraciÃ³n":2450,"tÃ¡":2451,"dap":2452,"Ġterapia":2453,"Ġconcent":2454,"acionales":2455,"Ġ28":2456,"ultad":2457,"Ġwith":2458,"ĠartÃŃculo":2459,"vel":2460,"UL":2461,"Ġhombres":2462,"ĠClÃŃn":2463,"Ġradio":2464,"ĠVI":2465,"Ġejercicio":2466,"ariciÃ³n":2467,"trica":2468,"ĠfÃŃsica":2469,"Ġespecialmente":2470,"Ġnada":2471,"dera":2472,"Ġextre":2473,"Ġlec":2474,"__":2475,"Ġcla":2476,"gura":2477,"Ġvar":2478,"ormente":2479,"Ġhora":2480,"Ġdom":2481,"ĠÃ¡rea":2482,"acto":2483,"obierno":2484,"Ġnuevas":2485,"puesto":2486,"guir":2487,"Ġobten":2488,"Ġmadre":2489,"Ġpron":2490,"bia":2491,"Ġder":2492,"IL":2493,"acteri":2494,"Ġcombin":2495,".-":2496,"fal":2497,"ĠÃ©l":2498,"Ġ23":2499,"Ġmane":2500,"cidos":2501,"tesis":2502,"Ġlig":2503,"Ġenc":2504,"Ġconocimiento":2505,"Ġ26":2506,"Ġadolesc":2507,"ibles":2508,"Ġpadres":2509,"nea":2510,"Ġpromo":2511,"tÃŃn":2512,"Ġpie":2513,"Ġpapel":2514,"culo":2515,"Ġfactor":2516,"Ġminu":2517,"pios":2518,"Ġapoyo":2519,"Ġcele":2520,"imin":2521,"olÃ³gicas":2522,"ismos":2523,"Ġarterial":2524,"Ġdecis":2525,"ite":2526,"cup":2527,"titis":2528,"ital":2529,"Ġcontrib":2530,"Ġdesa":2531,"Ġconsidera":2532,"ĠacompaÃ±":2533,"Ġsociales":2534,"nas":2535,"Ġseguir":2536,"ĠMin":2537,"trucciÃ³n":2538,"Ġ60":2539,"posi":2540,"all":2541,"gl":2542,"tÃŃ":2543,"ĠGeneral":2544,"!!":2545,"Ġproduce":2546,"TR":2547,"ĠEspaÃ±ola":2548,"omas":2549,"Ġderecha":2550,"Ġblan":2551,"Ġpulmonar":2552,"ciente":2553,"ĠcrÃ³nica":2554,"Ã±ana":2555,"Ġtrastornos":2556,"illa":2557,"Ġsaber":2558,"Ġelem":2559,"terios":2560,"Ġepiso":2561,"Ġobes":2562,"ĠLu":2563,"Ġalguna":2564,"Ġdicho":2565,"Ġmedida":2566,"Ġexplic":2567,"entales":2568,"Ġnuestros":2569,"Ġorigen":2570,"Ġembarazo":2571,"ximo":2572,"teriormente":2573,"uls":2574,"ĠcompaÃ±":2575,"Ġadap":2576,"ĠComun":2577,"Ġefic":2578,"ĠDur":2579,"alizada":2580,"ĠevaluaciÃ³n":2581,"Ġmodelo":2582,"Ġmovi":2583,"mol":2584,"ivos":2585,"ensa":2586,"ĠInvestig":2587,"Ġmodo":2588,"diÃ³":2589,"ĠaÃºn":2590,"Ġalcoh":2591,"Ġinicio":2592,"Ġoc":2593,"Ġhu":2594,"Ġdocum":2595,"ĠÃ³r":2596,"Ġmortalidad":2597,"Ġprueba":2598,"torias":2599,"Ġserie":2600,"ĠMun":2601,"Ġella":2602,"ĠEstudi":2603,"Ġunas":2604,"rez":2605,"ĠcomÃºn":2606,"ĠServicio":2607,"Ġ27":2608,"alth":2609,"Ġestabl":2610,"pectos":2611,"Ġindividu":2612,"mir":2613,"Ġexperim":2614,"infocitos":2615,"isl":2616,"ĠadministraciÃ³n":2617,"antil":2618,"CO":2619,"Ġlib":2620,"Ġparece":2621,"ĠJo":2622,"EP":2623,"Ġoral":2624,"dom":2625,"Ġreducir":2626,"ĠclÃŃnicos":2627,"Ġreal":2628,"Ã¡ndose":2629,"ĠÃ¡mbi":2630,"gio":2631,"Ġexisten":2632,"ĠaplicaciÃ³n":2633,"capacidad":2634,"La":2635,"Ġ21":2636,"Ġcerebro":2637,"ĠDesde":2638,"Ġizquierda":2639,"Ġcuales":2640,"Ġhemos":2641,"Ġbaja":2642,"iden":2643,"Ã©ticos":2644,"fac":2645,"ĠalgÃºn":2646,"25":2647,"Ġperman":2648,"Ġcomplicaciones":2649,"Ã¡m":2650,"ĠMo":2651,"Ġprobable":2652,"olar":2653,"Ġcomen":2654,"Ġpreval":2655,"Ġ=":2656,"Ġabdomin":2657,"Ã³logo":2658,"Ġmedicina":2659,"ticamente":2660,"Ġtama":2661,"Ġsig":2662,"cedentes":2663,"vin":2664,"Ġsegundo":2665,"rada":2666,"Ġelimin":2667,"Ġpade":2668,"Ġrefle":2669,"Ġami":2670,"Ġimportantes":2671,"Ġtrad":2672,"Ġestrateg":2673,"ĠÃº":2674,"Ġcosas":2675,"Ġllegar":2676,"tÃ³n":2677,"Ġaquellos":2678,"IO":2679,"Ġingreso":2680,"ĠFran":2681,"Ġrecursos":2682,"Ġaten":2683,"Ġvan":2684,"ĠAsoci":2685,"Ġbar":2686,"//":2687,"ensiÃ³n":2688,"ĠregiÃ³n":2689,"ach":2690,"ĠQu":2691,"Ġacer":2692,"Ġresto":2693,"uros":2694,"ĠEntre":2695,"Ġsociedad":2696,"ĠCO":2697,"parta":2698,"Ġacep":2699,"tric":2700,"Ġdescu":2701,"Ġacceso":2702,"ĠSegÃºn":2703,"Ġhallaz":2704,"72":2705,"Ġconta":2706,"ĠFund":2707,"Ġaz":2708,"oler":2709,"ĠDirec":2710,"Ġrespons":2711,"zada":2712,"din":2713,"Ġdiagnostic":2714,"Ġestre":2715,"Ġusu":2716,"zado":2717,"izo":2718,"ĠJosÃ©":2719,"Ġadultos":2720,"Ġprofun":2721,"Ġtipos":2722,"Ġcontacto":2723,"ĠConse":2724,"Ġsupon":2725,"ĠmÃ©dica":2726,"Ġmetab":2727,"Ġpresentan":2728,"Ġizquierdo":2729,"Ġingres":2730,"ĠrealizÃ³":2731,"lio":2732,"enos":2733,"ICA":2734,"Ġensay":2735,"Ġinclu":2736,"Ġmostr":2737,"ĠÃŃn":2738,"ĠapariciÃ³n":2739,"Ġvia":2740,"ĠCir":2741,"rag":2742,"itaria":2743,"://":2744,"Ġinicia":2745,"Ġinfecciones":2746,"ĠmaÃ±ana":2747,"ÃŃstica":2748,"Ġreconoci":2749,"Ġconcentr":2750,"Ġdiferencias":2751,"ila":2752,"ienda":2753,"Ġtema":2754,"pm":2755,"enemos":2756,"Ġvalores":2757,"Ġderiv":2758,"up":2759,"Ġquer":2760,"Ġind":2761,"Ġaspectos":2762,"Ġjun":2763,"ĠCal":2764,"iza":2765,"ĠSociedad":2766,"Ġcrecimiento":2767,"Ġindepen":2768,"Ġllevar":2769,"ĠAS":2770,"orte":2771,"Ġcampo":2772,"tÃ©":2773,"ciÃ³":2774,"ĠtamaÃ±o":2775,"vent":2776,"Ġcasa":2777,"ĠAunque":2778,"inar":2779,"Ġrecib":2780,"media":2781,"Ġdesarrollar":2782,"Ġesfuer":2783,"ĠRec":2784,"dientes":2785,"Ġpodemos":2786,"dal":2787,"ĠbÃ¡s":2788,"ĠfarmacÃ©u":2789,"Ġconcep":2790,"Ġhtt":2791,"ĠmÃºlti":2792,"Ġaus":2793,"ĠEstados":2794,"Ġprotec":2795,"ervi":2796,"%,":2797,"IM":2798,"Ġ198":2799,"Ġmejora":2800,"tancias":2801,"Ġleg":2802,"ĠAm":2803,"ciales":2804,"one":2805,"ĠAC":2806,"Ġplazo":2807,"ĠTA":2808,"chos":2809,"Ġfuera":2810,"CIÃĵN":2811,"quetas":2812,"onces":2813,"Ġfamiliar":2814,"ĠpolÃŃ":2815,"jus":2816,"Ġmulti":2817,"68":2818,"Ġsuje":2819,"nes":2820,"pan":2821,"Ġfamiliares":2822,"ĠinterÃ©s":2823,"Ġnombre":2824,"Ġmecan":2825,"Ġfacil":2826,"orÃŃa":2827,"Ġmodific":2828,"ĠacciÃ³n":2829,"ĠSE":2830,"Ġfase":2831,"zol":2832,"Ġplante":2833,"ĠDurante":2834,"Ġincor":2835,"portun":2836,"Ġcolor":2837,"Ġvarias":2838,"Ġacude":2839,"tio":2840,"ire":2841,"Ġellas":2842,"Ġtoma":2843,"ingun":2844,"ĠUnidos":2845,"rami":2846,"33":2847,"Ġglob":2848,"Ġdistrib":2849,"ĠcomunicaciÃ³n":2850,"ice":2851,"Ġfe":2852,"rÃ¡":2853,"Ġsuperfici":2854,"uras":2855,"ĠfÃ¡":2856,"Ġpost":2857,"ĠMu":2858,"Ġdem":2859,"gÃ©n":2860,"pias":2861,"ich":2862,"ĠdifÃŃ":2863,"Ġobl":2864,"Ġgluc":2865,"Ġurgencias":2866,"anas":2867,"mato":2868,"Ġprimeros":2869,"Ġener":2870,"eras":2871,"Ġaproxim":2872,"Ġlar":2873,"Ġabdominal":2874,"turo":2875,"ĠMÃ©xico":2876,"toc":2877,"ingÃºn":2878,"Ġluego":2879,"Ġexpres":2880,"ĠEstos":2881,"Ġcog":2882,"ke":2883,"Ġ29":2884,"udo":2885,"Ġevidencia":2886,"Ġpen":2887,"Ġcuadro":2888,"demi":2889,"Ġdoctor":2890,"ilar":2891,"Ġintestin":2892,"ĠtÃ©r":2893,"bra":2894,"ĠFecha":2895,"venes":2896,"rera":2897,"Ġat":2898,"ustri":2899,"venir":2900,"ĠMi":2901,"alizar":2902,"Ġinferior":2903,"ĠlÃŃqu":2904,"ĠpatologÃŃa":2905,"ĠHa":2906,"DA":2907,"Ġinsuficiencia":2908,"%.":2909,"Ã¡bi":2910,"itas":2911,"ĠPs":2912,"Ġelab":2913,"Ġpaso":2914,"ip":2915,"Ġleve":2916,"Ġposterior":2917,"Ġaguda":2918,"04":2919,"Ġnecesidades":2920,"Ġcinco":2921,"ĠmÃŃn":2922,"Ġorden":2923,"arra":2924,"ĠPla":2925,"Ã³venes":2926,"Ġantic":2927,"Ġans":2928,"Ġcompon":2929,"Ġminutos":2930,"bu":2931,"isti":2932,"unca":2933,"osas":2934,"Ġ)":2935,"Ġgl":2936,"Ãºblica":2937,"OC":2938,"ĠvaloraciÃ³n":2939,"Ġoportun":2940,"Ġimagen":2941,"Ġdescar":2942,"Ġconcl":2943,"70":2944,"mar":2945,"Ġincidencia":2946,"ĠSanidad":2947,"Ġ80":2948,"Ġocasiones":2949,"Ġentonces":2950,"ĠpÃºblica":2951,"Ġtermin":2952,"anci":2953,"ĠmÃ©todo":2954,"cida":2955,"form":2956,"ques":2957,"ĠÃ³rgan":2958,"Ġvig":2959,"Ġsiguiente":2960,"Ġsegunda":2961,"Ġvariables":2962,"Ġencontrar":2963,"Ġcriterios":2964,"Ġth":2965,"Ġpresentar":2966,"Ġrealidad":2967,"ĠningÃºn":2968,"Ġutilizar":2969,"Ġalcohol":2970,"Ġconci":2971,"ĠNa":2972,"rax":2973,"ĠII":2974,"Ġnervi":2975,"Ġinh":2976,"ÃŃtulo":2977,"ĠFac":2978,"Ġfil":2979,"Ġ35":2980,"ox":2981,"Ġponer":2982,"tino":2983,"entas":2984,"Ġlac":2985,"ĠJuan":2986,"Ġdado":2987,"pes":2988,"ecciÃ³n":2989,"toma":2990,"ĠsueÃ±o":2991,"Ġradi":2992,"38":2993,"Ã¡nd":2994,"ĠRef":2995,"Ġcompor":2996,"ju":2997,"genes":2998,"Ġtendr":2999,"Ġherrami":3000,"22":3001,"ĠÃį":3002,"Ġdomici":3003,"AT":3004,"arcÃŃa":3005,"Ġconcre":3006,"ile":3007,"ĠAP":3008,"Ġvita":3009,"iente":3010,"men":3011,"Ġox":3012,"Ġdese":3013,"ĠNav":3014,"enso":3015,"Ġprocesos":3016,"tualmente":3017,"Ġposibilidad":3018,"engu":3019,"turales":3020,"rad":3021,"Ġasegur":3022,"Ġcontr":3023,"ĠgestiÃ³n":3024,");":3025,"Ãºa":3026,"ucocitos":3027,"Ġreciente":3028,"Ġcausas":3029,"El":3030,"Ġtenemos":3031,"Ġpueda":3032,"unta":3033,"Ġliber":3034,"ĠjÃ³venes":3035,"Ġestu":3036,"ebril":3037,"ĠCiru":3038,"Ġhumano":3039,"Ġningun":3040,"tismo":3041,"cionar":3042,"Ġeta":3043,"ĠAtenciÃ³n":3044,"Ġautores":3045,"ciendo":3046,"ĠFC":3047,"ural":3048,"mino":3049,"Ġeco":3050,"teriores":3051,"Ġneu":3052,"Ġhacen":3053,"utrÃ³filos":3054,"ĠlesiÃ³n":3055,"ĠMinis":3056,"culos":3057,"estion":3058,"Ġbasal":3059,"diz":3060,"Ġoblig":3061,"ĠproducciÃ³n":3062,"itaciÃ³n":3063,"izar":3064,"Ġlabora":3065,"Ġdescon":3066,"tive":3067,"icidad":3068,"ĠÃ¡mbito":3069,"Ġincorpor":3070,"Ġrele":3071,"Ġpuesto":3072,"misiÃ³n":3073,"Ġtrastorno":3074,"orar":3075,"Ġimplan":3076,"Ġgaran":3077,"ign":3078,"ĠeducaciÃ³n":3079,"ĠAsociaciÃ³n":3080,"Ġeficacia":3081,"Ġ36":3082,"Ġnacional":3083,"Ġtos":3084,"Ġaler":3085,"Ġsimi":3086,"36":3087,"Ġbacteri":3088,"Ġcurso":3089,"trico":3090,"quis":3091,"ĠreducciÃ³n":3092,"Ġcorpor":3093,"Ġencuentran":3094,"iores":3095,"arcel":3096,"dedor":3097,"gel":3098,"ĠFundaciÃ³n":3099,"Ġcompe":3100,"ĠCam":3101,"aces":3102,"visiÃ³n":3103,"glob":3104,"Ġcuidados":3105,"ĠPaciente":3106,"Ġrecep":3107,"03":3108,"ĠÃįn":3109,"Ġmio":3110,"jar":3111,"ĠdisminuciÃ³n":3112,"Ġsecre":3113,"ĠAb":3114,"ĠHay":3115,"clo":3116,"ĠPue":3117,"Ġprimaria":3118,"Ġbila":3119,"ĠEnferme":3120,"Ġmiembros":3121,"cÃ³":3122,"Ġestaba":3123,"tral":3124,"xima":3125,"vista":3126,"Ġsanitario":3127,"Ġhep":3128,"partamento":3129,"Ġfrac":3130,"Ġdedic":3131,"Ġpresidente":3132,"Ġintro":3133,"Ġperiodo":3134,"Ġprogramas":3135,"Ġhijos":3136,"ĠGarcÃŃa":3137,"psia":3138,"Ġall":3139,"Ġcelebr":3140,"ciona":3141,"Ġexter":3142,"bado":3143,"Ġreferencia":3144,"puestas":3145,"Ġtumor":3146,"Ġobesidad":3147,"ĠcolaboraciÃ³n":3148,"ĠEC":3149,"ernÃ¡n":3150,"ĠGran":3151,"Ġcabeza":3152,"Ġpuntos":3153,"Ġpau":3154,"traciÃ³n":3155,"ĠLinfocitos":3156,"Ġmejores":3157,"Ġadi":3158,"Ġfrecuentes":3159,"ĠÃįndice":3160,"ĠTi":3161,"mentos":3162,"ard":3163,"IR":3164,"Ġhaya":3165,"Ġcomien":3166,"arcelona":3167,"ĠPal":3168,"Ġhijo":3169,"Ġsatis":3170,"grÃ¡":3171,"lla":3172,"ly":3173,"Ġvista":3174,"Ġdepor":3175,"Ġporcent":3176,"ĠdiagnÃ³s":3177,"lica":3178,"ples":3179,"ĠhÃ¡bi":3180,"Ġsanitarios":3181,"ĠAD":3182,"40":3183,"Ġvuel":3184,"Ã§":3185,"Ġsistemas":3186,"Ġeran":3187,"Ġsup":3188,"Ġconseguir":3189,"Ġmens":3190,"ĠMor":3191,"Ġmedios":3192,"inos":3193,"Ġcontexto":3194,"ĠlÃŃnea":3195,"istente":3196,"Ġconstituy":3197,"ĠÃ¡reas":3198,"tions":3199,"Ġjus":3200,"ĠrevisiÃ³n":3201,"Ġpalab":3202,"Ġimplic":3203,"Ġhabitual":3204,"Ġmental":3205,"ĠBar":3206,"Ġ90":3207,"Ġ<":3208,"tarse":3209,"Ġ70":3210,"ĠTe":3211,"Ġplac":3212,"iciones":3213,"Ġantecedentes":3214,"ents":3215,"ĠQUE":3216,"Ġampli":3217,"Ġhumanos":3218,"ĠestrÃ©s":3219,"Ġtejido":3220,"ĠDia":3221,"Ġweb":3222,"ajo":3223,"ernÃ¡ndez":3224,"trum":3225,"Ã©mica":3226,"Ġcuidado":3227,"Ġexplica":3228,"Ġcora":3229,"ĠEnfermerÃŃa":3230,"tidos":3231,"Ġdestac":3232,"Ġendo":3233,"Ġobjetivos":3234,"76":3235,"ĠEurope":3236,"lante":3237,"ting":3238,"Ġpreo":3239,"Ġexam":3240,"ĠdÃ©":3241,"ĠCuba":3242,"ĠrealizaciÃ³n":3243,"Ġcentral":3244,"Ġtele":3245,"Ġansiedad":3246,"ole":3247,"ajes":3248,"ĠÃ³se":3249,"Ġhorm":3250,"imos":3251,"Ġsome":3252,"Ġlibre":3253,"Ġespacio":3254,"Ġacon":3255,"Ġadvers":3256,"Ġrelacionados":3257,"fe":3258,"Ġimpres":3259,"Ġsean":3260,"izado":3261,"21":3262,"encial":3263,"ĠLi":3264,"tario":3265,"Ġpod":3266,"ĠNeutrÃ³filos":3267,"Ġcontenido":3268,"Ġaisl":3269,"Ġpriv":3270,"Ġgente":3271,"ĠPrim":3272,"ĠFar":3273,"grado":3274,"US":3275,"Ġproducir":3276,"ulio":3277,"Ġobtener":3278,"Ġparticular":3279,"Ġentor":3280,"ĠBo":3281,"ĠPCR":3282,"Ġpier":3283,"Ġcoordin":3284,"ĠAu":3285,"Ġfru":3286,"IEN":3287,"ela":3288,"Ġmanejo":3289,"ĠfÃ¡cil":3290,"Ġmismos":3291,"ĠexposiciÃ³n":3292,"Ġfinanci":3293,"Ġprevalencia":3294,"Ġquienes":3295,"Ġbeneficios":3296,"Ġcoron":3297,"Ġnunca":3298,"Ġcub":3299,"ĠpÃ¡ginas":3300,"Ġtengo":3301,"imismo":3302,"Ġvers":3303,"Ġprocedimiento":3304,"ler":3305,"teo":3306,"Ġnum":3307,"ĠperÃŃo":3308,"guÃŃn":3309,"Ġ>":3310,"Ġul":3311,"geno":3312,"Ġdistintos":3313,"ĠIC":3314,"dL":3315,"Ġofici":3316,"ĠProteÃŃn":3317,"rupo":3318,"23":3319,"ĠdifÃŃcil":3320,"Ġcerebral":3321,"Ġreun":3322,"tiz":3323,"rededor":3324,"ĠSa":3325,"Ġdin":3326,"Ġdiferencia":3327,"Ġajus":3328,"ĠmÃ©todos":3329,"ĠdepresiÃ³n":3330,"ĠFe":3331,"Ġcumpl":3332,"Ġdejar":3333,"ĠBarcelona":3334,"........":3335,"ĠCirugÃŃa":3336,"isiÃ³n":3337,"Ġdisposi":3338,"Ġhallazgos":3339,"Ġsimilar":3340,"ĠÃ©xi":3341,"05":3342,"taria":3343,"ĠPos":3344,"ĠMonocitos":3345,"ulina":3346,"ĠparticipaciÃ³n":3347,"Ġprevenir":3348,"ĠalimentaciÃ³n":3349,"Ġtarde":3350,"ĠMartÃŃn":3351,"26":3352,"Ġaliment":3353,"Ġsuele":3354,"Ġjue":3355,"Ġlengu":3356,"ĠcardÃŃa":3357,"Ġmedicamento":3358,"Ġdirector":3359,"Ġ33":3360,"Ġlabor":3361,"Ġsom":3362,"Ġred":3363,"micos":3364,"ĠduraciÃ³n":3365,"irma":3366,"ĠasociaciÃ³n":3367,"ĠMarÃŃa":3368,"dicas":3369,"rado":3370,"taron":3371,"ĠvÃŃ":3372,"cionales":3373,"Ġformas":3374,"ap":3375,"Ġfum":3376,"rero":3377,"ĠPlan":3378,"tinina":3379,"ĠUrg":3380,"Ġimpacto":3381,"Ġsexual":3382,"Ġorganismo":3383,"ear":3384,"Ġgri":3385,"Ġfuturo":3386,"Ġcoment":3387,"DO":3388,"Ġcara":3389,"Ġvo":3390,"Ġpropio":3391,"ĠenfermerÃŃa":3392,"ĠclÃŃnicas":3393,"Ġluz":3394,"Ġmenores":3395,"EL":3396,"Ġcomunidad":3397,"Ġban":3398,"eos":3399,"Ġdecl":3400,"Ġsustitu":3401,"net":3402,"ĠÃºltima":3403,"Ã³logos":3404,"Ġinforme":3405,"bol":3406,"Ġoper":3407,"iado":3408,"ĠsensaciÃ³n":3409,"Ġdesp":3410,"Ġrecomienda":3411,"Ġsituaciones":3412,"cipl":3413,"Ġalum":3414,"Ġlinf":3415,"Hg":3416,"una":3417,"Ġpropia":3418,"medio":3419,"MA":3420,"ĠCr":3421,"ional":3422,"28":3423,"Ġsimple":3424,"grama":3425,"Ġpuedan":3426,"ĠVIH":3427,"Ġmano":3428,"ĠNO":3429,"Ġproducto":3430,"Ġinmedia":3431,"Ã£":3432,"Ġacci":3433,"Ġtraspl":3434,"cula":3435,"ferencia":3436,"Ġperfil":3437,"Ġsanitaria":3438,"Ġinfantil":3439,"ĠPol":3440,"Ġrelaciones":3441,"tubre":3442,"Ġcomprim":3443,"Ġenten":3444,"Ġ31":3445,"ĠantibiÃ³":3446,"Ġmagn":3447,"Ġbron":3448,"Ġnoso":3449,"Ġcapa":3450,"ĠBas":3451,"75":3452,"ong":3453,"Ġley":3454,"omÃŃa":3455,"rolÃ³g":3456,"Ġviol":3457,"ĠcorazÃ³n":3458,"terol":3459,"esiÃ³n":3460,"Ġdicha":3461,"arto":3462,"ĠDeb":3463,"Ġsexo":3464,"Ġmama":3465,"Ġposibles":3466,"VID":3467,"Ġempez":3468,"nov":3469,"Ġadolescentes":3470,"ĠObs":3471,"vÃŃa":3472,"top":3473,"seÃ±":3474,"gon":3475,"Ġsector":3476,"Ġfuncional":3477,"Ġprevio":3478,"ĠaÃ±ad":3479,"Ġdice":3480,"ĠÃºnico":3481,"Ġtenido":3482,"Ġconjunto":3483,"Ġafecta":3484,"metros":3485,"Ġsospec":3486,"Ġmaterial":3487,"Ġpros":3488,"ĠÃ¡cido":3489,"Ġartic":3490,"Ġqued":3491,"Ġnoche":3492,"Ġlocal":3493,"Ġ95":3494,"Ã¼":3495,"Ġcateg":3496,"ÃŃcula":3497,"ĠSer":3498,"oC":3499,"Ġcompues":3500,"mÃ¡tica":3501,"ĠfÃŃsico":3502,"icip":3503,"ĠBi":3504,"tional":3505,"Ġtumores":3506,"ence":3507,"guez":3508,"Ġfundamental":3509,"ieron":3510,"Ġalterna":3511,"Ġopin":3512,"Ġcardiovascular":3513,"Ġabor":3514,"ĠpÃºblico":3515,"Ġrespiratoria":3516,"Ã£o":3517,"ĠgÃ©n":3518,"ĠEv":3519,"Ġdemostrado":3520,"Ġanimales":3521,"Ġinterac":3522,"Ġcogni":3523,"ĠDÃŃa":3524,"ĠAN":3525,"Ġrespec":3526,"Ġ34":3527,"xic":3528,"Ġnecesita":3529,"Ġcolon":3530,"Ġsac":3531,"Ġadecuada":3532,"chas":3533,"Ġdor":3534,"ĠSon":3535,"UN":3536,"itro":3537,"ĠMinisterio":3538,"Ġinflu":3539,"ĠBuen":3540,"ĠserÃŃa":3541,"of":3542,"ĠMundial":3543,"Ġsintom":3544,"ĠHi":3545,"Ġ2010":3546,"hid":3547,"Ġzonas":3548,"Ã¡ci":3549,"Ġactualidad":3550,"Ġtes":3551,"quer":3552,"logÃŃa":3553,"Ġml":3554,"ĠaquÃŃ":3555,"dencias":3556,"Ġpreco":3557,"Ġconfirm":3558,"ĠInvestigaciÃ³n":3559,"Ġlaboral":3560,"tasio":3561,"riÃ³":3562,"Ġexpertos":3563,"ĠÃºtil":3564,"80":3565,"Ã¨":3566,"Ġmotivo":3567,"Ġespecialista":3568,"Ġaspecto":3569,"ĠClÃŃnica":3570,"del":3571,"ĠHemo":3572,"Ġclaro":3573,"istentes":3574,"âĢĵ":3575,"ĠAlgun":3576,"ĠvisiÃ³n":3577,"Ġinstrum":3578,"ĠUnidad":3579,"Ġactualmente":3580,"itan":3581,"Ġmam":3582,"ĠGobierno":3583,"Ġsuel":3584,"Ġreduc":3585,"vieron":3586,"ĠCOM":3587,"Ġhaci":3588,"Ġinfl":3589,"Ġtromb":3590,"ĠOrgan":3591,"ĠÃ©xito":3592,"Ġsuficiente":3593,"Ġdijo":3594,"Ã³lica":3595,"Ġtempera":3596,"illo":3597,"Ġgraves":3598,"ĠUrgencias":3599,"Ġace":3600,"Ã³geno":3601,"ĠpodrÃŃan":3602,"globina":3603,"Ġorina":3604,"Ġnosotros":3605,"arÃ¡n":3606,"cidad":3607,"Ġmarcha":3608,"Ġindustri":3609,"TU":3610,"umon":3611,"Ġsur":3612,"Ġestudiantes":3613,"Ġdiscapacidad":3614,"quia":3615,"Ġcrisis":3616,"Ġtoler":3617,"Ġtus":3618,"Ġalrededor":3619,"Ġgo":3620,"ĠIntern":3621,"ĠLD":3622,"Ġconver":3623,"IV":3624,"Ġescas":3625,"Ġabier":3626,"ĠSiste":3627,"Ġrepro":3628,"Ġho":3629,"Ġtit":3630,"Ġprimero":3631,"ĠproteÃŃnas":3632,"cepciÃ³n":3633,"venciones":3634,"crito":3635,"meric":3636,"kin":3637,"79":3638,"ĠCarlos":3639,"Ġasisten":3640,"Ġinternacional":3641,"Ġ2012":3642,"onz":3643,"ĠEuropa":3644,"Ġfa":3645,"tienen":3646,"Ġadecuado":3647,"unciÃ³n":3648,"Ġalar":3649,"gesta":3650,"Ġ38":3651,"Ġdetal":3652,"ĠhipertensiÃ³n":3653,"lez":3654,"ĠsanguÃŃn":3655,"ĠtenÃŃa":3656,"Ġata":3657,"Ġdistintas":3658,"Ġincluye":3659,"En":3660,"Ġhemor":3661,"ade":3662,"tÃ¡nea":3663,"Ġprevia":3664,"PS":3665,"Ġesos":3666,"mes":3667,"bina":3668,"ĠcientÃŃfica":3669,"Ġprol":3670,"Ġclave":3671,"Ġdomin":3672,"29":3673,"Ġran":3674,"Ġmanos":3675,"Ġsolu":3676,"Ġsist":3677,"Ġvolun":3678,"Ġges":3679,"Ã³mi":3680,"ĠmÃºltiples":3681,"Ġterri":3682,"Ġaumentar":3683,"Ġ37":3684,"Ġhombre":3685,"Ġatra":3686,"para":3687,"Ġofrece":3688,"itor":3689,"Ġeduca":3690,"tiÃ³":3691,"Ġsug":3692,"Ġlleva":3693,"ĠReg":3694,"quilib":3695,"ĠsoluciÃ³n":3696,"Ġaproximadamente":3697,"Ġseis":3698,"Ġfeb":3699,"ĠmejorÃŃa":3700,"Ġvalorar":3701,"Ġperson":3702,"Ġcompleta":3703,"Ġempe":3704,"Ġporcentaje":3705,"Ġentorno":3706,"Ġcolec":3707,"86":3708,"ĠRefiere":3709,"tilla":3710,"Ġevaluar":3711,"Ġbloque":3712,"Ã©mico":3713,"82":3714,"Ġasistencia":3715,"amer":3716,"ks":3717,"Ġusted":3718,"Ġnormales":3719,"Ġprac":3720,"Ġredu":3721,"ĠCH":3722,"habil":3723,"Ġdenomin":3724,"Ġ2009":3725,"Ġplas":3726,"ĠResul":3727,"Ġil":3728,"ĠNeuro":3729,"Ġeti":3730,"Ġinstal":3731,"vivencia":3732,"bio":3733,"Ġsiglo":3734,"Ġtasa":3735,"ĠTa":3736,"Ġfen":3737,"Ġdemostr":3738,"ĠdemÃ¡s":3739,"Ġll":3740,"Ġrepe":3741,"Ġfer":3742,"Ġdiversos":3743,"aceta":3744,"ĠLey":3745,"torial":3746,"Ġsatisfac":3747,"ĠHab":3748,"clusiones":3749,"Ġelementos":3750,"imer":3751,"cripciÃ³n":3752,"Ġtrasl":3753,"Ġsigue":3754,"orÃŃas":3755,"85":3756,"rido":3757,"Ġcierto":3758,"Ġespecialistas":3759,"Ġmenci":3760,"Ġhepa":3761,"ĠImp":3762,"Ġacciones":3763,"Ġ2011":3764,"Ã¡cter":3765,"Ġdeterminar":3766,"Ġriesgos":3767,"ĠprotecciÃ³n":3768,"ecre":3769,"Ġestamos":3770,"ĠespaÃ±ol":3771,"GO":3772,"osin":3773,"Ġcardiaca":3774,"Ġpublicado":3775,"ĠNue":3776,"dimiento":3777,"Ġluch":3778,"Ġindica":3779,"Ġperten":3780,"olid":3781,"amientos":3782,"Ġhablar":3783,"Ġdeman":3784,"Ġjug":3785,"ICO":3786,"ĠperÃŃodo":3787,"Ġtuvo":3788,"Ġ45":3789,"pez":3790,"Ġbra":3791,"Ġestructura":3792,"paciÃ³n":3793,"Ã¡ticos":3794,"ieren":3795,"arlo":3796,"macia":3797,"In":3798,"ĠIII":3799,"ĠAle":3800,"ĠUniversitario":3801,"Ġescuch":3802,"Ġerr":3803,"Ġhospitales":3804,"Ġparticipantes":3805,"Ġhig":3806,"Qu":3807,"pica":3808,"Ġconsecuencia":3809,"tida":3810,"ĠvÃ³mi":3811,"ĠSocial":3812,"Ġrit":3813,"Ġmit":3814,"ĠenergÃŃa":3815,"ĠdÃ©c":3816,"ĠGonz":3817,"estes":3818,"Ġcomunic":3819,"rana":3820,"Ġprincipalmente":3821,"ĠConsejo":3822,"au":3823,"ĠdaÃ±o":3824,"titud":3825,"60":3826,"Ġglobal":3827,"Ġrecibir":3828,"Ġexcel":3829,"Ġcif":3830,"MS":3831,"Ġaire":3832,"Ġâ":3833,"Ġ2013":3834,"Ġrecomendaciones":3835,"ĠAsimismo":3836,"Ġausencia":3837,"su":3838,"zÃ³":3839,"ĠIs":3840,"Ġeuro":3841,"Ġ2008":3842,"domen":3843,"estar":3844,"Ã³lico":3845,"adoras":3846,"Ġhttp":3847,"ientes":3848,"ĠestÃ©":3849,"reg":3850,"',":3851,"ĠDer":3852,"Ġhist":3853,"uido":3854,"IB":3855,"uyen":3856,"ĠcarÃ¡cter":3857,"drÃŃ":3858,"Ġbor":3859,"Ġrevista":3860,"ĠorganizaciÃ³n":3861,"Ġacerca":3862,"Ã©rg":3863,"UR":3864,"ampo":3865,"??":3866,"Ġsim":3867,"Ġobstante":3868,"Ġpati":3869,"Ġfunciones":3870,"Ġrepresent":3871,"Ġentren":3872,"tuales":3873,"Ġgrasa":3874,"ivas":3875,"mite":3876,"dl":3877,"Ġelectro":3878,"Ġcorporal":3879,"guen":3880,"Ġaumenta":3881,"Ġempresa":3882,"Ġdro":3883,"quieren":3884,"Ġrequiere":3885,"Ġperf":3886,"Ġcirc":3887,"Ġprecoz":3888,"Ġresulta":3889,"ĠRa":3890,"ĠAg":3891,"mÃ¡genes":3892,"Ġtrabajar":3893,"zan":3894,"Ġproteg":3895,"Ġmayo":3896,"esor":3897,"Ġlibro":3898,"Ġhizo":3899,"ĠTC":3900,"Ġinyec":3901,"Ġlleg":3902,"ografÃŃa":3903,"ĠexploraciÃ³n":3904,"Ġdiar":3905,"Ġdici":3906,"ĠpequeÃ±os":3907,"VI":3908,"merg":3909,"lazan":3910,"matologÃŃa":3911,"Ġfamilias":3912,"Ġpartes":3913,"Ġtemas":3914,"Ġpasar":3915,"Ġ2015":3916,"Ġasociado":3917,"ĠEstudio":3918,"rane":3919,"Ġprincipio":3920,"Ġninguna":3921,"Ġapoy":3922,"Ġmiembro":3923,"Ġede":3924,"Ġub":3925,"Ġpositivo":3926,"Ġfuerza":3927,"viembre":3928,"cciÃ³n":3929,"Ġencar":3930,"metro":3931,"Ġresponsable":3932,"ĠdetecciÃ³n":3933,"pens":3934,"cardi":3935,"81":3936,"Ġprovin":3937,"Ġsenci":3938,"Ġq":3939,"ĠEduc":3940,"ĠpatologÃŃas":3941,"ĠEsc":3942,"Ġproyectos":3943,"ĠcientÃŃficos":3944,"Ġjunio":3945,"Ġempresas":3946,"Ġmovimiento":3947,"nal":3948,"Ġcerca":3949,"Ġincremento":3950,"Ġestablecer":3951,"ĠAcu":3952,"Ġinterpre":3953,"ĠPÃºblica":3954,"ĠpequeÃ±o":3955,"Ġlaboratorio":3956,"ĠJa":3957,"ĠenseÃ±":3958,"ĠtenÃŃan":3959,"Ġinicial":3960,"Ġasociada":3961,"ĠutilizaciÃ³n":3962,"35":3963,"Ġmarc":3964,"ate":3965,"Ġeuros":3966,"Ġ2014":3967,"Ġpop":3968,"ĠposiciÃ³n":3969,"americ":3970,"Ġrecuer":3971,"cera":3972,"ĠEstado":3973,"uestra":3974,"Ġprotoc":3975,"Ġapre":3976,"cler":3977,"rosis":3978,"Ġpasa":3979,"Ġconocimientos":3980,"Ġproba":3981,"rÃ³":3982,"TP":3983,"Ġrepresenta":3984,"Ġadministra":3985,"ale":3986,"EG":3987,"ĠPrimaria":3988,"Ġepidemi":3989,"ĠelectrÃ³n":3990,"Ġenero":3991,"idores":3992,"Ġ2007":3993,"esta":3994,"ĠColom":3995,"Ġvacuna":3996,"ficaz":3997,"ĠOn":3998,"Ġnas":3999,"Ġidentificar":4000,"ĠCrea":4001,"acetamol":4002,"Ġobjeto":4003,"ĠVer":4004,"ĠYo":4005,"ĠRu":4006,"Ġusar":4007,"alizados":4008,"ance":4009,"Ġunidad":4010,"Ġdiciembre":4011,"----":4012,"ĠEstas":4013,"Ġfem":4014,"Ġesfuerzo":4015,"vera":4016,"Ġpin":4017,"Ġneur":4018,"Ġvolumen":4019,"ĠVP":4020,"aja":4021,"Ġ2006":4022,"ultades":4023,"quiera":4024,"ĠHer":4025,"milares":4026,"Ġdig":4027,"Ġdescub":4028,"Ġfecha":4029,"Ġlum":4030,"Ġpareja":4031,"Ġtercer":4032,"CA":4033,"Ġcm":4034,"ĠSistema":4035,"Ġenlazan":4036,"Ġdisnea":4037,"ricular":4038,"tricos":4039,"ĠLeucocitos":4040,"meros":4041,"Ġrecord":4042,"Ġdeterior":4043,"tible":4044,"ĠÂ¡":4045,"ĠÃºnica":4046,"ĠLuis":4047,"osinÃ³filos":4048,"blo":4049,"ĠdiseÃ±":4050,"Ġingesta":4051,"Ġambas":4052,"poso":4053,"Ġasi":4054,"ĠimÃ¡genes":4055,"Ġtales":4056,"ENTE":4057,"71":4058,"Ġcerv":4059,"ptiembre":4060,"].":4061,"ĠCOVID":4062,"Ġutiliza":4063,"Ġ75":4064,"ĠMÃ¡s":4065,"and":4066,"ĠDEL":4067,"ĠAnte":4068,"Ġlimp":4069,"Ġpermitir":4070,"Ġ48":4071,"ĠQue":4072,"ty":4073,"ology":4074,"www":4075,"ĠGr":4076,"Ġpredomin":4077,"Ġidea":4078,"ĠinflamaciÃ³n":4079,"ĠhabÃŃan":4080,"ĠDa":4081,"ese":4082,"Ġdefini":4083,"Ġmarzo":4084,"ĠInternacional":4085,"cr":4086,"diÃ¡":4087,"NA":4088,"OG":4089,"Ġfon":4090,"aciÃ³":4091,"miso":4092,"Ġindependiente":4093,"ĠtecnologÃŃa":4094,"Ġcolabor":4095,"Ġsuelen":4096,"ĠAdminis":4097,"DE":4098,"Ġresistencia":4099,"ork":4100,"Ġinterior":4101,"Ġeurope":4102,"Ġestoy":4103,"dizaje":4104,"Ġasociados":4105,"Ġpreocup":4106,"ÃŃdo":4107,"Ġdiversas":4108,"Ġsuperficie":4109,"Ã¡lez":4110,"blio":4111,"ĠpresentaciÃ³n":4112,"Ġbol":4113,"Ġconven":4114,"RE":4115,"Ġconsiste":4116,"Ġpose":4117,"icular":4118,"Ġagra":4119,"Ġojos":4120,"tod":4121,"ĠMuch":4122,"Ġevolu":4123,"Ġinvas":4124,"PT":4125,"ĠmmHg":4126,"ĠGrupo":4127,"Ġseleccion":4128,"ÃŃtico":4129,"drÃŃguez":4130,"ĠcampaÃ±":4131,"Ġpulm":4132,"Ġdificultad":4133,"SA":4134,"PA":4135,"Ġ32":4136,"ĠAnton":4137,"Ġtur":4138,"34":4139,"ĠquÃŃ":4140,"ĠdistribuciÃ³n":4141,"enas":4142,"copia":4143,"Ġdomicilio":4144,"Ãł":4145,"ĠDoc":4146,"Ġeficaz":4147,"ĠCongreso":4148,"Ġcontiene":4149,"inec":4150,"uesta":4151,"Ġpuedes":4152,"ĠNavarra":4153,"ĠediciÃ³n":4154,"ĠcomparaciÃ³n":4155,"Ġ2016":4156,"Ġincluyen":4157,"Ġperfec":4158,"triz":4159,"Ġoctubre":4160,"ĠProf":4161,"ĠÃ³rganos":4162,"ĠEspeci":4163,"Ġple":4164,"Ġrelev":4165,"ĠtÃ³rax":4166,"ĠMujer":4167,"Ġbilateral":4168,"ĠmedicaciÃ³n":4169,"Ġmanifies":4170,"Ġbe":4171,"Ġale":4172,"Ġepisodios":4173,"Ġverdad":4174,"ĠhÃŃ":4175,"Ġbal":4176,"Ġinsulina":4177,"Ġdeclar":4178,"Ã³pez":4179,"Ġrespe":4180,"TER":4181,"izada":4182,"Ġaument":4183,"UM":4184,"Ġpelig":4185,"Ġenfermos":4186,"Ġraz":4187,"Ġvitamina":4188,"95":4189,"Ġdud":4190,"Ġprocedimientos":4191,"Ġmuc":4192,"cons":4193,"Ġsensibilidad":4194,"Ã©is":4195,"Ġtrabajos":4196,"Ġdepres":4197,"Ġsupone":4198,"Ġprofesor":4199,"Ġhabl":4200,"Ġpudi":4201,"Ġmuscular":4202,"Ġhaciendo":4203,"Ġequipos":4204,"ÃįA":4205,"ĠfÃ¡rmaco":4206,"Ġlograr":4207,"Ġequ":4208,"Ġobra":4209,"ins":4210,"ĠalteraciÃ³n":4211,"Ġderechos":4212,"Ġ2005":4213,"ianza":4214,"Ġsignificativa":4215,"ĠEosinÃ³filos":4216,"Ġmac":4217,"Ġeleg":4218,"ÂŃ":4219,"ĠartÃŃculos":4220,"Ġleche":4221,"Ġmitad":4222,"Ġmovil":4223,"Ġvisita":4224,"Ġmemor":4225,"Ġobserva":4226,"tritis":4227,"ĠhÃ¡bitos":4228,"%),":4229,"Ġfro":4230,"Ġciclo":4231,"Ġambiente":4232,"Ġrepor":4233,"Ġresponsa":4234,"Ġabril":4235,"ure":4236,"Ġjo":4237,"Ġetapa":4238,"90":4239,"ms":4240,"fia":4241,"osfa":4242,"ĠneurolÃ³g":4243,"ĠPh":4244,"Ġcoleg":4245,"ĠPARA":4246,"aliza":4247,"Ġconsum":4248,"Ġinnov":4249,"Ġmencion":4250,"jan":4251,"Ġcrea":4252,"Ã¡nica":4253,"Ġarri":4254,"Ġrelacionadas":4255,"ori":4256,"Ġhues":4257,"Ġmasa":4258,"ĠÃŃndice":4259,"Ġdesemp":4260,"cus":4261,"Ġsustancias":4262,"Ġinhib":4263,"Ġsurg":4264,"Ġves":4265,"Ġproducen":4266,"Ġcefal":4267,"Ġsimilares":4268,"Ġregular":4269,"Ġ65":4270,"ĠGluc":4271,"Ġmateri":4272,"Ġcomportamiento":4273,"Ġtel":4274,"Ġmuestras":4275,"ende":4276,"ĠRx":4277,"ug":4278,"Ġrecono":4279,"sal":4280,"ĠIV":4281,"Ġtest":4282,"cle":4283,"amma":4284,"Ġpsi":4285,"Ġfoto":4286,"ĠBil":4287,"Ġactiva":4288,"Ġmateria":4289,"ucle":4290,"are":4291,"Ġsir":4292,"vasculares":4293,"ĠRodrÃŃguez":4294,"Ġresi":4295,"01":4296,"ĠGonzÃ¡lez":4297,"Ġlpm":4298,"Ġfuncionamiento":4299,"ÃŃstico":4300,"ĠmÃ¡ximo":4301,"Ġcompleto":4302,"ĠtorÃ¡ci":4303,"Ġtejidos":4304,"Ġintervenciones":4305,"Ġexp":4306,"TIV":4307,"Ġado":4308,"Ġcreo":4309,"LE":4310,"Ġmetabol":4311,"Ġrece":4312,"uello":4313,"unci":4314,"tagon":4315,"ĠrazÃ³n":4316,"iega":4317,"Ġincrement":4318,"quir":4319,"Ġexistencia":4320,"ĠtodavÃŃa":4321,"IP":4322,"tÃ¡s":4323,"mic":4324,"ĠComunidad":4325,"atologÃŃa":4326,"Ġbastante":4327,"Ġtenga":4328,"via":4329,"Ġpropie":4330,"Ġexig":4331,"Ġocurre":4332,"ampoco":4333,"ĠLDH":4334,"prof":4335,"efe":4336,"Ġvascular":4337,"Ġpreten":4338,"ĠPers":4339,"37":4340,"Ġduda":4341,"acer":4342,"Ġagres":4343,"Ġsabe":4344,"LA":4345,"Ġvolver":4346,"zadas":4347,"Ġhumana":4348,"Ġfle":4349,"Ġnoviembre":4350,"etas":4351,"omo":4352,"Ġestrategias":4353,"ello":4354,"Ġconocido":4355,"Ġtratados":4356,"Ġojo":4357,"ĠDel":4358,"itÃ©":4359,"GT":4360,"ĠCardi":4361,"Ġcompeten":4362,"Ġespon":4363,"ml":4364,"Ġquiere":4365,"Ġsepar":4366,"45":4367,"uerra":4368,"ĠvÃ³mitos":4369,"Ġperif":4370,"ÃŃes":4371,"Ãģ":4372,"Ãºsque":4373,"ĠTor":4374,"ix":4375,"ĠCreatinina":4376,"utriciÃ³n":4377,"Ġconoce":4378,"demia":4379,"Ġensayos":4380,"Ġdirectamente":4381,"Ġvin":4382,"ĠControl":4383,"Ġmuestran":4384,"daje":4385,"ĠDolor":4386,"Ġmunicip":4387,"Ġben":4388,"Ġrev":4389,"Ġsupervivencia":4390,"Ġjulio":4391,"gias":4392,"ĠSus":4393,"Ġgenes":4394,"ĠCiencias":4395,"ĠFin":4396,"matos":4397,"ĠLÃ³pez":4398,"ĠTh":4399,"iga":4400,"Ġcoles":4401,"ĠDepartamento":4402,"Ġencontra":4403,"Ġescala":4404,"Ġnumeros":4405,"ĠÃ©po":4406,"Ġemocional":4407,"irru":4408,"Ġacum":4409,"Ġespecies":4410,"col":4411,"Ġenfr":4412,"ĠSol":4413,"ilo":4414,"ĠpolÃŃtica":4415,"Ġjorn":4416,"Ġcompos":4417,"ĠAR":4418,"Ġcelular":4419,"ĠFamil":4420,"Ġhip":4421,"Ġafebril":4422,"Ġpalabras":4423,"Ġsentir":4424,"ĠÃ¡n":4425,"Ġenci":4426,"Ġcru":4427,"ĠPOR":4428,"ĠPu":4429,"Ġtendencia":4430,"Ġdecisiones":4431,"ĠOs":4432,"Ġespera":4433,"Ġtemperatura":4434,"Ã©p":4435,"ner":4436,"Ġcontar":4437,"Ġsecundarios":4438,"Ġseptiembre":4439,"Ġusuarios":4440,"Ġ39":4441,"Ġfel":4442,"ive":4443,"Ġunidades":4444,"Ġinflama":4445,"habilitaciÃ³n":4446,"Ġacudir":4447,"Ġtabaco":4448,"Ġmantiene":4449,"Ġcontrolar":4450,"tamos":4451,"teria":4452,"Ġcircun":4453,"Ġretir":4454,"ĠdirecciÃ³n":4455,"Ġequilib":4456,"ĠCD":4457,"Ġmercado":4458,"Ġmucha":4459,"Ġ2017":4460,"Ġirri":4461,"tasa":4462,"Ġrepar":4463,"ĠanalÃŃtica":4464,"Ġseg":4465,"Ġaparece":4466,"ĠproteÃŃna":4467,"puestos":4468,"Ġcomplement":4469,"Ġinforma":4470,"Ã³mica":4471,"Ġcuyo":4472,"cipios":4473,"ĠObserv":4474,"Ġincluyendo":4475,"ĠColeg":4476,"ilaciÃ³n":4477,"ĠTer":4478,"bal":4479,"Ġclase":4480,"ĠcientÃŃfico":4481,"Ġdefec":4482,"Ã©ndose":4483,"Ġhin":4484,"Ġaprendizaje":4485,"ĠbebÃ©":4486,"ĠquirÃºrgica":4487,"ĠColombia":4488,"tarÃŃa":4489,"Ġnuestras":4490,"cidas":4491,"Ġdan":4492,"Ġritmo":4493,"Ġdemas":4494,"Ġanteriores":4495,"Ġurin":4496,"Ġdol":4497,"Ġdetectar":4498,"Ġfisio":4499,"Ġseguro":4500,"Ġfuerte":4501,"Ġsuce":4502,"31":4503,"Ġpreviamente":4504,"Ġbil":4505,"Ġpresentado":4506,"ĠcombinaciÃ³n":4507,"Ġcapaci":4508,"Ġdeterioro":4509,"TES":4510,"Ġestilo":4511,"Ġrequer":4512,"Ġdiferente":4513,"32":4514,"Ġic":4515,"ĠNeg":4516,"ebo":4517,"omÃ©":4518,"Ġ2000":4519,"Ġmeta":4520,"Ġprimeras":4521,"87":4522,"ira":4523,"Ġfab":4524,"Ġbueno":4525,"ĠLin":4526,"Ġsor":4527,"ĠbÃºsque":4528,"Ġcomunes":4529,"Ġidenti":4530,"ĠvÃŃas":4531,"Ġmundial":4532,"Ġregres":4533,"ok":4534,"Ġcuestion":4535,"ĠClin":4536,"Ġabsor":4537,"Ġenvi":4538,"Ġsujetos":4539,"Ġactivo":4540,"Ã©rez":4541,"ĠDespuÃ©s":4542,"glÃ©s":4543,"Ġmarco":4544,"irrubina":4545,"ĠAh":4546,"ĠdiseÃ±o":4547,"Ġcro":4548,"istir":4549,"02":4550,"ĠPotasio":4551,"Ġnegativo":4552,"heimer":4553,"ĠpronÃ³stico":4554,"ĠResultados":4555,"ĠAlb":4556,"mad":4557,"TRA":4558,"Ġaquellas":4559,"ĠGal":4560,"Ġtrabajadores":4561,"Ġfas":4562,"Ġhidro":4563,"tologÃŃa":4564,"activa":4565,"Ġenfo":4566,"ĠgÃ©nero":4567,"ĠlÃŃquido":4568,"Ġpractic":4569,"94":4570,"Ġhidra":4571,"Ġrecuper":4572,"Ġciencia":4573,"Ġparto":4574,"Ãºcar":4575,"Ġpadre":4576,"ĠBa":4577,"Ġ2004":4578,"Ġsignificativas":4579,"Ġsocio":4580,"Ġcontrario":4581,"Ġagudo":4582,"Ġrecog":4583,"cusiÃ³n":4584,"Ġby":4585,"ĠRad":4586,"baciÃ³n":4587,"No":4588,"Ġeventos":4589,"didas":4590,"ĠAntonio":4591,"imi":4592,"Ġpsico":4593,"Ġinfil":4594,"QU":4595,"clerosis":4596,"yn":4597,"Ġepisodio":4598,"jecimiento":4599,"Ġofrecer":4600,"Ġcuello":4601,"minaciÃ³n":4602,"Ġtrauma":4603,"Ġpuer":4604,"Ã¡ticas":4605,"Ġtempor":4606,"Ġcapit":4607,"ÃŃamos":4608,"____":4609,"Ġanticuer":4610,"Ġmecanismos":4611,"Ġtox":4612,"Ġaden":4613,"Ġsecu":4614,"guien":4615,"Ġdisfru":4616,"Ġveg":4617,"ĠSodio":4618,"Ġentrada":4619,"ĠRE":4620,"Ġdiges":4621,"AB":4622,"ĠafectaciÃ³n":4623,"zheimer":4624,"ĠconcentraciÃ³n":4625,"Ġindividuos":4626,"AU":4627,"Ġprevios":4628,"piraciÃ³n":4629,"Ġdisminuir":4630,"Ġ).":4631,"Ġdestaca":4632,"Ġdoble":4633,"Ġcolo":4634,"Ġaudi":4635,"ĠcontinuaciÃ³n":4636,"cla":4637,"Ġpreguntas":4638,"Ġdesen":4639,"ÃŃda":4640,"ĠMartÃŃnez":4641,"Ġpatients":4642,"ĠReal":4643,"quilo":4644,"alo":4645,"Ã²":4646,"Ġposteriormente":4647,"Con":4648,"ĠpH":4649,"Ġestrategia":4650,"ticia":4651,"tista":4652,"Ġpotenci":4653,"ka":4654,"hat":4655,"Ġflujo":4656,"inci":4657,"Ġdestin":4658,"osos":4659,"ĠHum":4660,"Ġplanta":4661,"Ġconstr":4662,"chez":4663,"ĠMic":4664,"Ġfran":4665,"Ġclin":4666,"Ġcrear":4667,"09":4668,"ĠpodrÃ¡":4669,"ĠrecuperaciÃ³n":4670,"Ġconsecuencias":4671,"Ġcuya":4672,"Ã©ticas":4673,"ĠSÃŃn":4674,"Ġcomida":4675,"Ġteniendo":4676,"Ġesas":4677,"Ġsil":4678,"Ġmodelos":4679,"como":4680,"ĠIM":4681,"ĠRD":4682,"Ġcorte":4683,"Ġcarb":4684,"ĠECG":4685,"ĠGlucosa":4686,"lia":4687,"ĠEnfermedades":4688,"Ġaban":4689,"Ġamor":4690,"ĠEP":4691,"matÃŃes":4692,"Ġacab":4693,"Ġllegada":4694,"tima":4695,"Ġdebemos":4696,"Ġcomba":4697,"Ġcomprende":4698,"ĠFeder":4699,"ĠMedic":4700,"Ġdias":4701,"tizar":4702,"Ġcapaz":4703,"ĠAp":4704,"Ġcolesterol":4705,"didos":4706,"micas":4707,"ÃŃr":4708,"Ġutilizado":4709,"Ġvag":4710,"Ġpresentes":4711,"ĠPrograma":4712,"olver":4713,"IT":4714,"Ġov":4715,"07":4716,"ĠOrganizaciÃ³n":4717,"ht":4718,"tarios":4719,"Ġsecundaria":4720,"ll":4721,"Ġcarrera":4722,"Ġqueda":4723,"Ġfebrero":4724,"Ġcorrecta":4725,"QuÃ©":4726,"Ġ--":4727,"Ãī":4728,"88":4729,"ĠHealth":4730,"Ġconvo":4731,"39":4732,"Ġ2018":4733,"Ġ2019":4734,"ĠÃ©ste":4735,"ĠVar":4736,"Ġinstituciones":4737,"ris":4738,"100":4739,"Ġtrasplante":4740,"ĠHD":4741,"itarios":4742,"uno":4743,"tudy":4744,"dena":4745,"ĠexpresiÃ³n":4746,"uria":4747,"Ġmismas":4748,"Ġconsultas":4749,"ĠrÃ¡pida":4750,"Ã¡us":4751,"ĠCloro":4752,"Ġinvestigaciones":4753,"ĠAB":4754,"Ġempleo":4755,"Ġcompromiso":4756,"ĠPÃ©rez":4757,"Ġmemoria":4758,"Ġcita":4759,"Ġbro":4760,"Ġgeneralmente":4761,"Ġdiferenci":4762,"ses":4763,"eral":4764,"Ġintestinal":4765,"Ġdificultades":4766,"taur":4767,"ĠbÃºsqueda":4768,"Ġnecesaria":4769,"Ġacces":4770,"Ġbuscar":4771,"ÃŃna":4772,"tox":4773,"ĠRev":4774,"ĠTodos":4775,"Ġentender":4776,"ĠHemoglobina":4777,"ĠazÃºcar":4778,"gin":4779,"Ġlan":4780,"Ġhon":4781,"Ġreacciones":4782,"Ġenz":4783,"uelas":4784,"tent":4785,"ÃŃculo":4786,"ĠMÃ©dico":4787,"Ġadversos":4788,"ere":4789,"Ġpredic":4790,"ĠCre":4791,"ÃŃos":4792,"mens":4793,"Ġexamen":4794,"ĠdeberÃŃa":4795,"olos":4796,"Ġdep":4797,"Ġtradici":4798,"Ġpermiten":4799,"Ġaur":4800,"tim":4801,"ĠopciÃ³n":4802,"Ġdesempe":4803,"Ġaplicar":4804,"ogrÃ¡":4805,"Ġrealizan":4806,"Ġboca":4807,"Ġdiaria":4808,"Ġcompr":4809,"Ġprincipios":4810,"ĠMed":4811,"socia":4812,"Ġlon":4813,"Ġrecor":4814,"Ġpedia":4815,"Ġmenudo":4816,"ideo":4817,"umir":4818,"ort":4819,"Ġcargo":4820,"fon":4821,"ĠBio":4822,"tromb":4823,"Ġagr":4824,"ĠinglÃ©s":4825,"tuvo":4826,"Ġmonitor":4827,"ĠTen":4828,"ĠNi":4829,"rales":4830,"Ġsitio":4831,"ĠMay":4832,"tata":4833,"Ġrar":4834,"Ġ2003":4835,"Ġdila":4836,"Ġexcl":4837,"Ã³sito":4838,"ĠEE":4839,"ĠServicios":4840,"Ġextrem":4841,"yos":4842,"pal":4843,"mm":4844,"ĠmÃ³":4845,"Ġconducta":4846,"Ġmez":4847,"Ġcarga":4848,"gaciÃ³n":4849,"Ġger":4850,"Ġapara":4851,"ĠSU":4852,"ĠActualmente":4853,"44":4854,"Ã³lisis":4855,"ilancia":4856,"%).":4857,"Ġcoloc":4858,"ĠcreaciÃ³n":4859,"cardio":4860,"ant":4861,"ĠSur":4862,"entina":4863,"Ġnego":4864,"curso":4865,"Ġcumpli":4866,"Ġmolec":4867,"ĠAlcal":4868,"Ġnor":4869,"Ġwas":4870,"mill":4871,"ĠEducaciÃ³n":4872,"Ġafirm":4873,"Ġinvers":4874,"idamente":4875,"Ġblog":4876,"Ġmir":4877,"Ġguar":4878,"ĠUNA":4879,"Ġpocos":4880,"Ġalcanzar":4881,"amb":4882,"Ġretras":4883,"mera":4884,"Ġpg":4885,"Ġcambiar":4886,"Ġnorma":4887,"RC":4888,"ĠAna":4889,"Ġaltas":4890,"Ġquimio":4891,"Ġcomprimido":4892,"ĠpequeÃ±a":4893,"Ġanalizar":4894,"Ġvisto":4895,"asas":4896,"Ġgastro":4897,"Ġfra":4898,"ĠChile":4899,"gosto":4900,"ĠÃ©poca":4901,"Ġdecide":4902,"Ġantigu":4903,"Ġ500":4904,"Ġpropon":4905,"Ġlitera":4906,"idez":4907,"ĠGracias":4908,"matocrito":4909,"Ġabord":4910,"Ġinvol":4911,"ĠPen":4912,"Ġrevel":4913,"Ġinterna":4914,"ĠcondiciÃ³n":4915,"cinoma":4916,"Ġreper":4917,"Ġpensar":4918,"Se":4919,"trÃ³":4920,"Ġpuntu":4921,"pra":4922,"tilidad":4923,"Ġprolon":4924,"Ġrealmente":4925,"ĠdecisiÃ³n":4926,"Ġbacterias":4927,"ĠFacultad":4928,"ĠAy":4929,"ĠprÃ¡cticas":4930,"ĠHoy":4931,"trop":4932,"Ġtransf":4933,"Ġalguien":4934,"Ġgrande":4935,"Ġisqu":4936,"ĠparÃ¡":4937,"ĠAlzheimer":4938,"ĠCatal":4939,"Ġrodi":4940,"06":4941,"Ġafectados":4942,"Ġllamado":4943,"ĠtransmisiÃ³n":4944,"echos":4945,"Ġdiarrea":4946,"Ġexpec":4947,"Ġaconse":4948,"ĠahÃŃ":4949,"Ġsospecha":4950,"Ġprecisa":4951,"Ġnad":4952,"Ġmetod":4953,"Ġconstante":4954,"ĠfenÃ³m":4955,"Ġprote":4956,"ĠPr":4957,"Ġcontras":4958,"dieron":4959,"ian":4960,"ĠYa":4961,"ĠCada":4962,"Ġconocida":4963,"eca":4964,"Ġpropiedades":4965,"asis":4966,"Ġhemodin":4967,"Ġayer":4968,"ĠInfec":4969,"ĠPlaquetas":4970,"Ġexces":4971,"ĠÃ³sea":4972,"Ġtiro":4973,"ĠserÃ¡n":4974,"Ġimple":4975,"Ġprevent":4976,"Ġosteo":4977,"Ġpotencial":4978,"ĠespaÃ±ola":4979,"Ġagre":4980,"ĠpalpaciÃ³n":4981,"UC":4982,"Ã¡nchez":4983,"hn":4984,"ĠcuÃ¡l":4985,"ĠopiniÃ³n":4986,"lig":4987,"ocia":4988,"Ġelevada":4989,"ĠEuropea":4990,"ĠTrabaj":4991,"Ġutilizando":4992,"usia":4993,"Ġrespectivamente":4994,"Ġherramienta":4995,"tiro":4996,"Ġintensidad":4997,"Ġorigin":4998,"Ġdesapar":4999,"ieza":5000,"ĠTratamiento":5001,"Ġmotiv":5002,"pico":5003,"ĠPuede":5004,"Ġconvenci":5005,"Ġagentes":5006,"Ġras":5007,"ĠselecciÃ³n":5008,"ĠreciÃ©n":5009,"hidra":5010,"ĠFernÃ¡ndez":5011,"ĠpequeÃ±as":5012,"ariamente":5013,"ĠAM":5014,"PR":5015,"ĠEvalu":5016,"Ġherman":5017,"Ġnaturaleza":5018,"Ġdec":5019,"ĠMig":5020,"56":5021,"tificaciÃ³n":5022,"ĠpolÃŃticas":5023,"iene":5024,"ĠGo":5025,"Ġrecibido":5026,"ĠCab":5027,"jero":5028,"ĠFA":5029,"erra":5030,"tiendo":5031,"ĠPri":5032,"ĠDM":5033,"Ġtienes":5034,"plic":5035,"Ġexten":5036,"Ġmiedo":5037,"Ġonc":5038,"INA":5039,"ĠTran":5040,"Ġemerg":5041,"ĠPas":5042,"Ġasistencial":5043,"ĠFrancis":5044,"Ġconcepto":5045,"Ġenve":5046,"ĠObje":5047,"Ġsaludable":5048,"08":5049,"Ġexclus":5050,"Ġconfianza":5051,"Ġprefer":5052,"ki":5053,"ĠTRA":5054,"posiciones":5055,"ĠEmp":5056,"Ġsignific":5057,"ficit":5058,"Ġprior":5059,"ĠFue":5060,"Ġorg":5061,"ĠSat":5062,"Ġrecibi":5063,"mentaciÃ³n":5064,"ivamente":5065,"Ġdesarrollado":5066,"Ġintegral":5067,"Ġmig":5068,"gal":5069,"Ġelabor":5070,"Ġcomunidades":5071,"Ġfuente":5072,"resis":5073,"Ġ&":5074,"ĠÃī":5075,"Ġrep":5076,"ĠDra":5077,"Ġpositiva":5078,"Ġcomponentes":5079,"Ġang":5080,"Ġvivir":5081,"ben":5082,"eso":5083,"Ġclara":5084,"48":5085,"ĠAnal":5086,"ete":5087,"Ġoportunidad":5088,"ĠreacciÃ³n":5089,"IG":5090,"Ã§Ã£o":5091,"tipo":5092,"Ġasma":5093,"Ġiniciativa":5094,"tol":5095,"Ġplata":5096,"ET":5097,"Ġeliminar":5098,"Cu":5099,"Ġcoste":5100,"ĠhÃŃgado":5101,"OD":5102,"ĠBilirrubina":5103,"Ġfalle":5104,"ĠprÃ³ximo":5105,"Ġasocia":5106,"ĠPsic":5107,"ĠgenÃ©tica":5108,"tÃºa":5109,"Ġmaterna":5110,"IZ":5111,"ĠAmeric":5112,"Ġauton":5113,"Ġocup":5114,"ĠcampaÃ±a":5115,"Ġaceite":5116,"Ġverda":5117,"edades":5118,"ĠmÃºsica":5119,"HA":5120,"65":5121,"ĠVCM":5122,"Ġredes":5123,"ĠPedia":5124,"Ġempeor":5125,"ĠCur":5126,"Ġhacerlo":5127,"rÃŃa":5128,"ĠterapÃ©utica":5129,"Ġgobierno":5130,"Ġincluir":5131,"Ġlongi":5132,"Ġneo":5133,"Ġherramientas":5134,"Ġpersonales":5135,"ĠtÃ©rmino":5136,"Ġabund":5137,"ĠRES":5138,"Ġmolesti":5139,"Ġsufrir":5140,"Ġend":5141,"Ġ2002":5142,"umonÃŃa":5143,"Ġperspec":5144,"Ġacce":5145,"ĠantibiÃ³ticos":5146,"ang":5147,"ĠSanta":5148,"Ġmomentos":5149,"imas":5150,"Ġprobablemente":5151,"Ġplantas":5152,"discipl":5153,"Ġentidades":5154,"ĠquirÃºrgico":5155,"ĠDirecciÃ³n":5156,"RS":5157,"Ġconec":5158,"xil":5159,"virus":5160,"Ġadop":5161,"ĠHematÃŃes":5162,"ack":5163,"Ġrealizada":5164,"peu":5165,"ws":5166,"ĠArg":5167,"ĠSÃ¡nchez":5168,"Ġ),":5169,"ĠAlgunos":5170,"Ġviolencia":5171,"Ġdirecta":5172,"ĠHematocrito":5173,"lle":5174,"Ã³nica":5175,"ĠLab":5176,"121":5177,"Ġnorte":5178,"99":5179,"minos":5180,"we":5181,"ĠconstrucciÃ³n":5182,"Ġsangrado":5183,"dero":5184,"bercul":5185,"Ġbienestar":5186,"ĠÃ©sta":5187,"mias":5188,"ĠManuel":5189,"Ġvul":5190,"trÃ¡s":5191,"Ġcalcio":5192,"ERA":5193,"Ġfoc":5194,"Ġge":5195,"ĠEscuela":5196,"Ġhier":5197,"Ġjuego":5198,"Ġmoderada":5199,"esa":5200,"Ġdrogas":5201,"Ġinten":5202,"rique":5203,"Ã³rm":5204,"Ġdispositivo":5205,"tiago":5206,"Ġmemb":5207,"erÃŃa":5208,"Ġvelo":5209,"Ġï":5210,"Ġubic":5211,"cimientos":5212,"Ġhuman":5213,"ĠautÃ³n":5214,"Ġabandon":5215,"Ġlenguaje":5216,"Ġresponsabilidad":5217,"74":5218,"Ġdu":5219,"ĠDie":5220,"plastia":5221,"terales":5222,"Ġjoven":5223,"ĠÌ":5224,"Ġbases":5225,"ĠtÃŃ":5226,"ĠversiÃ³n":5227,"EA":5228,"Ġalarma":5229,"estesia":5230,"ĠHola":5231,"Ġpromedio":5232,"Ġcamino":5233,"quen":5234,"izados":5235,"Ġencima":5236,"ĠdeberÃ¡":5237,"ĠHis":5238,"Ġcorrel":5239,"Ġbeneficio":5240,"idor":5241,"isi":5242,"Ãºmina":5243,"tador":5244,"Ġllamada":5245,"Ġprovocar":5246,"ticiÃ³n":5247,"ella":5248,"tones":5249,"Ġregistro":5250,"tosis":5251,"Ġconsiderar":5252,"Ġglucosa":5253,"Ġprovincia":5254,"ĠVir":5255,"Ġespecie":5256,"Ġaliv":5257,"ĠHem":5258,"Ġtampoco":5259,"Ġentidad":5260,"Ġensayo":5261,"Ġvacunas":5262,"Ġanci":5263,"Ġgravedad":5264,"ines":5265,"Ġgal":5266,"Ġmarca":5267,"Ã³b":5268,"Ġinfarto":5269,"Ġamigos":5270,"amentos":5271,"vie":5272,"Ġangio":5273,"ĠALT":5274,"Ġcultura":5275,"Ġalumnos":5276,"Ġcircuns":5277,"Ġnaturales":5278,"Ġclasific":5279,"Ġposibilidades":5280,"Ġcoinci":5281,"ĠHTA":5282,"ĠcÃ¡l":5283,"Ġmecanismo":5284,"Ġmovimientos":5285,"Ġpregunta":5286,"Ġxmill":5287,"ĠPan":5288,"Ġdiario":5289,"ey":5290,"ĠOR":5291,"OP":5292,"ĠresoluciÃ³n":5293,"Ġavances":5294,"ĠRam":5295,"Ġrecl":5296,"arÃŃa":5297,"Ġarg":5298,"estaciones":5299,"Ġdio":5300,"Â».":5301,"Ã¡mica":5302,"73":5303,"ense":5304,"Ġvariable":5305,"Ġatrib":5306,"igue":5307,"Ġfron":5308,"tricas":5309,"omal":5310,"ĠpediÃ¡":5311,"deo":5312,"ĠpromociÃ³n":5313,"ĠAST":5314,"org":5315,"riendo":5316,"Ġpropios":5317,"Ġconjun":5318,"ĠIncl":5319,"tment":5320,"ragia":5321,"Ġexplicar":5322,"Ġconstituye":5323,"Ãºan":5324,"46":5325,"itales":5326,"Ġacad":5327,"Ġtransmi":5328,"Ġgrad":5329,"ĠHCM":5330,"bral":5331,"ĠReactiva":5332,"Ġnervioso":5333,"ĠExisten":5334,".:":5335,"ĠtendrÃ¡":5336,"ĠEM":5337,"Ġlongitud":5338,"ĠpÃ¡gina":5339,"Ġpuedo":5340,"enda":5341,"Ġobtenidos":5342,"Ġtengan":5343,"ĠelÃ©c":5344,"Ġterritorio":5345,"san":5346,"Ġliteratura":5347,"cop":5348,"ĠmÃŃnimo":5349,"Ġmantenimiento":5350,"ĠhepÃ¡tica":5351,"ĠDios":5352,"lor":5353,"Ġdesc":5354,"Ġgenerales":5355,"Ġestan":5356,"Ġincon":5357,"Ġdistal":5358,"Ġmmol":5359,"lando":5360,"ticoag":5361,"Ġgol":5362,"Ġafectar":5363,"ulado":5364,"Ġexpon":5365,"ADO":5366,"Ġindividual":5367,"ĠtÃŃtulo":5368,"Ġacto":5369,"remos":5370,"ĠGamma":5371,"ulaciones":5372,"meras":5373,"42":5374,"Ġvaso":5375,"Ġabsolu":5376,"ub":5377,"Ġpeor":5378,"ild":5379,"Ġmateriales":5380,"Ġestaban":5381,"Ġsoy":5382,"Ġhabla":5383,"Ġana":5384,"ĠHabana":5385,"Ġideas":5386,"Ġdepende":5387,"edi":5388,"Ġtotalmente":5389,"Ġfemen":5390,"Ġdestacar":5391,"ĠComisiÃ³n":5392,"Ġutilizan":5393,"ĠtÃ©rminos":5394,"Ġaparecen":5395,"ĠHiper":5396,"Ġorient":5397,"Ġdescan":5398,"Ġasociadas":5399,"Ã³rico":5400,"ĠallÃ¡":5401,"ĠsecciÃ³n":5402,"Ġrelacionado":5403,"ĠriÃ±":5404,"Ġexcep":5405,"CIA":5406,"Ġconcreto":5407,"Ġreserv":5408,"Ġutilidad":5409,"ĠLOS":5410,"69":5411,"Ġmala":5412,"ĠBasÃ³filos":5413,"Ġcorto":5414,"ĠespaÃ±oles":5415,"ĠÂ·":5416,"ĠespecÃŃficos":5417,"plasia":5418,"Ġcircul":5419,"Ġcoci":5420,"Ġparticipar":5421,"ĠFer":5422,"Ġsuple":5423,"Ġhabilidades":5424,"illas":5425,"osfatasa":5426,"ĠAhora":5427,"dÃ³n":5428,"patÃŃas":5429,"Ġcardiovasculares":5430,"Ġespecialidad":5431,"ĠADN":5432,"ĠMas":5433,"ogÃ©n":5434,"este":5435,"ĠSantiago":5436,"Ġapun":5437,"Ġdisponible":5438,"Ġhue":5439,"Ġ2001":5440,"Ġejercicios":5441,"Ġencuentro":5442,"ĠÂ±":5443,"Ġllega":5444,"Ġpone":5445,"opera":5446,"Ġevento":5447,"Ġdisponibles":5448,"ĠXX":5449,"Ġinvestigador":5450,"Ġcosa":5451,"tical":5452,"ĠvÃ¡l":5453,"ĠcardÃŃaca":5454,"ĠProteÃŃna":5455,"ĠcompaÃ±ÃŃa":5456,"Ġdiez":5457,"ĠIg":5458,"ĠFrancisco":5459,"Ġterapias":5460,"ĠdiÃ¡":5461,"ajas":5462,"tente":5463,"ĠpresentÃ³":5464,"Ġquin":5465,"ĠeconÃ³mica":5466,"ĠpulmÃ³n":5467,"Ġcausar":5468,"ĠrÃ¡pido":5469,"Ġelevado":5470,"58":5471,"ĠInterna":5472,"Ġconsolid":5473,"ĠVPM":5474,"ÃŃgeno":5475,"ĠRDW":5476,"acio":5477,"ĠActividad":5478,"mÃ¡ticas":5479,"Ġreposo":5480,"icales":5481,"Ġimpos":5482,"Ġviene":5483,"Ġanticuerpos":5484,"ĠHo":5485,"Ġvincul":5486,"Ġreconocimiento":5487,"Ġcolum":5488,"Ġsuperiores":5489,"gro":5490,"line":5491,"Ġvisual":5492,"ĠAmÃ©rica":5493,"ĠactuaciÃ³n":5494,"Ã³nico":5495,"ĠMiguel":5496,"arrollo":5497,"talm":5498,"ĠCHCM":5499,"Ġfisi":5500,"Ġexceso":5501,"ĠpatrÃ³n":5502,"Ġagosto":5503,"Ġimpuls":5504,"Ġpic":5505,"tistas":5506,"Ġllama":5507,"Ġgripe":5508,"Ġdivi":5509,"Ġrecha":5510,"GPT":5511,"ĠCiudad":5512,"Ġhepatitis":5513,"Ġsensi":5514,"Ġfol":5515,"Ġprecio":5516,"Ġprogram":5517,"Ġbre":5518,"78":5519,"anto":5520,"Ġdeporte":5521,"Ġrecurr":5522,"Ġsencil":5523,"Ġhealth":5524,"Ġrespuestas":5525,"Ġmanifes":5526,"Ġtasas":5527,"ĠJes":5528,"tria":5529,"55":5530,"ĠelecciÃ³n":5531,"mez":5532,"Ġinfancia":5533,"Ġsoporte":5534,"Ġnecesarios":5535,"Ġfigura":5536,"rios":5537,"organ":5538,"Ġcifras":5539,"Ġlactancia":5540,"Ġdeja":5541,"ĠSuper":5542,"far":5543,"Ġbiblio":5544,"ĠdisfunciÃ³n":5545,"Ġamplia":5546,"uelo":5547,".)":5548,"ficial":5549,"43":5550,"raneal":5551,"Ġconflic":5552,"Ġproporcion":5553,"Ġfom":5554,"Ġfortal":5555,"Ġhas":5556,"Ġnecesitan":5557,"IDA":5558,"ÃŃm":5559,"Ġnar":5560,"ICI":5561,"Ġotor":5562,"Ġ98":5563,"Ġreduce":5564,"Ġsosten":5565,"Ġaprov":5566,"**":5567,"Ġexperiencias":5568,"ĠOtros":5569,"Ġhema":5570,"ĠmolÃ©":5571,"ĠME":5572,"Ġ41":5573,"Ġcapital":5574,"Ġlista":5575,"tori":5576,"Ġperder":5577,"igna":5578,"rimiento":5579,"pto":5580,"ther":5581,"GOT":5582,"jes":5583,"Ġindustria":5584,"Ġnadie":5585,"Ġiniciar":5586,"Ġescuela":5587,"Ġinferiores":5588,"Ġciruj":5589,"ĠâĢĶ":5590,"ĠpublicaciÃ³n":5591,"cto":5592,"Ġobras":5593,"indic":5594,"Ġpresu":5595,"ĠparÃ¡metros":5596,"Ġestudiar":5597,"Ġsatur":5598,"fin":5599,"Ġdudas":5600,"Ġdemasiado":5601,"Ġfacilitar":5602,"ĠnutriciÃ³n":5603,"Â®":5604,"dental":5605,"Ġris":5606,"Ġfrom":5607,"pus":5608,"ans":5609,"Ġregistr":5610,"Ġdemanda":5611,"Ġpared":5612,"Ġvamos":5613,"Ġinfluencia":5614,"Ġasin":5615,"ĠcongÃ©n":5616,"Ġthat":5617,"ĠGer":5618,"Ġfarmacia":5619,"ĠcrÃ³nico":5620,"Ġperci":5621,"Ġconvier":5622,"TC":5623,"icina":5624,"Ġalea":5625,"Ġinternacionales":5626,"bro":5627,"Ġadher":5628,"ĠmÃºsculos":5629,"entemente":5630,"Ã³di":5631,"Ġtorno":5632,"ĠProteÃŃnas":5633,"Ġmiocardio":5634,"ds":5635,"ĠTri":5636,"ĠSÃŃndrome":5637,"Ġelemento":5638,"Ġ55":5639,"ĠpreparaciÃ³n":5640,"ĠÃºltimas":5641,"Ġbusca":5642,"rÃ¡n":5643,"ĠvacunaciÃ³n":5644,"Ġcontro":5645,"ĠterapÃ©utico":5646,"ĠguÃŃa":5647,"41":5648,"entalmente":5649,"imientos":5650,"Ġinmuno":5651,"Ġperit":5652,"ĠINR":5653,"ĠTodo":5654,"Ġcumplir":5655,"Ġanticoag":5656,"Ġstudy":5657,"ĠBer":5658,"ĠsintomatologÃŃa":5659,"Ġjornada":5660,"Ġconsultar":5661,"Ġhici":5662,"ĠseÃ±ala":5663,"Ġpendiente":5664,"49":5665,"ultura":5666,"ĠColegio":5667,"ĠDo":5668,"kg":5669,"Ġreca":5670,"Ġdescrip":5671,"hibi":5672,"Ġopciones":5673,"ĠelevaciÃ³n":5674,"Ġmel":5675,"Ġdinero":5676,"Ġem":5677,"Ġpoli":5678,"Â»,":5679,"Ġafectan":5680,"Ġocu":5681,"ĠValencia":5682,"Ġcandida":5683,"zca":5684,"ĠlÃŃneas":5685,"trombina":5686,"Ġcefalea":5687,"Ġescolar":5688,"Ġvasos":5689,"ĠRos":5690,"ĠclÃ¡s":5691,"Ġcomplejo":5692,"Ġdocumento":5693,"ĠmÃ¡xima":5694,"Ġpauta":5695,"ĠTrans":5696,"Ġmono":5697,"Ġesencial":5698,"Ġsexuales":5699,"ĠespecÃŃfico":5700,"Ġleer":5701,"Ġnutricional":5702,"Ġgasto":5703,"Ġ46":5704,"Ġprobabilidad":5705,"Ġprovoca":5706,"Ġrealizados":5707,"tasis":5708,"Ġimplica":5709,"Ġagrade":5710,"Ġingresos":5711,"siÃ³n":5712,"ĠCÃ¡ncer":5713,"Ġhog":5714,"Ġcancer":5715,"ĠalÃ©rg":5716,"tbol":5717,"art":5718,"Ġaprender":5719,"Ġ97":5720,"Ġregiones":5721,"Ġdens":5722,"profeno":5723,"Ġnegativa":5724,"Ġcomerci":5725,"arla":5726,"Ġarteri":5727,"Ġsalir":5728,"Ġresponsables":5729,"ĠComitÃ©":5730,"ices":5731,"tibles":5732,"Ġsesiones":5733,"Ġestructuras":5734,"robi":5735,"ĠdÃ©cada":5736,"ĠFosfatasa":5737,"Ġsupuesto":5738,"83":5739,"tidas":5740,"Ġenl":5741,"Ġdientes":5742,"ĠrehabilitaciÃ³n":5743,"SS":5744,"IF":5745,"ĠtÃ³x":5746,"Ġactuales":5747,"Ġcalor":5748,"xia":5749,"Ġwere":5750,"Ġabdomen":5751,"Ġsola":5752,"Ġcontenidos":5753,"Ġpartido":5754,"onato":5755,"ĠpelÃŃcula":5756,"...]":5757,"Ġlarga":5758,"Ġprevis":5759,"ĠtecnologÃŃas":5760,"dula":5761,"Ġfacial":5762,"urnal":5763,"Ã¡nico":5764,"Ġcontemp":5765,"Ġresid":5766,"ft":5767,"iel":5768,"forma":5769,"Ġleuc":5770,"Ġciertos":5771,"ĠgenÃ©tico":5772,"ĠdiagnÃ³sticos":5773,"tadores":5774,"Ġrelacionada":5775,"Ġmunicipio":5776,"Ġcromos":5777,"ĠEspecial":5778,"ĠLeÃ³n":5779,"Ġexcelente":5780,"minas":5781,"ruz":5782,"ĠAlcalina":5783,"Ġjur":5784,"Ġlugares":5785,"iro":5786,"Ġbrin":5787,"ÃŃticos":5788,"ĠNueva":5789,"penia":5790,"Ġquimioterapia":5791,"gli":5792,"gran":5793,"Ã³stata":5794,"Ġestancia":5795,"Ġventricular":5796,"47":5797,"Ġformar":5798,"Ġcura":5799,"cando":5800,"Ġtabla":5801,"Ġenfermera":5802,"Ġsuelo":5803,"Ġga":5804,"Ġlun":5805,"ĠtorÃ¡cico":5806,"Ġesfuerzos":5807,"Ġconciencia":5808,"Ġlucha":5809,"ectomÃŃa":5810,"ficio":5811,"Ġcapaces":5812,"Ġasociaciones":5813,"uyendo":5814,"ture":5815,"ĠtensiÃ³n":5816,"amento":5817,"ĠcomposiciÃ³n":5818,"Ġpositivos":5819,"ĠEdi":5820,"ĠperiÃ³":5821,"Ġaparecer":5822,"Ġfuentes":5823,"Ġbuenos":5824,"ĠOl":5825,"Ġenfermo":5826,"Ġconsciente":5827,"cito":5828,"ĠMer":5829,"Ġtiempos":5830,"ÃŃz":5831,"ĠextensiÃ³n":5832,"ĠprÃ³tesis":5833,"ologia":5834,"Ġpene":5835,"ĠAdministraciÃ³n":5836,"tenosis":5837,"ĠgeneraciÃ³n":5838,"Ġpueblo":5839,"Ġcomienza":5840,"inter":5841,"ĠTrastor":5842,"Ġgusta":5843,"Ġsignificativamente":5844,"ĠmÃ©dicas":5845,"Ġcica":5846,"Ġcumplimiento":5847,"Ġconvertir":5848,"Ġictus":5849,"ĠcutÃ¡n":5850,"Ġusuario":5851,"Ġadelante":5852,"ĠoxÃŃgeno":5853,"ĠCardiologÃŃa":5854,"CL":5855,"ĠCastilla":5856,"Ġinteresante":5857,"Ġbuc":5858,"ĠCap":5859,"uestro":5860,"ĠdÃ©ficit":5861,"Ġamar":5862,"Ġrecientemente":5863,"eran":5864,"ĠConclusiones":5865,"Ġsomos":5866,"ĠeconÃ³mico":5867,"ĠfÃ³rm":5868,"Ġedema":5869,"Ġdebajo":5870,"ĠÃŃ":5871,"ĠNiega":5872,"ĠVic":5873,"VA":5874,"Ġlis":5875,"ÃŃticas":5876,"ĠprogresiÃ³n":5877,"CH":5878,"ff":5879,"ĠCA":5880,"Ġvenosa":5881,"Ġciudadanos":5882,"Ġconform":5883,"Ġtercera":5884,"Ġgenerar":5885,"Ġextremo":5886,"Ġindividuo":5887,"ĠcategorÃŃa":5888,"ĠcrÃ³nicas":5889,"pemia":5890,"Ġenf":5891,"OLOG":5892,"peso":5893,"Ġmanifestaciones":5894,"Ġenfoque":5895,"pren":5896,"Ġcervical":5897,"Ġarteria":5898,"irse":5899,"Ġquiz":5900,"fro":5901,"Ġgrasas":5902,"Ã³mez":5903,"gesia":5904,"Â¿":5905,"Ġcontinua":5906,"ĠcuÃ¡n":5907,"Ġec":5908,"Ġases":5909,"didad":5910,"Ġautom":5911,"ĠoperaciÃ³n":5912,"medi":5913,"Ġsufren":5914,"berculosis":5915,"Ġjefe":5916,"ĠMÃ©dica":5917,"Ġcompartir":5918,"Ġalmac":5919,"ĠRM":5920,"Ġ96":5921,"Ġdesconoci":5922,"aciente":5923,"ograma":5924,"Ġlocales":5925,"Ġreceptores":5926,"Ġpresentaron":5927,"ĠAca":5928,"ĠpodrÃ¡n":5929,"Ġcomprome":5930,"mÃ¡tico":5931,"Ġvarones":5932,"ĠespecÃŃfica":5933,"teros":5934,"Ġpelo":5935,"imen":5936,"Ġrecons":5937,"Ġros":5938,"Ġaltos":5939,"Ġquier":5940,"Ġ72":5941,"Ġdescrito":5942,"upne":5943,"Ġencontrado":5944,"Los":5945,"ĠOc":5946,"ĠBe":5947,"tÃ©ter":5948,"lama":5949,"Ġescal":5950,"Ġenvejecimiento":5951,"Ġdoloroso":5952,"Ġpropuesta":5953,"59":5954,"Ġprotocolo":5955,"ucÃŃa":5956,"ons":5957,"ĠFis":5958,"Ġacre":5959,"Ġnove":5960,"Ã³genos":5961,"ORA":5962,"ĠPed":5963,"ĠencontrÃ³":5964,"Ã³mico":5965,"ck":5966,"ĠprÃ³stata":5967,"Ġmente":5968,"abla":5969,"trofia":5970,"Ġhayan":5971,"Ġminis":5972,"...)":5973,"66":5974,"III":5975,"ĠpÃºblicos":5976,"Ġlateral":5977,"Ġverano":5978,"Ġpecho":5979,"Ġdura":5980,"ĠEti":5981,"53":5982,"gados":5983,"Ġperju":5984,"Ġmales":5985,"Ġmadres":5986,"Ã©rico":5987,"ĠEnfermedad":5988,"77":5989,"Ġanemia":5990,"Ġgarantizar":5991,"Ġtexto":5992,"Ġrendimiento":5993,"Ġmolestias":5994,"cambi":5995,"Ġlumbar":5996,"rup":5997,"Ġsegura":5998,"Ġindicado":5999,"Ġsever":6000,"Ġdirigido":6001,"Ġprotagon":6002,"Ġcomponente":6003,"Ġmascul":6004,"ĠcomenzÃ³":6005,"lado":6006,"Ġsustancia":6007,"Ġdental":6008,"Ġhttps":6009,"Ġdispositivos":6010,"Ġinformado":6011,"Ġ42":6012,"Ġarte":6013,"dra":6014,"Ġequiv":6015,"Ġnacimiento":6016,"Ġ|":6017,"ĠObservaciones":6018,"Ġconlle":6019,"ĠmÃºsculo":6020,"ĠMil":6021,"ĠSN":6022,"Ġgenera":6023,"Ġcompara":6024,"Ġorganizaciones":6025,"todo":6026,"ĠDiagn":6027,"Ġaun":6028,"Ġconce":6029,"OB":6030,"yac":6031,"Ġhija":6032,"Ġcorrespondiente":6033,"Ġlevan":6034,"Ġdependencia":6035,"aya":6036,"ĠCos":6037,"Ġvisu":6038,"98":6039,"Ġasintom":6040,"Ġefectu":6041,"Ġ300":6042,"Ġcober":6043,"uresis":6044,"ĠActu":6045,"ĠOnc":6046,"Ġestuvo":6047,"Ġaprovech":6048,"ĠCer":6049,"Ġavanzada":6050,"Ġvelocidad":6051,"ĠDesarrollo":6052,"Ġambula":6053,"Ġnacionales":6054,"arte":6055,"Ġnota":6056,"Ġinterval":6057,"Ġ400":6058,"monio":6059,"ĠMur":6060,"Ġpulmonares":6061,"Ġenfermeras":6062,"Ġinvoluc":6063,"Ġsanidad":6064,"ĠsesiÃ³n":6065,"umento":6066,"igur":6067,"cientes":6068,"Ġrodilla":6069,"ĠsatisfacciÃ³n":6070,"Ġhubo":6071,"ulada":6072,"ĠidentificaciÃ³n":6073,"ded":6074,"Ġsiete":6075,"Ġsanitarias":6076,"Ġabordaje":6077,"Ġhubi":6078,"Ġdescartar":6079,"ĠAG":6080,"ame":6081,"ficientes":6082,"Ã¡mara":6083,"ĠEX":6084,"Ġsalida":6085,"ĠINF":6086,"Ġcav":6087,"Ġ85":6088,"ĠclasificaciÃ³n":6089,"reatment":6090,"ĠPacientes":6091,"ĠTu":6092,"iona":6093,"Ġpies":6094,"Ġsevera":6095,"ĠallÃŃ":6096,"ĠpercepciÃ³n":6097,"dismo":6098,"ry":6099,"Ġtraslad":6100,"Ġconsta":6101,"ĠÃģn":6102,"Ġrespiratorio":6103,"Ġexac":6104,"ĠEpi":6105,"ĠfarmacÃ©utico":6106,"Ġafirma":6107,"Ġpropias":6108,"Ġines":6109,"Ġrequieren":6110,"Ġfinales":6111,"ĠteorÃŃa":6112,"Ġreceptor":6113,"Ġigu":6114,"itado":6115,"ĠespecÃŃficas":6116,"Ġedades":6117,"ĠAut":6118,"sion":6119,"cy":6120,"Ġginec":6121,"Ġsugiere":6122,"96":6123,"Ġrelevantes":6124,"ĠdaÃ±":6125,"uniden":6126,"Ġpermanente":6127,"Ġparacetamol":6128,"char":6129,"Ġtaller":6130,"Ġcolumna":6131,"trio":6132,"ĠcuestiÃ³n":6133,"3121":6134,"Ġnegativos":6135,"Ġforman":6136,"ĠnÃ¡us":6137,"recen":6138,"Ġpretende":6139,"Ġintelig":6140,"Ġcognitivo":6141,"Ġrazones":6142,"ĠproporciÃ³n":6143,"ĠÃ³rgano":6144,"Ġtemporal":6145,"Ġrango":6146,"Ġrelig":6147,"Ġsaludables":6148,"Ġbajas":6149,"coles":6150,"FA":6151,"'s":6152,"Ġprofunda":6153,"ĠHemÃ³lisis":6154,"Ġapare":6155,"Ġsolamente":6156,"lop":6157,"ĠcatÃ©ter":6158,"ĠestÃ¡ndar":6159,"Ã¡ser":6160,"CT":6161,"menta":6162,"Ġentrevista":6163,"ĠTotales":6164,"ĠFarmac":6165,"quiatrÃŃa":6166,"ĠestÃ©tica":6167,"ĠestÃ©n":6168,"Ġnormo":6169,"Ġanual":6170,"xis":6171,"ĠmÃ³vil":6172,"Ġcontroles":6173,"fas":6174,"SI":6175,"Ġconcentraciones":6176,"lina":6177,"Ġutilizados":6178,"berto":6179,"Ġvs":6180,"jado":6181,"ĠSecre":6182,"Ġtareas":6183,"ches":6184,"ĠGÃ³mez":6185,"usa":6186,"ĠMol":6187,"ĠPl":6188,"ĠTÃ©cn":6189,"Ġverte":6190,"umab":6191,"Ãĳ":6192,"ĠIntro":6193,"ych":6194,"ĠBal":6195,"Ġdesenca":6196,"ĠneumonÃŃa":6197,"Ġef":6198,"ĠprofesiÃ³n":6199,"ĠRadio":6200,"ĠOMS":6201,"Ġtransporte":6202,"ĠTom":6203,"Ġeviden":6204,"tÃŃa":6205,"Ġciertas":6206,"Ġmorf":6207,"Ġaccidente":6208,"Ġtolerancia":6209,"64":6210,"ĠArgentina":6211,"Ġolvid":6212,"gÃ³":6213,"alizadas":6214,"emb":6215,"Ġproteger":6216,"ctur":6217,"ĠSch":6218,"ĠreuniÃ³n":6219,"ĠFi":6220,"Ġ99":6221,"Ġplacebo":6222,"ĠFu":6223,"Ġamena":6224,"acciÃ³n":6225,"ĠJesÃºs":6226,"Ġfirm":6227,"ĠSh":6228,"rieron":6229,"Ġhigiene":6230,"Ġpeligros":6231,"Ġmolecular":6232,"Ġtranquil":6233,"ĠJournal":6234,"Ġbronqui":6235,"Ġtempran":6236,"Ġespal":6237,"ĠProtrombina":6238,"ĠÃºnicamente":6239,"pol":6240,"ĠAlbÃºmina":6241,"Ġprescri":6242,"ĠinclusiÃ³n":6243,"tidi":6244,"IENTO":6245,"................":6246,"Ġpopular":6247,"Ġconsigui":6248,"Ġprema":6249,"quina":6250,"ĠTAC":6251,"Ġamplio":6252,"Ġfractura":6253,"esis":6254,"'.":6255,"ĠcÃ¡":6256,"Ġ44":6257,"Ġpredominio":6258,"Ġ49":6259,"Ġsuger":6260,"Ġofer":6261,"ĠcompaÃ±eros":6262,"ĠmÃŃ":6263,"Ġconsejos":6264,"Ġparcial":6265,"ker":6266,"Ġcontinuar":6267,"Ã©g":6268,"ĠDispon":6269,"Ġsiguen":6270,"Ġbuenas":6271,"Ġtuvieron":6272,"Ġbiopsia":6273,"ĠTro":6274,"61":6275,"rame":6276,"Ġvigilancia":6277,"ĠeliminaciÃ³n":6278,"Ġsuici":6279,"Ġafron":6280,"ĠdisposiciÃ³n":6281,"Ġdormir":6282,"ormal":6283,"gua":6284,"Ġsoluciones":6285,"ĠmostrÃ³":6286,"teli":6287,"ĠCR":6288,"Ġcerc":6289,"Ġpersonalidad":6290,"vul":6291,"Ġcoronaria":6292,"aman":6293,"ĠNutriciÃ³n":6294,"ĠUno":6295,"Ġtron":6296,"itando":6297,"ĠGas":6298,"Ġhabitantes":6299,"Ġalternativa":6300,"Ġocho":6301,"Ġprove":6302,"Ġestima":6303,"Ġacredi":6304,"bern":6305,"villa":6306,"Ġtex":6307,"Ġpadecer":6308,"Ġmotor":6309,"Ġtransvers":6310,"amo":6311,"Ġemi":6312,"Ġ1999":6313,"Ġwww":6314,"ua":6315,"Ġprogresiva":6316,"Ġit":6317,"tern":6318,"Ġremi":6319,"Ġcontienen":6320,"Ġcompuesto":6321,"54":6322,"Ġpodido":6323,"rias":6324,"67":6325,"Ġequilibrio":6326,"ĠcientÃŃficas":6327,"ĠInternet":6328,"Ġventa":6329,"Ġfinalmente":6330,"TOR":6331,"duras":6332,"Ġdistancia":6333,"Ġentrenamiento":6334,"Ġintentar":6335,"Ġrealizadas":6336,"ĠFederaciÃ³n":6337,"62":6338,"ĠterapÃ©uticas":6339,"tres":6340,"bus":6341,"ĠHernÃ¡ndez":6342,"Ġinser":6343,"ĠobservÃ³":6344,"Ã¡stica":6345,"wn":6346,"Ġefectividad":6347,"Ġamino":6348,"ĠJunta":6349,"52":6350,"Ġideal":6351,"ĠÃ¡r":6352,"Ġcultivo":6353,"betes":6354,"red":6355,"land":6356,"CE":6357,"Ġindican":6358,"Ġacceder":6359,"quÃ©":6360,"Ġdefensa":6361,"ĠBol":6362,"Ġcaracteriza":6363,"Ġanomal":6364,"Ġido":6365,"tru":6366,"SE":6367,"ĠFo":6368,"culas":6369,"ĠPsicologÃŃa":6370,"Ġactuar":6371,"enter":6372,"ĠMA":6373,"Ġmutaciones":6374,"ko":6375,"ĠPedro":6376,"Ġresolver":6377,"Ġempeoramiento":6378,"Ġexplicado":6379,"Ġbom":6380,"ĠMal":6381,"Ġmuertes":6382,"tarÃ¡":6383,"Ġnucle":6384,"Ġnormas":6385,"Ġaclar":6386,"Ġcontribuir":6387,"trones":6388,"Ġdesplaz":6389,"Ġincluidos":6390,"Ġmetabolismo":6391,"Ġlic":6392,"ĠobservaciÃ³n":6393,"ĠEF":6394,"ĠsÃ©":6395,"Ġfundamentalmente":6396,"ĠVi":6397,"Ġtrabajando":6398,"ĠlocalizaciÃ³n":6399,"Ġ150":6400,"ĠVas":6401,"97":6402,"ĠBen":6403,"talla":6404,"Ġfondo":6405,"Ġnoctur":6406,"Ġtratado":6407,"Ġnecesarias":6408,"uyÃ³":6409,"ĠÃģngel":6410,"Ġpromover":6411,"trans":6412,"Ġing":6413,"Ã©gimen":6414,"ĠaÃ³r":6415,"ĠÌģ":6416,"gluc":6417,"Ġexperto":6418,"Ġtradicional":6419,"Ġhospitalaria":6420,"Ġng":6421,"ardo":6422,"ĠestadÃŃs":6423,"enciales":6424,"ĠON":6425,"57":6426,"Ġcine":6427,"Ġpreci":6428,"Ġrode":6429,"Ġestablecido":6430,"Ġ43":6431,"kinson":6432,"ĠinstituciÃ³n":6433,"ĠfenÃ³meno":6434,"Ġactitud":6435,"Ġejecu":6436,"Ġespeciales":6437,"Ġtre":6438,"Ġenv":6439,"amp":6440,"Ġconvoca":6441,"Ġinstalaciones":6442,"ĠvÃŃc":6443,"ĠAcude":6444,"Ġcualquiera":6445,"Ġocasion":6446,"cindi":6447,"rer":6448,"Ġfir":6449,"Ġseres":6450,"use":6451,"ĠBras":6452,"Ġobservan":6453,"Ġproxim":6454,"hor":6455,"Ġvideo":6456,"51":6457,"ierra":6458,"Ġartritis":6459,"Ġapreci":6460,"gros":6461,"entimiento":6462,"ĠÃºl":6463,"rump":6464,"Ġeje":6465,"nia":6466,"Ġaltura":6467,"ĠFinalmente":6468,"Ġrol":6469,"Ġfrag":6470,"ĠTTP":6471,"Ġrealizaron":6472,"Ġdando":6473,"ĠLib":6474,"ĠUniÃ³n":6475,"Ġpoblaciones":6476,"Ġdiscipl":6477,"ary":6478,"Ġderivados":6479,"ocen":6480,"umatologÃŃa":6481,"ĠMuchas":6482,"Ġempezar":6483,"litus":6484,"ĠHasta":6485,"Ġllevado":6486,"Ġaparato":6487,"Ãºbi":6488,"entro":6489,"Ġextens":6490,"Ġlibros":6491,"ĠMM":6492,"mago":6493,"ĠtrÃ¡":6494,"usal":6495,"Ġcursos":6496,"ĠVarÃ³n":6497,"Ġacel":6498,"ADA":6499,"Ġdescenso":6500,"viene":6501,"ĠLinks":6502,"Ġobservar":6503,"Ġguerra":6504,"Ġestadio":6505,"ĠnÃ¡useas":6506,"Ġmaes":6507,"Ġcadena":6508,"Ã³digo":6509,"ĠSeguridad":6510,"Ġadic":6511,"Ġdemo":6512,"Ġanimal":6513,"Ġalguno":6514,"ĠDÃŃaz":6515,"Ġaplicaciones":6516,"Ġperme":6517,"Ġcicl":6518,"Ġmotivos":6519,"ficamente":6520,"Ġembarazadas":6521,"vado":6522,"ĠGen":6523,"ĠOtro":6524,"Ġoriginal":6525,"Ġintestino":6526,"ĠÃ¡nimo":6527,"Ġhierro":6528,"Ġanteriormente":6529,"Ġvital":6530,"Ġfumar":6531,"Ġperspectiva":6532,"Ġrequis":6533,"uÃ±a":6534,"Ġ47":6535,"riente":6536,"fera":6537,"Ġvoz":6538,"Ġdesay":6539,"Ġbeta":6540,"VP":6541,"Ġcree":6542,"Ġcuar":6543,"tegr":6544,"tosa":6545,"Ġbajos":6546,"ĠrÃ¡pidamente":6547,"ualmente":6548,"Ġdisminuye":6549,"fÃŃas":6550,"63":6551,"trados":6552,"Ġendos":6553,"Ġqueremos":6554,"Ġvoc":6555,"Ġveh":6556,"Ġbasada":6557,"Ġestablece":6558,"ĠCientÃŃ":6559,"tiga":6560,"Ġcalle":6561,"Ġarro":6562,"ĠelaboraciÃ³n":6563,"ĠYork":6564,"ĠsÃ³l":6565,"Ġcompletamente":6566,"quiÃ¡":6567,"Ġsobrepeso":6568,"intestin":6569,"Ġdesarrolla":6570,"ĠAutÃ³n":6571,"Ġadquir":6572,"Ġconvir":6573,"cine":6574,"xiÃ³n":6575,"ecuciÃ³n":6576,"Ġdomicili":6577,"ĠWil":6578,"ximos":6579,"Ġautoridades":6580,"Ġsignificativo":6581,"Ġcobertura":6582,"Ġbasado":6583,"oneal":6584,"Ġtto":6585,"Ġsala":6586,"Ġrestaur":6587,"Ġcorrecto":6588,"ĠEj":6589,"Ġanestesia":6590,"Ġprensa":6591,"iti":6592,"92":6593,"Ġinstrumento":6594,"ĠBra":6595,"ĠglÃ¡nd":6596,"tinencia":6597,"Al":6598,"Ġrespiratorias":6599,"Ġfracas":6600,"ĠMÃ©dicos":6601,"Ġbebidas":6602,"ĠfarmacÃ©utica":6603,"Ġum":6604,"ĠenseÃ±anza":6605,"Ġcampos":6606,"ysis":6607,"Ġestadouniden":6608,"itarias":6609,"lin":6610,"ĠCL":6611,"ĠDiabetes":6612,"Ġfines":6613,"SO":6614,"Ġdren":6615,"Ġasign":6616,"genera":6617,"Ġmalestar":6618,"Por":6619,"Ġencuesta":6620,"Ġvariedad":6621,"Ġesperar":6622,"Ġocular":6623,"Ġnasal":6624,"Ġcabello":6625,"Ġpobre":6626,"ĠAnti":6627,"Ġefectiva":6628,"Ġcierta":6629,"ĠecografÃŃa":6630,"ĠAus":6631,"Ġsuscep":6632,"Ġsuminis":6633,"Ġespecialidades":6634,"VC":6635,"ĠinteracciÃ³n":6636,"enden":6637,"ĠFE":6638,"Ġnec":6639,"ĠRep":6640,"Ġsolicita":6641,"89":6642,"Ġencan":6643,"Ġfases":6644,"Ġcortico":6645,"Ġline":6646,"Ġkg":6647,"Ġcuestionario":6648,"Ġblanco":6649,"ĠGra":6650,"Ġespalda":6651,"ĠgÃ¡s":6652,"ĠMen":6653,"Ġetapas":6654,"Ġesco":6655,"IDAD":6656,"Ġintercambi":6657,"lita":6658,"TOS":6659,"Ġanticon":6660,"Ġneona":6661,"Ġrecibieron":6662,"Ġaporta":6663,"ĠMED":6664,"ĠLAS":6665,"estiones":6666,"Ġgratu":6667,"Ġdensidad":6668,"Ġmovilidad":6669,"ncia":6670,"Ġmetas":6671,"Ġcantidades":6672,"infec":6673,"Ġherida":6674,"orina":6675,"Ġapropi":6676,"ĠEstudios":6677,"Ġauricular":6678,"ĠestÃŃm":6679,"Ġdoctora":6680,"Ġmultidiscipl":6681,"xo":6682,"Ġare":6683,"Ġentrega":6684,"Ġarti":6685,"Ġavis":6686,"renal":6687,"Ġestados":6688,"Ġtemprana":6689,"Ġemociones":6690,"Ġexpan":6691,"Ġconv":6692,"Ġobliga":6693,"Ġtomando":6694,"tron":6695,"quismo":6696,"ĠNE":6697,"mites":6698,"ĠpropÃ³sito":6699,"Ġencontraron":6700,"Ġano":6701,"ĠExpl":6702,"Ġencontramos":6703,"ĠPER":6704,"Ġsimul":6705,"zando":6706,"mios":6707,"Ġregul":6708,"Ġquiero":6709,"ock":6710,"Ġobservado":6711,"idados":6712,"inmun":6713,"ĠmÃºltiple":6714,"ĠRed":6715,"orge":6716,"jeron":6717,"ĠFern":6718,"Ã©nd":6719,"fos":6720,"ĠEstÃ¡":6721,"Ġheter":6722,"Ġesque":6723,"Ġester":6724,"py":6725,"Ġsimplemente":6726,"Ġembri":6727,"ego":6728,"ĠTecn":6729,"ĠTera":6730,"ĠCU":6731,"Ġsuspen":6732,"ĠVe":6733,"pectivo":6734,"Ġimprescindi":6735,"Ġ\",":6736,"Ġpreserv":6737,"ĠGranada":6738,"estruc":6739,"ĠetiologÃŃa":6740,"ĠhipÃ³":6741,"zep":6742,"ĠimplantaciÃ³n":6743,"Ġdolores":6744,"Ġcadera":6745,"tillas":6746,"cipa":6747,"Ġconvers":6748,"Ġsuero":6749,"Ġpronto":6750,"ĠAnd":6751,"ĠJavier":6752,"topera":6753,"omen":6754,"ĠprescripciÃ³n":6755,"sor":6756,"Ġ1998":6757,"Ġsta":6758,"icion":6759,"Ġnumerosos":6760,"Ġadulto":6761,"Ġanalgesia":6762,"Ġtuberculosis":6763,"Ġconsideran":6764,"EMA":6765,"Ġcito":6766,"ticias":6767,"bios":6768,"cada":6769,"Ġhueso":6770,"iles":6771,"Ġmetros":6772,"Ġaprob":6773,"Ġcorresponde":6774,"df":6775,"ĠuniÃ³n":6776,"Ġhemorragia":6777,"Ġllevan":6778,"ĠestÃ³":6779,"Ġcolectivo":6780,"dalucÃŃa":6781,"CS":6782,"tecciÃ³n":6783,"Ġcriterio":6784,"Ġaspir":6785,"ĠestimulaciÃ³n":6786,"Ġalo":6787,"TEN":6788,"PL":6789,"phy":6790,"ĠDic":6791,"ĠTTPa":6792,"leo":6793,"Ġexterna":6794,"Ġsujeto":6795,"Ġenerg":6796,"ĠMG":6797,"ĠaÃ©":6798,"jaciÃ³n":6799,"ĠlÃ¡ser":6800,"PI":6801,"Ġbasa":6802,"mue":6803,"Ġintelec":6804,"gor":6805,"Ġindicadores":6806,"TAM":6807,"ĠPresidente":6808,"Ġerite":6809,"Ġmedir":6810,"Ġcomenzar":6811,"ĠRom":6812,"picos":6813,"Ġph":6814,"ĠSta":6815,"Ġcama":6816,"2733":6817,"Ġjugadores":6818,"ĠcoordinaciÃ³n":6819,"Ġagente":6820,"Ġcomenta":6821,"Ġfrutas":6822,"ĠDES":6823,"ĠmÃ©dula":6824,"Ġfres":6825,"Ġproporcionar":6826,"Ġcolom":6827,"gÃ©s":6828,"Ġconsiderado":6829,"ĠIntroducciÃ³n":6830,"Ġcompatible":6831,"ĠÃ³pti":6832,"ĠNos":6833,"Ġinfecci":6834,"ĠÃļ":6835,"Ġalimento":6836,"tara":6837,"Ġdirecto":6838,"Ġdichos":6839,"Ġbacter":6840,"Ġresidentes":6841,"econ":6842,"Ġvier":6843,"Ġcoag":6844,"pin":6845,"Ġasegura":6846,"ĠcÃ©lula":6847,"ĠestÃ³mago":6848,"Ġtrato":6849,"ĠTal":6850,"PE":6851,"anda":6852,"ĠSci":6853,"Ġescen":6854,"doc":6855,"rados":6856,"Ġcultural":6857,"Ġcarbono":6858,"Ġconductas":6859,"Ġcanal":6860,"Ġfibro":6861,"Ġventajas":6862,"onancia":6863,"fen":6864,"Ġreproduc":6865,"84":6866,"ificar":6867,"fono":6868,"yecto":6869,"Ġinformes":6870,"Ġcircunstancias":6871,"Ġflexi":6872,"imp":6873,"clusiÃ³n":6874,"ĠSil":6875,"Ġtierra":6876,"Ġcivil":6877,"Ã³micas":6878,"Ġactivos":6879,"Ġreconocer":6880,"ĠUCI":6881,"edor":6882,"Ġmod":6883,"ÃŃl":6884,"ĠEcu":6885,"Ġdescen":6886,"Ġadeno":6887,"ĠMej":6888,"Ġlibres":6889,"Ġadministrar":6890,"tudes":6891,"drÃ¡":6892,"mus":6893,"ĠAf":6894,"Ã³rica":6895,"Ġdirigida":6896,"RO":6897,"mania":6898,"Ġabierto":6899,"ĠgestaciÃ³n":6900,"Ġpadecen":6901,"ĠUro":6902,"Ġdefinitiva":6903,"ramos":6904,"Ġ[...]":6905,"Ġlimitaciones":6906,"001":6907,"earch":6908,"Ġinhal":6909,"ĠAlim":6910,"ĠHar":6911,"Ġcomprender":6912,"ĠAndalucÃŃa":6913,"Ġintenso":6914,"Ã©ricos":6915,"Ġdesencaden":6916,"ĠTrabajo":6917,"lÃŃn":6918,"Ġrecientes":6919,"Ġape":6920,"Ġremo":6921,"Ġcompres":6922,"ĠAgencia":6923,"Ġrecibe":6924,"ĠRey":6925,"Ġpiernas":6926,"Ġusa":6927,"ĠdÃ©cadas":6928,"ĠadaptaciÃ³n":6929,"Ġdebate":6930,"tid":6931,"americana":6932,"sin":6933,"Ġposteriores":6934,"ĠInformaciÃ³n":6935,"Ġcari":6936,"quez":6937,"Ġtransform":6938,"Ġencues":6939,"Ġpleural":6940,"Ã³d":6941,"Ġnutrientes":6942,"Ġtemporada":6943,"93":6944,"ĠSobre":6945,"ĠnÃºcle":6946,"guros":6947,"Ġpublicados":6948,"Ġextran":6949,"Ġcomentarios":6950,"Ġcosto":6951,"Ġlin":6952,"Ġreciben":6953,"Ġasesor":6954,"ĠCruz":6955,"TAR":6956,"TIC":6957,"Ġexterior":6958,"Ġretro":6959,"Ġ\".":6960,"Ġhabituales":6961,"ĠTiene":6962,"itat":6963,"Ġpalabra":6964,"Ġdemencia":6965,"Ġlengua":6966,"Ġresumen":6967,"rus":6968,"elle":6969,"Ġpostopera":6970,"ĠAmb":6971,"Ġdispone":6972,"ĠelectrÃ³nico":6973,"Ġfrecuentemente":6974,"Ġproducido":6975,"2738":6976,"ĠBur":6977,"timi":6978,"ĠPediatrÃŃa":6979,"Ġintraven":6980,"Ġcomidas":6981,"Ġ52":6982,"cedente":6983,"Ġrecuerda":6984,"Ġescasa":6985,"ORM":6986,"Ġtarea":6987,"Ġcorreg":6988,"Ġnormalmente":6989,"CÃ³mo":6990,"sar":6991,"ĠMus":6992,"cialmente":6993,"ume":6994,"Ġaccidentes":6995,"ore":6996,"reras":6997,"Ġespacios":6998,"Ġcompetencias":6999,"ĠcirculaciÃ³n":7000,"ĠÃ³p":7001,"ĠcaÃŃda":7002,"idaciÃ³n":7003,"ĠIc":7004,"--------":7005,"Ġobjetos":7006,"Ġconsegu":7007,"Ġvivo":7008,"Ġadqui":7009,"Ġconstituyen":7010,"ĠtÃ©cnico":7011,"ĠdiagnÃ³stica":7012,"ĠPubl":7013,"ĠbebÃ©s":7014,"Ġdigital":7015,"ĠHb":7016,"ĠOf":7017,"Ġmedias":7018,"Ġhospitalario":7019,"Ġerrores":7020,"ĠpodÃŃa":7021,"Ġcarcinoma":7022,"ĠEPOC":7023,"Ã³loga":7024,"ĠGar":7025,"ĠindicaciÃ³n":7026,"Ġinhibidores":7027,"Ġsum":7028,"ĠFrancia":7029,"Ġavance":7030,"ĠMc":7031,"Ġtrabaja":7032,"Ġcerebrales":7033,"Ġatender":7034,"Ġhacerse":7035,"ĠrecibiÃ³":7036,"ĠForal":7037,"Ġhemi":7038,"Ġapenas":7039,"yl":7040,"olucion":7041,"tios":7042,"ĠJim":7043,"HC":7044,"titudes":7045,"Ġdeterminado":7046,"Re":7047,"Ġdepartamento":7048,"Ġdiscre":7049,"ĠBlan":7050,"depen":7051,"Ġtreatment":7052,"Ġpudo":7053,"Ġsabemos":7054,"icardia":7055,"trices":7056,"ĠtelÃ©":7057,"Ġdisfrutar":7058,"ĠlÃŃquidos":7059,"ĠintegraciÃ³n":7060,"ĠrÃ©gimen":7061,"ĠOtras":7062,"trato":7063,"Ġayudan":7064,"ĠïĢ":7065,"bular":7066,"Ã©micos":7067,"yste":7068,"Ġalmacen":7069,"Ġderrame":7070,"Ġescrito":7071,"ĠinnovaciÃ³n":7072,"Ġesperanza":7073,"ĠguÃŃas":7074,"ĠtÃº":7075,"inflama":7076,"ĠAnÃ¡lisis":7077,"dex":7078,"Ġformado":7079,"ĠJorn":7080,"buprofeno":7081,"ĠfinanciaciÃ³n":7082,"todos":7083,"metrÃŃa":7084,"trar":7085,"ĠniÃ±as":7086,"ĠllevÃ³":7087,"fol":7088,"Ġposee":7089,".\"":7090,"enten":7091,"Ġprevias":7092,"iana":7093,"Ġpedir":7094,"CIONES":7095,"tificar":7096,"Ġsanos":7097,"Ġcome":7098,"ĠÃ¡cidos":7099,"psis":7100,"abaquismo":7101,"logo":7102,"ĠCAR":7103,"ĠaÃ±ade":7104,"ĠVen":7105,"timas":7106,"enqui":7107,"Ġdestacado":7108,"Ã©ricas":7109,"Co":7110,"jerÃŃa":7111,"Ġindependientemente":7112,"pr":7113,"Ġmembrana":7114,"Ġ54":7115,"Ġarterias":7116,"Ġcompuestos":7117,"ficaciÃ³n":7118,"Ġdeterminados":7119,"identa":7120,"Ġesca":7121,"ane":7122,"Ġoficial":7123,"ĠHol":7124,"ĠinyecciÃ³n":7125,"tillo":7126,"Ġcorreo":7127,"Ġexplo":7128,"Ã³tica":7129,"zados":7130,"Ġpocas":7131,"fÃ©":7132,"ĠantÃŃ":7133,"Ġnacido":7134,"Ġdisco":7135,"mÃ¡ticos":7136,"ĠEvaluaciÃ³n":7137,"Ġmanip":7138,"Ġpertene":7139,"TAL":7140,"Ġcompra":7141,"pero":7142,"ĠHu":7143,"Ġgastrointestin":7144,"ĠAgu":7145,"Ġdedo":7146,"-,":7147,"TIVO":7148,"Ġurgente":7149,"mal":7150,"zuela":7151,"omos":7152,"ĠFor":7153,"Ġsugieren":7154,"TAS":7155,"ĠfÃ³rmula":7156,"Ġ64":7157,"cÃ³pica":7158,"Ġsecundario":7159,"tiende":7160,"tics":7161,"Ġviven":7162,"Ġhogar":7163,"tein":7164,"ĠSociales":7165,"pers":7166,"ĠPon":7167,"ĠHEM":7168,"PC":7169,"Ġahor":7170,"Ġcomprimidos":7171,"Ġnerv":7172,"Ġefectivo":7173,"Ġmellitus":7174,"Ġdic":7175,"Ġdimens":7176,"Ġfundamentales":7177,"Ġentrevis":7178,"ĠBrasil":7179,"rito":7180,"Ġimpar":7181,"Ġmicroorgan":7182,"UD":7183,"tiles":7184,"Ġdescribe":7185,"Ġestenosis":7186,"Ġsolicitar":7187,"yas":7188,"ĠMientras":7189,"Ġblando":7190,"ĠOtra":7191,"trucciones":7192,"Ġrecordar":7193,"tÃºan":7194,"Ġcontraste":7195,"ick":7196,"tativas":7197,"sen":7198,"Ġdocente":7199,"TS":7200,"dri":7201,"ĠPsi":7202,"Ġacos":7203,"Ġhaga":7204,"Ġdisease":7205,"ciosas":7206,"bierto":7207,"ĠmutaciÃ³n":7208,"Ġ56":7209,"ĠRX":7210,"Ġhabitualmente":7211,"Ġgangli":7212,"Ġpasos":7213,"Ġproporciona":7214,"Ġpublicaciones":7215,"Ġodon":7216,"berg":7217,"ĠPosteriormente":7218,"Ġcotidi":7219,"Ġhuesos":7220,"Ġrecomendable":7221,"Ġalergia":7222,"ÃŃculos":7223,"Ġsocios":7224,"Ġespecializada":7225,"ĠdeberÃŃan":7226,"Ġbur":7227,"Ġpuesta":7228,"Ġindu":7229,"Ġescol":7230,"ĠRepÃºblica":7231,"Ġancianos":7232,"Ġerror":7233,"ĠocasiÃ³n":7234,"ĠhospitalizaciÃ³n":7235,"nis":7236,"Ġrespeto":7237,"ĠSanitaria":7238,"ĠdefiniciÃ³n":7239,"Ġafectadas":7240,"ĠDebido":7241,"Ġviernes":7242,"Ġalternativas":7243,"gica":7244,"ĠperifÃ©rica":7245,"Ġid":7246,"ĠAmerican":7247,"Ġsociedades":7248,"ĠregulaciÃ³n":7249,"Ġ94":7250,"ĠLuego":7251,"ĠAlgunas":7252,"pedia":7253,"Ġleucocitos":7254,"Ġseguido":7255,"Ġazul":7256,"Ġsede":7257,"Ġkil":7258,"view":7259,"ĠLipemia":7260,"ĠllegÃ³":7261,"irÃ¡":7262,"ĠAV":7263,"ĠradiaciÃ³n":7264,"Ġevidente":7265,"Ġrealizarse":7266,"ung":7267,"king":7268,"cast":7269,"Ġ140":7270,"Ġaporte":7271,"ceras":7272,"Ġintereses":7273,"Ġreto":7274,"ĠtelevisiÃ³n":7275,"Si":7276,"Ġdicen":7277,"Ġsospech":7278,"cieron":7279,"ĠJohn":7280,"bilizaciÃ³n":7281,"Ġresponder":7282,"ĠcomprensiÃ³n":7283,"Ã©nez":7284,"llas":7285,"Ġlunes":7286,"91":7287,"Ġdefine":7288,"ĠpÃºblicas":7289,"tificado":7290,"Ġpremio":7291,"Ġdestacan":7292,"Ġvej":7293,"Ġconsentimiento":7294,"ĠSAR":7295,"Ġclases":7296,"Ġdue":7297,"Ġane":7298,"Ġcorrectamente":7299,"ciles":7300,"ĠPremio":7301,"Ġurgencia":7302,"Ġmostrado":7303,"ĠDirector":7304,"Ġbloqueo":7305,"Ġsero":7306,"Ġcombatir":7307,"Ġcalcul":7308,"ĠBien":7309,"Ġadicional":7310,"ĠDecre":7311,"Ġindicaciones":7312,"ĠHistoria":7313,"ÃŃculas":7314,"ĠPrin":7315,"Ġpoca":7316,"ĠPuer":7317,"Ġaislamiento":7318,"bos":7319,"idel":7320,"tÃŃculas":7321,"Ġbrazo":7322,"Ġnacidos":7323,"ÃŃtulos":7324,"uegos":7325,"ĠtÃ³xicos":7326,"Ġasisti":7327,"ĠSevilla":7328,"Ġmelan":7329,"ĠÃģl":7330,"Ġataque":7331,"tÃ¡stasis":7332,"LO":7333,"Ġmexic":7334,"tory":7335,"Ġinfra":7336,"Ġpsicos":7337,"Ġquedar":7338,"Ġconex":7339,"Ã³nde":7340,"Ġdada":7341,"Ġinterven":7342,"Ġdeseo":7343,"xido":7344,"ĠPAR":7345,"ĠseÃ±alado":7346,"for":7347,"ley":7348,"frica":7349,"tinas":7350,"ĠdaÃ±os":7351,"Ġsignificativos":7352,"Ġdesayuno":7353,"Ġglu":7354,"ĠcategorÃŃas":7355,"ĠprÃ¡cticamente":7356,"mej":7357,"Ġopera":7358,"Ġvoy":7359,"coc":7360,"ĠÂ»":7361,"Ġmanifiesto":7362,"Ġenorme":7363,"Ġfinalidad":7364,"Ġextremidades":7365,"ablo":7366,"Ġfras":7367,"ĠanalgÃ©s":7368,"teos":7369,"Ġmostraron":7370,"Ġsel":7371,"ĠAt":7372,"Ġlectura":7373,"Ġrestric":7374,"Ġconsumir":7375,"Ġimplante":7376,"ĠGe":7377,"ION":7378,"Ġentrar":7379,"rÃŃculo":7380,"Ġron":7381,"ĠExper":7382,"ĠPL":7383,"Ġmucosa":7384,"Ġhallazgo":7385,"Ġirrad":7386,"Ġdesper":7387,"ĠmecÃ¡nica":7388,"acas":7389,"Ġretraso":7390,"erte":7391,"ĠFamilia":7392,"Ġhicieron":7393,"Ġhojas":7394,"ware":7395,"Ġobtuvo":7396,"udades":7397,"Ġincom":7398,"Ġacog":7399,"ĠEcon":7400,"ĠDoctor":7401,"Ġsalvo":7402,"Ġ1997":7403,"ĠSA":7404,"ĠAntes":7405,"isa":7406,"Ġmonta":7407,"Ġsufre":7408,"Ġton":7409,"Ġdepresible":7410,"Ġbreve":7411,"Ġvisitas":7412,"xa":7413,"Ġresuel":7414,"ĠFib":7415,"ĠdifusiÃ³n":7416,"pera":7417,"Ġinstrumentos":7418,"ĠPendiente":7419,"Ġprofesores":7420,"oxid":7421,"Ġevolucion":7422,"Ġestabilidad":7423,"ĠlÃŃmite":7424,"Ġresal":7425,"Ġsuges":7426,"Ġexplor":7427,"pul":7428,"Ġverde":7429,"ish":7430,"ĠdeterminaciÃ³n":7431,"ĠLle":7432,"icilina":7433,"Ġrin":7434,"Ġcalci":7435,"tigo":7436,"Ġcomprobar":7437,"grÃ¡fica":7438,"ĠciÃ³n":7439,"Ġcomunicado":7440,"Ġjugar":7441,"ERM":7442,"ĠDecreto":7443,"Ġpensamiento":7444,"Ġdirectora":7445,"ĠseÃ±alÃ³":7446,"Ġcuestiones":7447,"ĠCI":7448,"Ġratones":7449,"Ġsorpren":7450,"trimonio":7451,"Ġment":7452,"idal":7453,"Ġacor":7454,"ĠBan":7455,"ĠNor":7456,"ĠVene":7457,"Ġromp":7458,"Ġviaje":7459,"Ġingen":7460,"Ġescuchar":7461,"ĠPues":7462,"Ġdefen":7463,"ĠAcademia":7464,"vula":7465,"Ġhechos":7466,"arca":7467,"elos":7468,"Ġgar":7469,"orio":7470,"ĠDon":7471,"iano":7472,"Ġvitaminas":7473,"Ġintrodu":7474,"iasis":7475,"Ġmesa":7476,"ĠfarmacolÃ³gico":7477,"Ġdemuestra":7478,"ĠliberaciÃ³n":7479,"Ġorganismos":7480,"Ġpropuestas":7481,"bel":7482,"Ġclaramente":7483,"ĠbÃ¡sicos":7484,"Ġafectada":7485,"cados":7486,"ĠexplicÃ³":7487,"Ġasegurar":7488,"Ġvaginal":7489,"ĠDisponible":7490,"ferencias":7491,"ĠÃ©stos":7492,"Ġmicrobi":7493,"ĠactivaciÃ³n":7494,"ĠradiografÃŃa":7495,"Ġaumentado":7496,"Ġnumerosas":7497,"ites":7498,"estima":7499,"cefal":7500,"Ġconvencional":7501,"Ġinformar":7502,"Ġrealizando":7503,"ablemente":7504,"Ġsolid":7505,"ĠOD":7506,"Ġconclusiones":7507,"unas":7508,"Ġfabr":7509,"Ġsar":7510,"umin":7511,"Ġplanes":7512,"ray":7513,"Ġquieren":7514,"Ġcompetencia":7515,"omer":7516,"Ġfracturas":7517,"ĠmolÃ©culas":7518,"ĠpsiquiÃ¡":7519,"ĠcardiopatÃŃa":7520,"Ġsemi":7521,"ĠRevista":7522,"idado":7523,"Ġdiver":7524,"ĠpsicologÃŃa":7525,"Ġces":7526,"Ġseca":7527,"De":7528,"Â¡":7529,"Ġbilaterales":7530,"Ġconocidos":7531,"ĠNew":7532,"tables":7533,"Ġanun":7534,"Ġparecen":7535,"Ġhormonas":7536,"ĠdeberÃ¡n":7537,"Ġisque":7538,"Ġ51":7539,"ĠCM":7540,"Ġradioterapia":7541,"ĠDan":7542,"untos":7543,"UU":7544,"Ġexistentes":7545,"Ġfabric":7546,"ĠCardio":7547,"Ġocul":7548,"Ġ93":7549,"ĠantibiÃ³tico":7550,"Ġdependiendo":7551,"ĠÃģlvar":7552,"aras":7553,"TAN":7554,"ĠLac":7555,"Ġorganiza":7556,"creas":7557,"Ġfibra":7558,"Ġcarne":7559,"ĠDos":7560,"DI":7561,"tamientos":7562,"Ġdesarrollan":7563,"ĠFR":7564,"Ġconsigue":7565,"tencia":7566,"Ġfatiga":7567,"Ġconceptos":7568,"Ġfunciona":7569,"Ġinmediatamente":7570,"ĠsÃŃntoma":7571,"ĠabsorciÃ³n":7572,"ĠpsicolÃ³gico":7573,"Ġcolocar":7574,"Ġofrecen":7575,"Ġmentales":7576,"Ġpec":7577,"pina":7578,"Ġplataforma":7579,"Ġnormalidad":7580,"ĠcorrelaciÃ³n":7581,"ĠMac":7582,"He":7583,"ĠInfantil":7584,"grad":7585,"Ġcolombi":7586,"Ġpeligro":7587,"Ġsuma":7588,"Ġama":7589,"Ġrelativamente":7590,"ĠUnido":7591,"medios":7592,"IDO":7593,"Ġmostrar":7594,"turos":7595,"Ġpunta":7596,"ĠFernando":7597,"Ġorales":7598,"Ġaplica":7599,"bido":7600,"agia":7601,"ĠPrevenciÃ³n":7602,"tÃ¡neo":7603,"ĠMAP":7604,"Ġrequisitos":7605,"fib":7606,"Ġ120":7607,"ĠDig":7608,"Ġtubo":7609,"ĠCentral":7610,"eramente":7611,"Ġreno":7612,"ĠRel":7613,"ĠpuntuaciÃ³n":7614,"Ġsegmento":7615,"Ġaportar":7616,"Ġlibertad":7617,"Ġarrit":7618,"plan":7619,"lpm":7620,"teca":7621,"ioso":7622,"ĠorientaciÃ³n":7623,"Ġhall":7624,"Ġcola":7625,"EF":7626,"ĠMI":7627,"Ġoftalm":7628,"ind":7629,"Ġembarazada":7630,"Ġdescom":7631,"bs":7632,"ĠcÃ¡mara":7633,"Ġsirve":7634,"Ġsed":7635,"Ġ53":7636,"ety":7637,"Ġcontamin":7638,"Ġsinusal":7639,"Ġcigar":7640,"ĠsanguÃŃneo":7641,"Ġjuicio":7642,"Ġbronco":7643,"Ġrestos":7644,"Ġhipertens":7645,"ĠhepÃ¡tico":7646,"ĠReino":7647,"ÃŃdas":7648,"ĠutilizÃ³":7649,"Ġdigestivo":7650,"menes":7651,"Ġdeterminadas":7652,"operaciÃ³n":7653,"Ġcirujano":7654,"terÃŃa":7655,"Ġintent":7656,"ĠintenciÃ³n":7657,"Ġtem":7658,"etales":7659,"Ġsodio":7660,"ĠprÃ³ximos":7661,"ĠVall":7662,"ement":7663,"Ġ82":7664,"Ġorientado":7665,"Ġaceler":7666,"ĠperfusiÃ³n":7667,"ĠMuy":7668,"bor":7669,"MC":7670,"ĠmetodologÃŃa":7671,"ĠmediciÃ³n":7672,"ĠCha":7673,"aciona":7674,"Ġrevistas":7675,"Ġlaborales":7676,"Ġnervios":7677,"Ġciudades":7678,"Ġparticipa":7679,"!!!":7680,"Ġaconte":7681,"Ġterren":7682,"Ġelegir":7683,"Ġsh":7684,"ĠdiÃ¡metro":7685,"Ġilus":7686,"ĠlÃ³g":7687,"Â°":7688,"Ġresidencia":7689,"vio":7690,"Ġadquis":7691,"Ġmigra":7692,"ĠDentro":7693,"Ġbon":7694,"Ġurinaria":7695,"Ġcomienzo":7696,"ĠHace":7697,"Ġtabaquismo":7698,"Ġtin":7699,"tum":7700,"Ġautismo":7701,"ĠObjetivo":7702,"anal":7703,"Ġdiet":7704,"ĠComple":7705,"Ġ92":7706,"gÃ¼":7707,"Ġperi":7708,"Ġaper":7709,"inge":7710,"low":7711,"ĠraÃŃz":7712,"Ġafectado":7713,"tricia":7714,"ĠestadÃŃsticamente":7715,"Ġdedos":7716,"Ġrelevante":7717,"==":7718,"quin":7719,"Ġwh":7720,"ĠhipÃ³tesis":7721,"Ã©micas":7722,"porosis":7723,"Ġescribir":7724,"Ġcompu":7725,"ĠriÃ±Ã³n":7726,"ĠEtiquetas":7727,"Ġure":7728,"ĠdiÃ¡lisis":7729,"duce":7730,"sas":7731,"Ġindis":7732,"Ġcostes":7733,"Ġimpul":7734,"Ġadherencia":7735,"ĠGuerra":7736,"dÃŃ":7737,"Ġtitular":7738,"Ã¡ce":7739,"zamiento":7740,"Ã±ez":7741,"ĠLabora":7742,"tipos":7743,"idi":7744,"Ġheridas":7745,"Ġvuelve":7746,"Ġcifra":7747,"Ġsentimientos":7748,"Pro":7749,"onar":7750,"tericia":7751,"Ġobtenido":7752,"ĠDav":7753,"ders":7754,"Ġcelebra":7755,"Ġcate":7756,"ĠobstrucciÃ³n":7757,"Ġespi":7758,"genos":7759,"ĠAbdomen":7760,"Ġ**":7761,"ise":7762,"edores":7763,"Ġeficaces":7764,"......":7765,"Ġcorrespondientes":7766,"Ġesqu":7767,"Ġarticulaciones":7768,"Ġimprescindible":7769,"Ġmet":7770,"Ġdocumentos":7771,"Ġsana":7772,"Ġ68":7773,"ĠisquÃ©mica":7774,"Paciente":7775,"ĠIntegr":7776,"Ã¡ctica":7777,"Ġfia":7778,"jeros":7779,"eneraciÃ³n":7780,"Ġcierre":7781,"Ġfan":7782,"adecu":7783,"Ġseno":7784,"ĠNeurologÃŃa":7785,"ĠMel":7786,"taba":7787,"Ġlinfocitos":7788,"ĠEpidemi":7789,"Ġpermitido":7790,"Ġcuidar":7791,"Ġine":7792,"uciones":7793,"ĠmÃŃnima":7794,"enquimatos":7795,"Ġpredis":7796,"Ġretros":7797,"Ġinhibi":7798,"Ġobjetiv":7799,"Ġdichas":7800,"ĠtÃ©cnicos":7801,"Ġabierta":7802,"Ġhubiera":7803,"Ġ88":7804,"Ġplaca":7805,"Ġmezcla":7806,"ĠNorte":7807,"Ġtaqu":7808,"Ġgestion":7809,"Ġsolar":7810,"ede":7811,"terrÃ¡n":7812,"Ġheces":7813,"Ġtrabajan":7814,"Ġparticipado":7815,"OLOGÃįA":7816,"Ġdesvi":7817,"algia":7818,"Ġ^":7819,"bana":7820,"Ġbul":7821,"erto":7822,"Ġcardiaco":7823,"ĠinversiÃ³n":7824,"omn":7825,"ĠbÃ¡sica":7826,"Ġtraduc":7827,"Ã³tico":7828,"iende":7829,"Ġutilizada":7830,"ĠÎ":7831,"Ġaltamente":7832,"Ġinfluen":7833,"CP":7834,"ĠMÃ¡":7835,"ĠBel":7836,"Ġhos":7837,"Ġdepos":7838,"Ġincidencias":7839,"ualidad":7840,"ude":7841,"Ġdeba":7842,"abe":7843,"Ġsabor":7844,"Ġsuces":7845,"Ġantioxid":7846,"Ġ1996":7847,"zcan":7848,"Ġtraumatismo":7849,"ĠParacetamol":7850,"Ġplazas":7851,"Ġenlace":7852,"ĠVis":7853,"Ã¡menes":7854,"Ġpermita":7855,"ĠMental":7856,"ĠRegis":7857,"Ġmalig":7858,"Ġfec":7859,"Ġvie":7860,"deros":7861,"Ġvesti":7862,"ave":7863,"Ġgrados":7864,"Ġbet":7865,"ritis":7866,"pil":7867,"ĠLon":7868,"Ġdefinir":7869,"Ãºtbol":7870,"quitec":7871,"ĠDado":7872,"ham":7873,"Ġlegal":7874,"anÃŃa":7875,"Ġestimul":7876,"Ġconsiderable":7877,"ĠmetÃ¡stasis":7878,"Ġdefectos":7879,"ĠhabrÃ¡":7880,"idea":7881,"ror":7882,"ĠRamÃ³n":7883,"Ġtranspar":7884,"tival":7885,"Ġinau":7886,"ĠAz":7887,"ii":7888,"amina":7889,"ensibilidad":7890,"Ġmusculares":7891,"bert":7892,"Ġtransversal":7893,"ancias":7894,"Ġconvierte":7895,"Ġvive":7896,"guar":7897,"ĠpÃ¡r":7898,"Ġverduras":7899,"ĠcontaminaciÃ³n":7900,"ĠVol":7901,"ĠextracciÃ³n":7902,"Ġalcance":7903,"Ġestando":7904,"bras":7905,"Ġcare":7906,"ĠÃºtiles":7907,"Ġvege":7908,"taban":7909,"ĠCri":7910,"timo":7911,"Ġpresti":7912,"Ġanat":7913,"Ġadecuadamente":7914,"ĠCuidados":7915,"Ġ57":7916,"Ġhormona":7917,"Ġplano":7918,"ĠKa":7919,"Ġtens":7920,"Ġfuerzas":7921,"ĠOncologÃŃa":7922,"Ġ58":7923,"HO":7924,"Ġdemues":7925,"ĠcrÃŃtica":7926,"trateg":7927,"viÃ³":7928,"adÃ¡":7929,"Ġoptimi":7930,"Ġperitoneal":7931,"ĠcÃ¡ps":7932,"umi":7933,"ĠContin":7934,"Ġdiur":7935,"Ġchild":7936,"wit":7937,"ĠMS":7938,"Ġanticoncep":7939,"Ġsacar":7940,"Ġnombr":7941,"Ġcompletar":7942,"ĠSI":7943,"jera":7944,"Ġregional":7945,"ĠseÃ±ales":7946,"Ġaor":7947,"ĠIS":7948,"lamento":7949,"Ġnotable":7950,"ĠlÃŃmites":7951,"endas":7952,"Ġâī":7953,"ĠhemodinÃ¡m":7954,"Ġproli":7955,"ĠFarmacia":7956,"ĠintroducciÃ³n":7957,"Ġprede":7958,"tieron":7959,"BA":7960,"Ġrespir":7961,"Ġdiscri":7962,"Ġllegado":7963,"Ġesenciales":7964,"ĠautonomÃŃa":7965,"ĠgustarÃŃa":7966,"Ġplasma":7967,"Ã³licos":7968,"Ġinmediato":7969,"Ġnervio":7970,"Ġalcal":7971,"Ġpautas":7972,"arro":7973,"ĠCP":7974,"Ġrefor":7975,"jec":7976,"Ġedemas":7977,"radas":7978,"Ġincluido":7979,"Ġreconoce":7980,"lepsia":7981,"Ġestric":7982,"CD":7983,"Ã³ticos":7984,"Ġrepresentan":7985,"Ġmicros":7986,"oce":7987,"ĠFa":7988,"Ġmiles":7989,"ĠCataluÃ±a":7990,"rilaciÃ³n":7991,"Ġcreado":7992,"doncia":7993,"citos":7994,"Ġincu":7995,"Ġcomprar":7996,"ĠneurolÃ³gica":7997,"Ġepid":7998,"Ġ66":7999,"Ġ2020":8000,"ological":8001,"Ġpru":8002,"Ġbanda":8003,"izan":8004,"Ġtoxicidad":8005,"grÃ¡ficas":8006,"ĠjurÃŃ":8007,"Ġdescanso":8008,"mÃ¡n":8009,"Ġneuronas":8010,"ĠsÃŃntesis":8011,"ĠfÃŃsicas":8012,"Ġintervalo":8013,"vamente":8014,"ĠinterpretaciÃ³n":8015,"Ġinmune":8016,"Ġmensaje":8017,"Ġabundante":8018,"tumb":8019,"ĠFel":8020,"Ġfamos":8021,"âĢĶ":8022,"Ġdebes":8023,"paros":8024,"Ġtomado":8025,"Ġ62":8026,"Ġcoh":8027,"Ġindividuales":8028,"Un":8029,"igen":8030,"Las":8031,"ĠAlemania":8032,"ĠMari":8033,"urs":8034,"Ġsucede":8035,"ĠpreocupaciÃ³n":8036,"Ġ650":8037,"Ġpasando":8038,"ĠdÃ³nde":8039,"Ġentra":8040,"Ġaleator":8041,"Ġinjer":8042,"ĠPablo":8043,"ĠDIS":8044,"Ġcorta":8045,"Ġpreca":8046,"ometrÃŃa":8047,"capaci":8048,"grafÃŃas":8049,"Ġmarcadores":8050,"Ġarticular":8051,"Ġsemil":8052,"tul":8053,"Ġ600":8054,"Ġingre":8055,"ĠRafa":8056,"Ġ61":8057,"ĠdesempeÃ±":8058,"talia":8059,"Ġpancre":8060,"yu":8061,"raciÃ³n":8062,"ĠCapÃŃtulo":8063,"ĠquiÃ©n":8064,"ĠcomplicaciÃ³n":8065,"umat":8066,"Ġjer":8067,"Ġnave":8068,"ionales":8069,"Ã³licas":8070,"Ġrazon":8071,"OMS":8072,"Ġsuperar":8073,"ĠÃºtero":8074,"ĠestarÃ¡":8075,"ĠGestiÃ³n":8076,"amble":8077,"ÃįN":8078,"Ġcis":8079,"Ġimplantes":8080,"500":8081,"nar":8082,"Ġsul":8083,"ĠDiagnÃ³stico":8084,"Ġpatrones":8085,"Ġprimario":8086,"gues":8087,"Ġcontraindic":8088,"Ġabrir":8089,"Ġrojo":8090,"Ġcapacidades":8091,"ĠeconÃ³micos":8092,"amin":8093,"Ġjuegos":8094,"ĠTR":8095,"pecÃŃ":8096,"Ġempleados":8097,"ĠID":8098,"ĠarticulaciÃ³n":8099,"ĠcontinÃºa":8100,"ĠÃģrea":8101,"Ġpreciso":8102,"erales":8103,"Ġdesn":8104,"Ġcercan":8105,"Ġsecuencia":8106,"Ġadulta":8107,"ĠConsejerÃŃa":8108,"ĠJimÃ©nez":8109,"Ġretina":8110,"Ġprecios":8111,"Ġinadecu":8112,"ĠBro":8113,"Ġprivada":8114,"Ġ63":8115,"Ġisquemia":8116,"Ġargum":8117,"Ġses":8118,"Ġtumoral":8119,"Ġambientales":8120,"ALES":8121,"ky":8122,"ĠMad":8123,"Ġuro":8124,"ĠLic":8125,"ĠCe":8126,"cinas":8127,"Ġadolescencia":8128,"urg":8129,"Ġtrombo":8130,"Ġcomentario":8131,"ĠFÃŃs":8132,"hib":8133,"ĠprecisiÃ³n":8134,"ĠDavid":8135,"ombre":8136,"ĠbÃ¡sicas":8137,"Ġimplement":8138,"Ġcomparar":8139,"sociation":8140,"Ġecocardi":8141,"Ġsiguiendo":8142,"Ġindirec":8143,"rillo":8144,"Ġirreg":8145,"Ġrelevan":8146,"Ġarriba":8147,"ĠcalorÃŃas":8148,"2019":8149,"ĠiniciÃ³":8150,"Ġeficiencia":8151,"ficios":8152,"bun":8153,"Ġavanzado":8154,"Ġtracto":8155,"Ġreconocido":8156,"rug":8157,"ĠEco":8158,"ĠreproducciÃ³n":8159,"ĠcuÃ¡les":8160,"Ġusando":8161,"Ġ89":8162,"Ġ1995":8163,"Ġinterno":8164,"Ġrenales":8165,"Ġadmi":8166,"ĠTrastornos":8167,"ĠPsych":8168,"Ġreceta":8169,"istal":8170,"amÃ©rica":8171,"Ġorganizado":8172,"Ġcuentan":8173,"Ġ91":8174,"teras":8175,"ĠCOMP":8176,"ĠRuiz":8177,"Ġdesaf":8178,"ĠEr":8179,"Ġcraneal":8180,"Ġdev":8181,"Ġdiagnosticados":8182,"Ġconfigur":8183,"Ġintensa":8184,"ĠplanificaciÃ³n":8185,"ambien":8186,"onia":8187,"ĠBr":8188,"Ġmanual":8189,"ĠJulio":8190,"reo":8191,"Ġcavidad":8192,"ĠBuenos":8193,"ĠestÃ¡s":8194,"Ġprima":8195,"Ġ59":8196,"Ġlogra":8197,"entre":8198,"DOS":8199,"Ġsencillo":8200,"Ġcomercial":8201,"faci":8202,"Ã±imiento":8203,"actividad":8204,"prazol":8205,"Ġbrazos":8206,"Ġtercio":8207,"Ġ84":8208,"tarias":8209,"ĠanomalÃŃas":8210,"Ġsubs":8211,"Ġeducativo":8212,"depres":8213,"Ġ%:.":8214,"Ġinicialmente":8215,"int":8216,"ĠcutÃ¡nea":8217,"iendan":8218,"Ġcomor":8219,"ĠWeb":8220,"ĠProfesi":8221,"Ġpermitan":8222,"jidad":8223,"cionalmente":8224,"rupciÃ³n":8225,",,":8226,"Ġamigo":8227,"Ġaut":8228,"Ġlesi":8229,"ĠaÃ±adir":8230,"MO":8231,"Ġconvocatoria":8232,"Ġimposible":8233,"cord":8234,"ĠInsu":8235,"Ġllegan":8236,"Ġthis":8237,"Ġexpe":8238,"estre":8239,"Ġdimensiones":8240,"Ġproximal":8241,"Ġconlleva":8242,"mail":8243,"egal":8244,"RAN":8245,"Ġevidencias":8246,"fun":8247,"Ġprofundidad":8248,"Ġcuidadores":8249,"ĠVil":8250,"Ġciencias":8251,"Ġmezcl":8252,"ĠMaterial":8253,"Ġenfrent":8254,"tructiva":8255,"________":8256,"ĠrespiraciÃ³n":8257,"Ġtelef":8258,"terona":8259,"Ġautoinmun":8260,"eamente":8261,"itud":8262,"ĠRespecto":8263,"plÃ¡s":8264,"Ġequival":8265,"Ġplantea":8266,"lesia":8267,"ĠconclusiÃ³n":8268,"ĠGinec":8269,"ĠsanguÃŃneos":8270,"ĠfrÃŃo":8271,"oria":8272,"Ġdescriptivo":8273,"ĠprestaciÃ³n":8274,"ĠfÃ¡cilmente":8275,"ĠvarÃ³n":8276,"Ġart":8277,"fren":8278,"Ġconsejo":8279,"Ġconducir":8280,"Ġfuncionales":8281,"Ġlegisl":8282,"ĠSolici":8283,"ĠSuperior":8284,"ĠSARS":8285,"Ġprotocolos":8286,"idismo":8287,"ation":8288,"quÃŃmica":8289,"Ġrepresentantes":8290,"Ġapartado":8291,"ĠAutÃ³noma":8292,"ĠSte":8293,"ye":8294,"Ġlimpieza":8295,"As":8296,"ĠlÃ¡":8297,"ritos":8298,"Ġed":8299,"Ġligeramente":8300,"ĠfÃŃsicos":8301,"Ġespectro":8302,"Ġmasas":8303,"ĠOrden":8304,"Ġvidas":8305,"Ġluc":8306,"Ġparecer":8307,"ĠProce":8308,"terapeu":8309,"ĠmisiÃ³n":8310,"ĠBlo":8311,"Ġfibras":8312,"ĠafecciÃ³n":8313,"echas":8314,"ĠTur":8315,"Ġpena":8316,"ĠLO":8317,"Ġdebilidad":8318,"Ġsitios":8319,"Ġabordar":8320,"Ġidi":8321,"ĠaÃ³rtica":8322,"Ġraras":8323,"erapy":8324,"Ġobjetiva":8325,"Ġsometidos":8326,"ĠDA":8327,"Ġintelectual":8328,"Ġ67":8329,"Ġcoronario":8330,"Ġnovel":8331,"Ġuniversidad":8332,"Ġciclos":8333,"Ġrecuperar":8334,"ĠsecreciÃ³n":8335,"ĠaminoÃ¡":8336,"trada":8337,"Ġinters":8338,"ĠExiste":8339,"ney":8340,"Ġdemostrar":8341,"Ġfavorecer":8342,"Ã³f":8343,"Ġajuste":8344,"Ġconvertido":8345,"Ġviral":8346,"ĠpermitirÃ¡":8347,"Ġvisit":8348,"ĠoÃŃdo":8349,"pp":8350,"Ġsobreviv":8351,"ĠTabla":8352,"Ġcualita":8353,"UES":8354,"ĠActualizado":8355,"Ġfies":8356,"Ġadecuados":8357,"Ġaprobado":8358,"Ġmiel":8359,"Ġonline":8360,"Ġbiom":8361,"Ġquieres":8362,"Ġreemp":8363,"ĠexÃ¡menes":8364,"An":8365,"ÆĴ":8366,"Ġconseguido":8367,"Ġpreocu":8368,"Ġsiente":8369,"filia":8370,"ĠCentros":8371,"ĠSatO":8372,"ĠConsul":8373,"Ġinmediata":8374,"ĠventilaciÃ³n":8375,"ĠDu":8376,"Ġ87":8377,"ĠEso":8378,"Ġabuso":8379,"ĠpolÃŃticos":8380,"Ġfemenino":8381,"tÃ©tica":8382,"ÃŃsimo":8383,"ICOS":8384,"Ġcabe":8385,"Ġrein":8386,"iados":8387,"Ġsolicitud":8388,"Ġgolpe":8389,"anti":8390,"Ġsufrido":8391,"Ġactuaciones":8392,"Ġiba":8393,"Ġmoderado":8394,"Ġnormativa":8395,"ĠgenÃ©ticos":8396,"Ġcreciente":8397,"biendo":8398,"ĠadquisiciÃ³n":8399,"Ġdescritos":8400,"Ġ86":8401,"Ġinteg":8402,"quinas":8403,"Ġconservada":8404,"ĠatrÃ¡s":8405,"Ġtriste":8406,"ciru":8407,"ÃŃsticos":8408,"Ġcrepit":8409,"ĠfarmacÃ©uticos":8410,"Me":8411,"Ġpudiendo":8412,"Ġpediatra":8413,"Ġclima":8414,"ĠSue":8415,"Ġrecoge":8416,"trosis":8417,"Ġrue":8418,"Ġoportunidades":8419,"adura":8420,"ĠporciÃ³n":8421,"Ġnegocio":8422,"ĠgrÃ¡":8423,"Ġsegundos":8424,"hu":8425,"ĠcafÃ©":8426,"ĠCE":8427,"Ġ83":8428,"ueba":8429,"Ã©lv":8430,"Ġ74":8431,"Ġfisioterapia":8432,"bes":8433,"Ġorto":8434,"Ġintoler":8435,"Ġsubcu":8436,"opa":8437,"ĠClÃŃnico":8438,"Ġprivado":8439,"Ġvena":8440,"Ġdocentes":8441,"Ġcarbo":8442,"Ġpublica":8443,"Ġantecedente":8444,"Ġcuarto":8445,"Ġdecidir":8446,"tiroidismo":8447,"ween":8448,"ĠobtenciÃ³n":8449,"Ġinmi":8450,"?.":8451,"?,":8452,"Ġ69":8453,"Ġene":8454,"ĠplÃ¡s":8455,"Ġretos":8456,"turaciÃ³n":8457,"ĠsÃ¡":8458,"Ġresca":8459,"ĠCarmen":8460,"rantes":8461,"Ġfeto":8462,"Ġconocidas":8463,"ĠrÃŃo":8464,"Ġdeter":8465,"ĠOI":8466,"try":8467,"Ġoperaciones":8468,"Ġdiscu":8469,"ĠactÃºa":8470,"Ġpais":8471,"ĠÃ¡mbitos":8472,"ĠCS":8473,"ĠharÃ¡":8474,"Ġcolores":8475,"Ġvulner":8476,"ĠSEC":8477,"blaciÃ³n":8478,"Ġmodificar":8479,"ĠpolÃŃtico":8480,"Ġuter":8481,"ftware":8482,"RAL":8483,"ĠcaracterÃŃstica":8484,"Ġinflamatoria":8485,"Ġconcluye":8486,"Ġfacilita":8487,"Ġesquizo":8488,"blas":8489,"gamos":8490,"Ġmara":8491,"Ġdarle":8492,"crip":8493,"Ġlider":8494,"gadas":8495,"Ġpagar":8496,"tz":8497,"anim":8498,"tadora":8499,"derÃ¡":8500,"Ġlaboratorios":8501,"Ġenfermeros":8502,"tiza":8503,"Ġblanca":8504,"tuvieron":8505,"Ġcrema":8506,"Ġestudiado":8507,"illos":8508,"Ġuniversal":8509,"ĠSIN":8510,"Ġcatal":8511,"deres":8512,"Ġdigo":8513,"ĠtelÃ©fono":8514,"Ġcha":8515,"Ġnuevamente":8516,"Ġsonda":8517,"Ġcomplejidad":8518,"Ġregistros":8519,"Ġseguros":8520,"Ġcicatriz":8521,"Ġimpac":8522,"Ġsano":8523,"Ġocurrir":8524,"Ġaumentan":8525,"ĠpasÃ³":8526,"PO":8527,"AG":8528,"ĠElec":8529,"ĠFuer":8530,"uris":8531,"drÃŃa":8532,"ĠEfec":8533,"Ġcumple":8534,"ĠCalidad":8535,"Ġdefens":8536,"Ġtraum":8537,"ĠFormaciÃ³n":8538,"Ġinaugur":8539,"Ġmue":8540,"Ġrisk":8541,"Ġexistir":8542,"ĠPRO":8543,"Ġhombro":8544,"ĠPaÃŃs":8545,"ĠChina":8546,"erse":8547,"ĠacompaÃ±ado":8548,"IX":8549,"Ġbiliar":8550,"Ġapertura":8551,"Ġdeterminada":8552,"Ġmanifiesta":8553,"igo":8554,"ĠSec":8555,"han":8556,"ĠCÃ¡":8557,"ĠdiabÃ©ticos":8558,"igual":8559,"Ġesclerosis":8560,"Ġvic":8561,"ÃŃg":8562,"tizaciÃ³n":8563,"empo":8564,"Ġdesign":8565,"ĠFun":8566,"elas":8567,"Ã¡ncreas":8568,"Ġparticipan":8569,"Ġanticoagul":8570,"Ġganar":8571,"Ġautoestima":8572,"Ġservir":8573,"dado":8574,"Ġpotencialmente":8575,"ĠnÃºcleo":8576,"DR":8577,")-":8578,"pÃŃ":8579,"Ġpropa":8580,"ciencia":8581,"Ġpadece":8582,"Ġorientada":8583,"Ã©rcito":8584,"Ġligera":8585,"Ġdrenaje":8586,"ĠPS":8587,"ĠdonaciÃ³n":8588,"Ġbos":8589,"ĠquirÃºrgicas":8590,"Ġ78":8591,"ĠVenezuela":8592,"ĠProvin":8593,"ĠdetrÃ¡s":8594,"ĠcolocaciÃ³n":8595,"ĠCV":8596,"Ġropa":8597,"Ġcron":8598,"Ġusan":8599,"toras":8600,"ĠRÃŃo":8601,"Ġrefuer":8602,"oras":8603,"ime":8604,"ĠeconomÃŃa":8605,"ĠUR":8606,"Ġ71":8607,"Ġnegativas":8608,"ĠParkinson":8609,"Ġpotencia":8610,"Ġpudiera":8611,"Ġlejos":8612,"Ġheredi":8613,"Ġinterrump":8614,"idade":8615,"Ġaumentando":8616,"Ġtobil":8617,"ĠCurso":8618,"ĠRafael":8619,"ires":8620,"Ġparticularmente":8621,"Ġimplicados":8622,"ĠincorporaciÃ³n":8623,"Ġincrementar":8624,"Ġeupne":8625,"Ġinfiltrados":8626,"Ġconsenso":8627,"ĠpartÃŃculas":8628,"Ġfren":8629,"Ġcuyos":8630,"Ġatrac":8631,"Ġcontrac":8632,"Ġpolic":8633,"Ġresonancia":8634,"ĠVan":8635,"Ġapoyar":8636,"bacteri":8637,"Ġimper":8638,"Ġseries":8639,"Ġculturales":8640,"Ġnariz":8641,"Ġinternet":8642,"tÃŃculo":8643,"Ġpolvo":8644,"uidos":8645,"Ġasistenciales":8646,"zepam":8647,"Ġfetal":8648,"Ġtronco":8649,"Ġquedan":8650,"isto":8651,"ĠMuchos":8652,"iver":8653,"Ġjueves":8654,"Ġdign":8655,"bility":8656,"ÃĬ":8657,"enciaciÃ³n":8658,"Ġpresupuesto":8659,"Ġvejiga":8660,"alizaciones":8661,"ĠMoreno":8662,"ĠPop":8663,"Ġarch":8664,"ĠJorge":8665,"Ġsencilla":8666,"dular":8667,"ĠWe":8668,"Ġclinical":8669,"Ġagudas":8670,"Ã³micos":8671,"ĠhabrÃŃa":8672,"tibilidad":8673,"ĠBor":8674,"Ġdul":8675,"ĠMO":8676,"Ġdivul":8677,"ĠUr":8678,"ĠEp":8679,"Ġfumadores":8680,"ĠCK":8681,"ugh":8682,"ĠSAL":8683,"Ġnegro":8684,"Ġ77":8685,"Ġempren":8686,"Ġclientes":8687,"Ã¡neo":8688,"Ġrecidi":8689,"Ġcubrir":8690,"ĠestratÃ©":8691,"ics":8692,"Ġactos":8693,"Ġtrombosis":8694,"patologÃŃa":8695,"ÆĴÃĬ":8696,"Ġ250":8697,"undir":8698,"Ġauxil":8699,"ight":8700,"Ġlent":8701,"Ġambiental":8702,"Ġrelevancia":8703,"Ġverdadera":8704,"Ġconvuls":8705,"ĠejecuciÃ³n":8706,"olencia":8707,"Ġtrim":8708,"Ġemergencia":8709,"Ġsopl":8710,"Ġ73":8711,"pado":8712,"Ġdiagnosticar":8713,"alquilo":8714,"ĠCla":8715,"OSI":8716,"ĠirritaciÃ³n":8717,"Ġmoles":8718,"Ġcribado":8719,"ĠrecomendaciÃ³n":8720,"Ġpersistencia":8721,"Ġenvas":8722,"EV":8723,"Ġhermano":8724,"2017":8725,"GR":8726,"macias":8727,"Ġfoco":8728,"Ġaguas":8729,"Ġeffec":8730,"Ġchar":8731,"Ġcuanti":8732,"ĠTodas":8733,"Ġcostos":8734,"Ġconfirma":8735,"Ġdefecto":8736,"Ġosteoporosis":8737,"Ġincapacidad":8738,"ĠrepresentaciÃ³n":8739,"Ġpersiste":8740,"Ġbu":8741,"izon":8742,"Ġfondos":8743,"Ġvalv":8744,"ĠMedicamentos":8745,"lox":8746,"zaron":8747,"Ġminerales":8748,"Ġformato":8749,"Ġsensible":8750,"Ġalerta":8751,"Ġaliviar":8752,"Ġendome":8753,"Ġplaquetas":8754,"Ġ76":8755,"ĠÎ¼":8756,"Ġidentificado":8757,"Ġeuropeos":8758,"Ġfomentar":8759,"ĠInsuficiencia":8760,"Ġvice":8761,"ĠSÃ³lo":8762,"lÃŃ":8763,"ĠReci":8764,"Ġexclusivamente":8765,"ENCIA":8766,"Ġevidenci":8767,"cÃ¡r":8768,"Ġadh":8769,"diÃ¡lisis":8770,"Ġinsec":8771,"Ġpropiedad":8772,"Ġcomplejos":8773,"EMAIL":8774,"ĠgeogrÃ¡":8775,"Ġocci":8776,"Ġoscu":8777,"elo":8778,"rÃ³n":8779,"Ġuse":8780,"ĠestreÃ±imiento":8781,"ĠpatolÃ³gicos":8782,"dent":8783,"Ġmicroorganismos":8784,"ĠDL":8785,"amblea":8786,"Ġcaracterizado":8787,"hidro":8788,"Ġantiinflama":8789,"Ġpasan":8790,"Ġcondicion":8791,"ding":8792,"Ġprecisamente":8793,"Ġgrasos":8794,"Ġelevados":8795,"Ġinqui":8796,"teroides":8797,"Ġmorbilidad":8798,"Ġdependiente":8799,"ĠlÃŃder":8800,"uestros":8801,"ĠGa":8802,"Ĥ¬":8803,"Ġretirada":8804,"ĠMurcia":8805,"Ġsuerte":8806,"Ġ1994":8807,"Ġperiodis":8808,"icultura":8809,"Ġprocedentes":8810,"Ġvasculares":8811,"ĠmagnÃ©tica":8812,"orrea":8813,"Ġpuestos":8814,"Ġinvestigadora":8815,"ĠUs":8816,"Ġidentidad":8817,"Ġparenquimatos":8818,"Ġcubier":8819,"Ġcuerpos":8820,"Ġhar":8821,"ĠPi":8822,"vida":8823,"Ġintr":8824,"ĠÃģfrica":8825,"quirÃºrg":8826,"Ġfracaso":8827,"ĠbiolÃ³gicos":8828,"ĠUS":8829,"ĠmodificaciÃ³n":8830,"ingitis":8831,"Ġruidos":8832,"Ġalimentaria":8833,"ĠFarmacÃ©u":8834,"ĠEnrique":8835,"Ġcaminar":8836,"Ġoferta":8837,"ĠimplementaciÃ³n":8838,"ĠtendrÃ¡n":8839,"ĠMie":8840,"abel":8841,"Ġrara":8842,"Ġanormal":8843,"Ġentero":8844,"Ġtend":8845,"ĠCiencia":8846,"Ġhistorias":8847,"Ġmortal":8848,"Ġvaya":8849,"guay":8850,"osotros":8851,"micina":8852,"tonina":8853,"Ġnueve":8854,"Ġexterno":8855,"Ġnoticias":8856,"Ġeres":8857,"ritu":8858,"Ġcontinuo":8859,"Ġindependencia":8860,"Ġrelaciona":8861,"Ġcef":8862,"ĠÃŃte":8863,"Ġninguno":8864,"ocial":8865,"Ġmate":8866,"Ġhermanos":8867,"ÆĴÃĬl":8868,"ĠnÃ³d":8869,"deras":8870,"ĠMÃ©todos":8871,"Ġfuertes":8872,"Ġprocede":8873,"2018":8874,"Ġcontrolado":8875,"abor":8876,"ĠNuestro":8877,"Ġtrayec":8878,"Ġsuperficial":8879,"microbi":8880,"ĠdilataciÃ³n":8881,"pensaciÃ³n":8882,"Ġafecciones":8883,"posa":8884,"ÃŃns":8885,"ĠdemostrÃ³":8886,"Ġgro":8887,"ezca":8888,"ĠbaÃ±o":8889,"Ġconveniente":8890,"NS":8891,"Ġcongreso":8892,"Ã³ricos":8893,"Ġcercano":8894,"ĠcardÃŃaco":8895,"Ġhel":8896,"ĠPerÃº":8897,"ĠRS":8898,"iada":8899,"abras":8900,"uri":8901,"Ġinvier":8902,"vante":8903,"tenia":8904,"gulo":8905,"tativa":8906,"ulation":8907,"Ġinesta":8908,"TICO":8909,"ĠhÃ¡bito":8910,"ĠGre":8911,"HS":8912,"Ġcontes":8913,"Ġafrontar":8914,"ividad":8915,"psic":8916,"fre":8917,"Ġayudas":8918,"Ġvoluntad":8919,"ĠsistÃ©mica":8920,"Ġpil":8921,"ĠpediÃ¡trica":8922,"Ġcultivos":8923,"ĠDise":8924,"Ġconvertirse":8925,"olas":8926,"Ġbalance":8927,"Ġdecre":8928,"itica":8929,"Ġsat":8930,"Ã©di":8931,"Ġleves":8932,"ĠJun":8933,"Ġrecogida":8934,"ĠlimitaciÃ³n":8935,"Ġcorticoides":8936,"Ãª":8937,"ĠaprobaciÃ³n":8938,"ĠRecom":8939,"ĠOri":8940,"Ġlocalidad":8941,"ĠCancer":8942,"ĠhacÃŃa":8943,"Ġhacemos":8944,"ĠÃ©stas":8945,"Ġpresi":8946,"icen":8947,"Ġmix":8948,"rit":8949,"ĠdecidiÃ³":8950,"Ġsaben":8951,"Ġdentales":8952,"ĠSolo":8953,"Ġadquirir":8954,"dy":8955,"carga":8956,"Ġaquella":8957,"ĠvÃŃctimas":8958,"Ġpresentaban":8959,"Ġrechazo":8960,"ACIÃĵN":8961,"Ġtoman":8962,"irman":8963,"Ġenzimas":8964,"hiper":8965,"ĠcÃ³digo":8966,"tÃ©r":8967,"acos":8968,"ĠventrÃŃculo":8969,"ters":8970,"Ġrecomiendan":8971,"ÃŃc":8972,"Ġcepas":8973,"Ġdermat":8974,"IOS":8975,"ĠmuÃ±":8976,"ĠNeu":8977,"Ġirre":8978,"coccus":8979,"Ġempieza":8980,"Ġtono":8981,"Ġresponde":8982,"ĠVilla":8983,"Ġdietas":8984,"Ġobtiene":8985,"ticulares":8986,"Ġresultar":8987,"Ġtambien":8988,"eles":8989,"Ġrama":8990,"Ġiniciativas":8991,"Ġabre":8992,"ulitis":8993,"Ġfibrosis":8994,"Ġpago":8995,"Ã¡gico":8996,"ĠSecciÃ³n":8997,"tomia":8998,"Ġcontrato":8999,"Ġperdido":9000,"len":9001,"Ġlog":9002,"ĠAT":9003,"ĠsÃºbi":9004,"Ġ1990":9005,"Ġultras":9006,"vasta":9007,"Ġvesical":9008,"ĠBus":9009,"dices":9010,"dias":9011,"Ġescolares":9012,"TRO":9013,"tito":9014,"ĠCro":9015,"Ġinfluenza":9016,"Ġpropone":9017,"olÃ³gicamente":9018,"bano":9019,"ĠFisio":9020,"IER":9021,"wo":9022,"Ġpuerta":9023,"Ġreclam":9024,"Ġprobabilidades":9025,"Ġsho":9026,"ĠJus":9027,"ĠCat":9028,"Ġfeno":9029,"Ġexplican":9030,"bamos":9031,"Ġ81":9032,"Ġago":9033,"plante":9034,"Ġneutro":9035,"terna":9036,"Ġdestr":9037,"ĠniÃ±a":9038,"Ġadecuadas":9039,"Ġcelulares":9040,"Ġtransi":9041,"Ġincis":9042,"ĠautÃ³nomas":9043,"ĠrealizarÃ¡":9044,"Ġadver":9045,"pdf":9046,"inc":9047,"ĠCAP":9048,"Ġapunta":9049,"Ġinmo":9050,"ĠCambi":9051,"Ġ110":9052,"parina":9053,"Ġrefi":9054,"cÃ©s":9055,"Ġparejas":9056,"ecÃŃa":9057,"Ġponen":9058,"ĠCoordin":9059,"ĠÃģlvarez":9060,"Ġcausada":9061,"istan":9062,"ĠcÃ¡nceres":9063,"ĠfÃºtbol":9064,"ĠZara":9065,"Ġcuadr":9066,"ears":9067,"ĠgenÃ©ticas":9068,"vaciÃ³n":9069,"Ġbetween":9070,"Ġmasculino":9071,"direc":9072,"copio":9073,"Ġderivado":9074,"ĠParti":9075,"ĠClas":9076,"ĠprÃ³xima":9077,"ĠPsiquiatrÃŃa":9078,"Ġrecurso":9079,"ĠtÃ©":9080,"ash":9081,"ĠclÃŃnicamente":9082,"ĠpÃ¡ncreas":9083,"uyeron":9084,"Ġanunci":9085,"Ġcontribuye":9086,"olera":9087,"Ġpilo":9088,"af":9089,"Ġinsul":9090,"zco":9091,"ĠquÃŃmicos":9092,"Ġestrecho":9093,"plo":9094,"Ġrespal":9095,"Ġav":9096,"ĠFal":9097,"ĠAmi":9098,"Ġexud":9099,"ĠGuÃŃa":9100,"Ġbuscando":9101,"ĠSegun":9102,"ĠHC":9103,"ĠAndr":9104,"laga":9105,"ĠVac":9106,"Ġdonante":9107,"Ġpescado":9108,"Ġgusto":9109,"lada":9110,"Ġpotasio":9111,"Ġhy":9112,"Ġtotalidad":9113,"Ġdiarias":9114,"Ġsiento":9115,"Ġcubana":9116,"Ġescuelas":9117,"Ġaguja":9118,"Ġcontrolada":9119,"ĠPresenta":9120,"ĠRen":9121,"Ġminimi":9122,"Ġlimitada":9123,"Ġdeposiciones":9124,"Ġmediana":9125,"Ġrayos":9126,"Ġenzima":9127,"Ġpersistente":9128,"Ġarm":9129,"Ġganglios":9130,"Ġpuso":9131,"Ġfebril":9132,"Ġnoticia":9133,"Ġarquitec":9134,"Ġseleccionados":9135,"Ġbucal":9136,"Ġpartidos":9137,"Ġfarmacias":9138,"Ġbacteriana":9139,"ĠArch":9140,"Ġrevolucion":9141,"Ġrefrac":9142,"iller":9143,"ĠIr":9144,"ĠBogo":9145,"ĠmonitorizaciÃ³n":9146,"dnis":9147,"Ġconflicto":9148,"ĠautorizaciÃ³n":9149,"Ġcorriente":9150,"Ġespecializado":9151,"xina":9152,"ĠelÃ©ctrica":9153,"ĠsistemÃ¡tica":9154,"Ġlogrado":9155,"ĠMedicine":9156,"Ġign":9157,"Ġdemuestran":9158,"Ġsale":9159,"onso":9160,"Ġaconsej":9161,"Ġolvidar":9162,"picas":9163,"ĠSig":9164,"Ġredon":9165,"Ġdisponibilidad":9166,"Ġinterfer":9167,"ĠcuraciÃ³n":9168,"Ġsuave":9169,"ĠFre":9170,"ik":9171,"tavo":9172,"ĠespecÃŃficamente":9173,"ld":9174,"Ġhincha":9175,"eto":9176,"ULAR":9177,"iaciÃ³n":9178,"Ġ79":9179,"umonia":9180,"ĠIgual":9181,"ĠaÃ±adido":9182,"Ġinger":9183,"Ġpreparar":9184,"GEN":9185,"tano":9186,"Ġterminar":9187,"plica":9188,"Ġdetalles":9189,"ĠÃºlceras":9190,"Ġsopor":9191,"Ġpotenciales":9192,"izadas":9193,"ĠreparaciÃ³n":9194,"Ġreferente":9195,"incl":9196,"ierÃŃa":9197,"Ġintercambio":9198,"Ġmultidisciplinar":9199,"ĠHipo":9200,"Ġsupra":9201,"Ġpis":9202,"ĠsanguÃŃnea":9203,"Ġfirma":9204,"ĠPersonas":9205,"ĠcelebraciÃ³n":9206,"ĠTanto":9207,"ĠcutÃ¡neas":9208,"ĠHid":9209,"Ġdiversidad":9210,"loxaci":9211,"Ġeficiente":9212,"glucemia":9213,"ties":9214,"ĠEspecialista":9215,"ĠvÃŃn":9216,"Ġinver":9217,"Ġtalla":9218,"frenia":9219,"Ġcena":9220,"Ã©rcoles":9221,"Ġdeform":9222,"Ġout":9223,"izaciones":9224,"Ġoro":9225,"Ġsoplos":9226,"Ġstent":9227,"ĠdesempeÃ±o":9228,"ĠhemodinÃ¡micamente":9229,"Ġintento":9230,"Ġaprecia":9231,"ĠSÃŃ":9232,"goza":9233,"Ġvegetales":9234,"lano":9235,"ĠCastro":9236,"Ġextir":9237,"ĠquÃŃmica":9238,"ĠESTA":9239,"Ġextraordin":9240,"elleza":9241,"ĠPhar":9242,"torno":9243,"Ġdiferencial":9244,"dador":9245,"ĠFil":9246,"Ġpierna":9247,"Ġdeficiencia":9248,"Ġpiezas":9249,"ĠestadÃŃstico":9250,"Ġreales":9251,"toxicaciÃ³n":9252,"ĠConstitu":9253,"Ġexcesiva":9254,"Ġdeportiva":9255,"Ġexperimental":9256,"ĠterapÃ©uticos":9257,"Ġsecuelas":9258,"Ġsuplementos":9259,"Ġgastos":9260,"Ġinteracciones":9261,"Ġexpectativas":9262,"Ġmitral":9263,"mu":9264,"Ġclaves":9265,"ĠdiseÃ±ado":9266,"Ġpremios":9267,"ĠbÃ¡sico":9268,"Ġmalo":9269,"ĠEstad":9270,"Ġsectores":9271,"Ġacaba":9272,"Ġasesoramiento":9273,"Ġdespren":9274,"Ġpese":9275,"mÃŃn":9276,"Ġaval":9277,"Ġpresidenta":9278,"Ġobservaron":9279,"timos":9280,"Ġantibio":9281,"Ġalb":9282,"ĠPD":9283,"ĠContra":9284,"Ġhumor":9285,"Ġactitudes":9286,"Ġdescribir":9287,"Ġmorir":9288,"ĠObjetivos":9289,"mialgia":9290,"Ġincluyeron":9291,"omina":9292,"ĠcapÃŃtulo":9293,"ĠTerapia":9294,"ÃŃqu":9295,"Ġculpa":9296,"ĠDatos":9297,"Ġfic":9298,"toral":9299,"dromes":9300,"Ġdelante":9301,"ĠSER":9302,"Ġestil":9303,"ĠResearch":9304,"ĠCrist":9305,"Ġuniversidades":9306,"Ġcuadros":9307,"ĠmotivaciÃ³n":9308,"Ġgradu":9309,"Ġalfa":9310,"Ġaer":9311,"Ġveo":9312,"Ġisla":9313,"Ġinfecciosas":9314,"itromicina":9315,"Ġhemorr":9316,"Ġvino":9317,"ĠIma":9318,"Ã³nimo":9319,"Ã³sitos":9320,"Ġalergias":9321,"Ġadj":9322,"Ġim":9323,"umato":9324,"ĠMunicip":9325,"ĠSC":9326,"Ġtrig":9327,"Ġlaparos":9328,"Ġadicionales":9329,"ĠacadÃ©mico":9330,"ĠquizÃ¡s":9331,"dosis":9332,"iforn":9333,"INE":9334,"Ġelaborado":9335,"Ġele":9336,"uida":9337,"Ġcolegio":9338,"ĠRegistro":9339,"Ġelevadas":9340,"denes":9341,"Ġinteligencia":9342,"Ã³bulos":9343,"Ġconsejero":9344,"omnio":9345,"cg":9346,"Ġrefleja":9347,"ĠBl":9348,"Ġsignificado":9349,"Ġbajar":9350,"Ġsubje":9351,"Ġtraslado":9352,"Ġprolongada":9353,"Ġepilepsia":9354,"viera":9355,"HD":9356,"uos":9357,"Ġdra":9358,"Ġprome":9359,"Ġexcre":9360,"Ġanalizaron":9361,"ĠinfusiÃ³n":9362,"ĠAnalÃŃtica":9363,"ĠST":9364,"Ġdieron":9365,"Ġintroducir":9366,"Ġtalleres":9367,"Ġmareo":9368,"Ġparticiparon":9369,"adi":9370,"rugas":9371,"ĠLatino":9372,"oriasis":9373,"ĠNorm":9374,"ĠVirgen":9375,"Ġplacas":9376,"Ġinfecciosa":9377,"ĠSiempre":9378,"Ġrequi":9379,"Ġpig":9380,"Ġfavorece":9381,"hospital":9382,"Ġcoli":9383,"Ġsusp":9384,"Ġdedicado":9385,"ĠtrÃ¡fico":9386,"Ġmultic":9387,"Ġformul":9388,"Ġconfirmar":9389,"Ġja":9390,"Ġadolescente":9391,"Ġcont":9392,"ĠFon":9393,"ÃŃgen":9394,"Ġfrontal":9395,"anÃ¡lisis":9396,"ĠEmb":9397,"ĠCÃ³r":9398,"elec":9399,"Ġgeneralizada":9400,"ĠpÃ©lv":9401,"vastatina":9402,"ser":9403,"Ġinvasiva":9404,"ĠestadÃŃstica":9405,"ĠfÃ©r":9406,"Ġascen":9407,"ĠCompar":9408,"ĠactualizaciÃ³n":9409,"lauc":9410,"ifornia":9411,"ĠvÃ©r":9412,"ĠMMII":9413,"Ġ02":9414,"tabilidad":9415,"Ġdeleg":9416,"Ġwe":9417,"Ġnot":9418,"enciana":9419,"Ġcentr":9420,"Ġprolifer":9421,"Ġsiglas":9422,"ĠNational":9423,"BP":9424,"Ġhonor":9425,"Ġpur":9426,"Ġameric":9427,"ĠVM":9428,"fago":9429,"Ġopiniones":9430,"endario":9431,"Ġmodificaciones":9432,"doba":9433,"ĠJefe":9434,"Ġcomercio":9435,"Ġindicar":9436,"Ġadversas":9437,"Ġreducido":9438,"ĠXV":9439,"ĠUtil":9440,"ĠrepercusiÃ³n":9441,"Ġalcanza":9442,"rillos":9443,"ĠNÃº":9444,"ĠAlonso":9445,"ĠCul":9446,"Ġprolong":9447,"Ġdisponer":9448,"ĠpermitiÃ³":9449,"Ġiniciales":9450,"ĠItalia":9451,"plicaciÃ³n":9452,"Ġparcialmente":9453,"Ġdiuresis":9454,"ĠChar":9455,"ĠparÃ¡s":9456,"Ġpalia":9457,"Ġtemprano":9458,"Ġpodcast":9459,"Ġcreatinina":9460,"tividades":9461,"Ġclub":9462,"mann":9463,"ĠBos":9464,"ĠAssociation":9465,"Ġvitro":9466,"ritÃ¡n":9467,"fis":9468,"ĠExtre":9469,"Ġcompeti":9470,"ĠMy":9471,"osofÃŃa":9472,"ĠAquÃŃ":9473,"Ġrutina":9474,"ĠSeÃ±":9475,"Ġcolaboradores":9476,"ĠcoagulaciÃ³n":9477,"ĠSim":9478,"Ġpico":9479,"ĠsistÃ³lica":9480,"Ġconstruir":9481,"ĠComer":9482,"Ġfavorable":9483,"eu":9484,"cap":9485,"Ġmantienen":9486,"urales":9487,"Ġvein":9488,"ĠArag":9489,"Ã¡is":9490,"Ġrig":9491,"ĠelectrÃ³nica":9492,"denas":9493,"Ġlipo":9494,"Ġsustituido":9495,"ĠLor":9496,"Ġenrique":9497,"Ġaci":9498,"Ġcaro":9499,"Ġestudiante":9500,"ĠPaz":9501,"Ġcomplicado":9502,"Ġpromue":9503,"Ġneumo":9504,"Ġartificial":9505,"ze":9506,"Ġ1993":9507,"Ġtransmitir":9508,"Ġsuficientes":9509,"vador":9510,"ĠeconÃ³micas":9511,"2094":9512,"ĠlegislaciÃ³n":9513,"Ġjusto":9514,"ĠLatina":9515,"Ġrasgos":9516,"Ġvariabilidad":9517,"Ġfacilidad":9518,"Ġprevisto":9519,"ĠpsicolÃ³gica":9520,"Ġdenominado":9521,"Ġdesigual":9522,"ĠtransformaciÃ³n":9523,"Ġdeg":9524,"Ġpulmones":9525,"ĠOficial":9526,"Ġrelativa":9527,"Ġconforme":9528,"Ġintravenosa":9529,"ĠUso":9530,"ACION":9531,"Ġrepetir":9532,"ĠMis":9533,"ĠlÃ¡c":9534,"Ġvertebral":9535,"ĠPorque":9536,"Ġescenario":9537,"ĠconservaciÃ³n":9538,"uraciÃ³n":9539,"Ġmanio":9540,"ĠPalabras":9541,"Ġpse":9542,"DAH":9543,"Ġhepato":9544,"ĠDomin":9545,"Ġexcepto":9546,"ĠconexiÃ³n":9547,"Ġejercer":9548,"Ġposeen":9549,"Ġvoluntarios":9550,"ocom":9551,"ife":9552,"ĠEd":9553,"ĠSub":9554,"ĠJC":9555,"dicial":9556,"ĠMir":9557,"exia":9558,"Ġasigna":9559,"tuaciÃ³n":9560,"Ġcompens":9561,"ĠIMC":9562,"vol":9563,"Ġsoftware":9564,"dem":9565,"ĠquirÃºrgicos":9566,"Ġposiblemente":9567,"ĠUl":9568,"Ġpieza":9569,"Ġautol":9570,"ĠcomercializaciÃ³n":9571,"ĠPRES":9572,"Ġexpector":9573,"ĠmetabÃ³lico":9574,"ĠOdon":9575,"Ġtaquicardia":9576,"Ġcubano":9577,"ĠArterial":9578,"ĠfabricaciÃ³n":9579,"Ġdorsal":9580,"Ġax":9581,"Ġjuntos":9582,"Ġinn":9583,"ĠAmbi":9584,"mizol":9585,"Ġfacilit":9586,"ĠcÃ³r":9587,"anzas":9588,"Ġom":9589,"ness":9590,"Ġintermi":9591,"ĠInd":9592,"arlos":9593,"Ġdescubrir":9594,"Ġsocioecon":9595,"st":9596,"rente":9597,"velop":9598,"Ġcomplementarias":9599,"Ġcompleja":9600,"Ġimagin":9601,"CuÃ¡l":9602,"ĠaceptaciÃ³n":9603,"Ġsometer":9604,"Ġhuevos":9605,"Ġdestino":9606,"Ġutilizadas":9607,"ĠJul":9608,"ĠZaragoza":9609,"uncia":9610,"Ã³metros":9611,"iencia":9612,"bida":9613,"ortun":9614,"Ġeval":9615,"Ġrecol":9616,"Ġnefro":9617,"tÃ¡neamente":9618,"ĠSp":9619,"ĠcÃ¡lculo":9620,"Ġgana":9621,"TIL":9622,"Ġmenopa":9623,"Ġvalidez":9624,"ÃŃng":9625,"Ġfotos":9626,"ĠmiÃ©rcoles":9627,"ambre":9628,"dres":9629,"Ġevitando":9630,"ĠPE":9631,"Ġampliamente":9632,"Ġdibu":9633,"Ġhidr":9634,"Ġganas":9635,"ĠDebe":9636,"ĠCel":9637,"ĠÃīs":9638,"Ġ01":9639,"jada":9640,"Ġbolsa":9641,"piente":9642,"Ġtranscur":9643,"alud":9644,"ĠGil":9645,"ĠincluyÃ³":9646,"grÃ¡fico":9647,"Ġidentifica":9648,"Ġtesti":9649,"Ġfruta":9650,"ĠIntens":9651,"ĠdocumentaciÃ³n":9652,"ucha":9653,"madura":9654,"Ġresiden":9655,"Ġllen":9656,"old":9657,"Ġtard":9658,"Ġestables":9659,"ĠInforme":9660,"Ġocupa":9661,"Ã¡gica":9662,"Ġregula":9663,"ĠPul":9664,"ĠProduc":9665,"ĠÃ¡tom":9666,"dila":9667,"Ġdesarrollados":9668,"ĠcrÃŃtico":9669,"ĠcooperaciÃ³n":9670,".;":9671,"Ġcampe":9672,"Ġpato":9673,"Ġborde":9674,"Ġexistente":9675,"Ġmedico":9676,"ĠNuestra":9677,"Ġalquilo":9678,"Ġcosm":9679,"ÃŃp":9680,"ĠvÃ¡lvula":9681,"ĠMedical":9682,"Ġbrotes":9683,"Ġhernia":9684,"Ġcircu":9685,"Ġprodujo":9686,"PP":9687,"ĠIL":9688,"Ġrostro":9689,"esia":9690,"Ġcorrespondencia":9691,"ĠQT":9692,"gresos":9693,"Ġrespiratorios":9694,"migo":9695,"Ġfallo":9696,"Ġigualmente":9697,"Ġile":9698,"pler":9699,"Ġpermeable":9700,"Ġemocionales":9701,"dimos":9702,"Ġtradicionales":9703,"Ġclinica":9704,"Ġestadounidense":9705,"wa":9706,"Ã¡sica":9707,"ĠCalifornia":9708,"tÃ³rax":9709,"ĠInt":9710,"zaciÃ³n":9711,"Ġespecific":9712,"Ġvuelta":9713,"rel":9714,"Ġbrus":9715,"Ġhormonal":9716,"Ġparad":9717,"Ġpref":9718,"proteÃŃn":9719,"Ġespero":9720,"Ġejemplos":9721,"untamiento":9722,"ĠIb":9723,"ĠdiagnÃ³sticas":9724,"Ġconsiderada":9725,"Ġfinalizar":9726,"ĠacumulaciÃ³n":9727,"ĠMancha":9728,"FR":9729,"matitis":9730,"Ġsensibles":9731,"ĠseÃ±alan":9732,"ĠvÃŃdeo":9733,"Ġchildren":9734,"ĠProyecto":9735,"Ġventaja":9736,"Ġusado":9737,"ĠbiolÃ³gico":9738,"pla":9739,"ĠFÃŃsica":9740,"ĠRegi":9741,"ĠPeso":9742,"ĠCultura":9743,"laucoma":9744,"Ġhematoma":9745,"turias":9746,"caÃŃna":9747,"ĠdifÃŃciles":9748,"Ġgratuita":9749,"ĠacompaÃ±a":9750,"especi":9751,"Ġmejoras":9752,"Ã¡mico":9753,"Ġpresentaba":9754,"Ġintersti":9755,"ĠSO":9756,"Ġmover":9757,"Ġjugador":9758,"sancio":9759,"Ġtrayectoria":9760,"guera":9761,"ĠdÃ©bil":9762,"ĠexplotaciÃ³n":9763,"ĠRosa":9764,"ĠSab":9765,"Ġpaque":9766,"alizan":9767,"Ġincrementa":9768,"Ġsepsis":9769,"ĠRio":9770,"ĠpublicÃ³":9771,"Ġdespi":9772,"ESO":9773,"ĠcrÃ³nicos":9774,"Ġrey":9775,"Ġdiagnosticado":9776,"Ġbelleza":9777,"ĠInmun":9778,"ÃŃdos":9779,"Ġprogresivo":9780,"ĠdiscusiÃ³n":9781,"Ġadelan":9782,"amida":9783,"Ã³lares":9784,"Ġaj":9785,"ideos":9786,"citis":9787,"ĠIctericia":9788,"vienen":9789,"Ġantimicrobi":9790,"ĠpÃ©rdidas":9791,"Ġclaras":9792,"ĠJA":9793,"ington":9794,"Ġmensajes":9795,"2012":9796,"ĠAntecedentes":9797,"Ġtranspor":9798,"Ġabajo":9799,"quilla":9800,"ĠQuir":9801,"ACE":9802,"ĠRegiÃ³n":9803,"Ġdiffer":9804,"Ġdisciplina":9805,"Ġhoja":9806,"ĠNI":9807,"ĠJM":9808,"ĠTierra":9809,"Ġintu":9810,"ĠDec":9811,"ĠHel":9812,"Ġeuropeo":9813,"ĠÃ©tica":9814,"Ġinstrucciones":9815,"Ġtratada":9816,"Ġmartes":9817,"ĠCaracter":9818,"Ġdegenera":9819,"Ġexitos":9820,"Ġmito":9821,"Ġcontinuidad":9822,"Ġdop":9823,"Ġrevisiones":9824,"Ġcorregir":9825,"ĠvarÃŃa":9826,"Ġdonantes":9827,"recuencia":9828,"Ġcomerciales":9829,"ĠINS":9830,"Ġespecializados":9831,"Â±":9832,"idina":9833,"Ġsustan":9834,"Ġbacteria":9835,"Ġcole":9836,"ĠquizÃ¡":9837,"ĠPromo":9838,"ĠTum":9839,"ĠhÃº":9840,"queo":9841,"Ġapos":9842,"ĠPÃºbl":9843,"Ġconsiderarse":9844,"ĠMiemb":9845,"ini":9846,"Ġvalorado":9847,"Ġcomentar":9848,"Ġaorta":9849,"Ġmanchas":9850,"Ġbienes":9851,"Ġclor":9852,"Ġplaneta":9853,"ĠdÃ³lares":9854,"ĠGro":9855,"Ġcelebrado":9856,"Ġdenomina":9857,"ĠasegurÃ³":9858,"ĠMos":9859,"tors":9860,"hal":9861,"ĠMul":9862,"],":9863,"Ġcomentado":9864,"Ġfeliz":9865,"istes":9866,"Ġrelativo":9867,"Ġseco":9868,"monar":9869,"Ġquerido":9870,"Ġconflictos":9871,"ecido":9872,"Ġconservado":9873,"ĠCreo":9874,"ENTES":9875,"ĠCosta":9876,"trac":9877,"Ġfig":9878,"Ġdeshidra":9879,"Ġhongos":9880,"Ġfrutos":9881,"Ġdetectado":9882,"UB":9883,"Ġpublicada":9884,"Ġtratarse":9885,"Ġterreno":9886,"ĠDom":9887,"istÃŃa":9888,"xilo":9889,"Ã©nico":9890,"Ġgeneran":9891,"istido":9892,"Ġdejado":9893,"Ġmenopausia":9894,"Ġocasional":9895,"Ġbeber":9896,"Ġcarta":9897,"ĠÃĵ":9898,"Ġacabar":9899,"lus":9900,"Ġinmunode":9901,"Ġdato":9902,"ymp":9903,"Ġtiroides":9904,"Ġgel":9905,"tÃ©s":9906,"Ġconvenio":9907,"ĠInvestigaciones":9908,"Ġconcurso":9909,"Ġexamin":9910,"Ġmilitar":9911,"Ġtemperaturas":9912,"Ġ1992":9913,"Ġabog":9914,"Ġaceptar":9915,"gma":9916,"ĠespaÃ±olas":9917,"Ġcambia":9918,"Ġpropuesto":9919,"entada":9920,"mmHg":9921,"Ġdomingo":9922,"enciado":9923,"Ġneonatal":9924,"Ġsep":9925,"Ġtis":9926,"Health":9927,"ĠfibrilaciÃ³n":9928,"tecn":9929,"arnos":9930,"Ġconocen":9931,"Ġâī¥":9932,"Ġpaz":9933,"ĠInici":9934,"ĠAler":9935,"Ġestablecimiento":9936,".).":9937,"Ġantidepres":9938,"Ġvivos":9939,"ĠÃļl":9940,"led":9941,"thod":9942,"Red":9943,"Ġsyste":9944,"HB":9945,"vention":9946,"Ġsiquiera":9947,"Ġurban":9948,"ĠespontÃ¡nea":9949,"Ġmirada":9950,"Ġexternos":9951,"ĠRies":9952,"Ġpermanecer":9953,"ĠaÃ©rea":9954,"Ġater":9955,"Ġnie":9956,"ĠparÃ¡lisis":9957,"ĠAF":9958,"Ġexcelencia":9959,"Ġmargen":9960,"ĠUsu":9961,"ĠPediÃ¡":9962,"acho":9963,"Ġataques":9964,"cribir":9965,"Ġderro":9966,"ĠestÃŃmulos":9967,"Ġreti":9968,"Ġovario":9969,"yacente":9970,"Ġabra":9971,"Ġprofundo":9972,"Ġvemos":9973,"ĠPad":9974,"ĠdescripciÃ³n":9975,"Ġurinario":9976,"dadas":9977,"Ġnutricionales":9978,"orld":9979,"Ġparas":9980,"Ġsomn":9981,"Ġperiodos":9982,"ĠTV":9983,"culatura":9984,"dea":9985,"ejo":9986,"Ġllamadas":9987,"Ġtransferencia":9988,"Ãºr":9989,"Ġdescubierto":9990,"ĠdestacÃ³":9991,"estÃ©s":9992,"Ġnacer":9993,"ĠMAR":9994,"Ġingredientes":9995,"ĠCOMO":9996,"Ġinsomnio":9997,"Ġmanteniendo":9998,"Ġfirme":9999,"Ġhospitalarios":10000,"ficidad":10001,"Ġdex":10002,"Ġeu":10003,"telio":10004,"ventud":10005,"ĠaminoÃ¡cidos":10006,"ford":10007,"Ġgastrointestinal":10008,"OT":10009,"ĠFamiliar":10010,"arial":10011,"Ġfos":10012,"Ġcristal":10013,"Ġfuego":10014,"gina":10015,"ĠNic":10016,"ĠHig":10017,"Ġinestabilidad":10018,"ĠBiblio":10019,"ĠAsamblea":10020,"ĠBogotÃ¡":10021,"Ġbrote":10022,"ĠTorres":10023,"ĠMÃ©dicas":10024,"Ġconcom":10025,"%;":10026,"Ġpersonajes":10027,"Ġinvestigar":10028,"ĠriÃ±ones":10029,"ĠempÃŃr":10030,"ganta":10031,"oo":10032,"Ġrevisar":10033,"Ġturno":10034,"ayo":10035,"ĠquedÃ³":10036,"ique":10037,"ĠregresiÃ³n":10038,"ĠcompaÃ±ÃŃas":10039,"plicar":10040,"americano":10041,"Ġcurva":10042,"pitaciones":10043,"ĠDI":10044,"tonces":10045,"Ġleyes":10046,"ĠMÃ¡laga":10047,"Ġdirigidas":10048,"ĠOB":10049,"cirugÃŃa":10050,"ĠPP":10051,"Ġvariaciones":10052,"venil":10053,"ĠPuerto":10054,"Ġcompatibles":10055,"Ġtrimestre":10056,"Ġingresados":10057,"QUE":10058,"Ġtriun":10059,"Ġsemillas":10060,"ĠIngreso":10061,"ĠIncluido":10062,"Ġsen":10063,"Ġcalific":10064,"emida":10065,"Ġpion":10066,"isla":10067,"evalu":10068,"Ex":10069,"Ġparedes":10070,"ponina":10071,",.":10072,"sess":10073,"ĠpsicolÃ³gicos":10074,"witter":10075,"Ġdescubrimiento":10076,"Ġparal":10077,"Ġimpues":10078,"ĠCual":10079,"Ġdispar":10080,"Ġpresentarse":10081,"Ġcho":10082,"Ġirregular":10083,"Ġreview":10084,"Ġbril":10085,"ĠQRS":10086,"Ġcognitiva":10087,"Ġpeda":10088,"CC":10089,"Ġ07":10090,"Ġcrecer":10091,"Ġaco":10092,"Ġmanejar":10093,"ĠCari":10094,"Ġcere":10095,"Ġdata":10096,"ĠAires":10097,"Ġcanales":10098,"eda":10099,"Ġcansancio":10100,"ĠAlberto":10101,"NP":10102,"glic":10103,"esio":10104,"ĠFactores":10105,"aden":10106,"2010":10107,"Ġantagon":10108,"Ġexpuestos":10109,"ĠconvirtiÃ³":10110,"ĠreflexiÃ³n":10111,"Ġconcur":10112,"JE":10113,"zgo":10114,"ĠPress":10115,"tabria":10116,"ĠsimÃ©":10117,"Ġtobillo":10118,"Ġlupus":10119,"ĠmiocÃ¡r":10120,"age":10121,"Ġnombres":10122,"versiÃ³n":10123,"ĠalÃ©rgica":10124,"Ġza":10125,"Ġ09":10126,"oden":10127,"EB":10128,"ĠnaciÃ³":10129,"bilizar":10130,"Ġutilizarse":10131,"olismo":10132,"ĠTemp":10133,"Ġhorario":10134,"Ġsigno":10135,"itante":10136,"ERO":10137,"Ġprovocan":10138,"ĠÃŃndices":10139,"Ġdetecta":10140,"ĠMD":10141,"ĠPersonal":10142,"Ġrepi":10143,"Ġesquizofrenia":10144,"ull":10145,"ĠQuin":10146,"Ġsobres":10147,"ĠHan":10148,"ĠseÃ±or":10149,"Ġveci":10150,"pino":10151,"Ġnecrosis":10152,"ĠdinÃ¡mica":10153,"dura":10154,"ĠProfesor":10155,"Ar":10156,"ĠdeclaraciÃ³n":10157,"ĠAsturias":10158,"cm":10159,"ĠexplicaciÃ³n":10160,"Ġpostura":10161,"Ġestablecidos":10162,"Ġhorizon":10163,"bunal":10164,"ĠClinical":10165,"acu":10166,"traciones":10167,"Ġfaculta":10168,"ĠhidrataciÃ³n":10169,"ĠhistÃ³rico":10170,"ĠCÃ³mo":10171,"ĠconsiderÃ³":10172,"Ġfre":10173,"Ġaro":10174,"Ġestudiados":10175,"ĠBern":10176,"Ġcausan":10177,"Ġrecuerdo":10178,"ĠhemodiÃ¡lisis":10179,"ĠÃ¡rbol":10180,"Ġpublicidad":10181,"Ġampliar":10182,"Ġverse":10183,"cultivo":10184,"VEN":10185,"Ġprolongado":10186,"Ġterminal":10187,"Ġsuicidio":10188,"ĠTar":10189,"sociated":10190,"ingo":10191,"Ġanuales":10192,"108":10193,"Ġlidera":10194,"Ġcreen":10195,"Ġsentirse":10196,"Ġjornadas":10197,"Ġtratan":10198,"ĠexcepciÃ³n":10199,"Ġcomportamientos":10200,"Ã¡nicos":10201,"dimento":10202,"estim":10203,"ĠPublic":10204,"Ġdetermina":10205,"Ġconden":10206,"Ġniega":10207,"lujo":10208,"Ġpensamientos":10209,"difica":10210,"Ġinvesti":10211,"Ġpsiquia":10212,"Ġultra":10213,"Ġgobern":10214,"EZ":10215,"Ġimpresiona":10216,"Ġhagan":10217,"grÃ¡ficos":10218,"ux":10219,"Ġanillo":10220,"Ġonda":10221,"Ġencontraba":10222,"gando":10223,"Ġino":10224,"Ġllamar":10225,"Ġacus":10226,"ĠChe":10227,"Ġpne":10228,"Ġagru":10229,"inario":10230,"Ġedificio":10231,"cala":10232,"JO":10233,"ĠinespecÃŃ":10234,"ĠCy":10235,"Ġhemoglobina":10236,"ĠconducciÃ³n":10237,"Ġepig":10238,"ĠMedio":10239,"Ġsufrimiento":10240,"Ġindependientes":10241,"ĠTan":10242,"Ġsilenci":10243,"ĠpelÃŃculas":10244,"Ġpercu":10245,"Ġangus":10246,"gÃŃas":10247,"pÃ¡tica":10248,"ultado":10249,"haus":10250,"Ġapetito":10251,"Ġsud":10252,"cesa":10253,"ĠsÃ¡bado":10254,"Ġcatara":10255,"ecera":10256,"Ġgrues":10257,"Ġalquil":10258,"ĠHemos":10259,"ĠfÃ³s":10260,"Ġbasados":10261,"Ġetique":10262,"Ġaves":10263,"Ġpus":10264,"wer":10265,"Ġcomunitaria":10266,"ĠSomos":10267,"Ġje":10268,"Ġverdadero":10269,"Ġexpresa":10270,"Ġampol":10271,"ĠParticip":10272,"Ġgeno":10273,"enz":10274,"Ġhemat":10275,"guro":10276,"ĠEvi":10277,"Ġiguales":10278,"Ġatendidos":10279,"ĠResi":10280,"ĠAndrÃ©s":10281,"ĠpunciÃ³n":10282,"ĠextraÃ±o":10283,"Ġproducida":10284,"Ġgarganta":10285,"Ġavanzar":10286,"Ġeducativa":10287,"ĠUniversity":10288,"ĠValor":10289,"Ġbarrera":10290,"tentes":10291,"Ġelectrocardi":10292,"Ġhablando":10293,"ĠPolic":10294,"Ġflores":10295,"IÃĵN":10296,"Ġalu":10297,"ĠET":10298,"ĠValenciana":10299,"ĠOfici":10300,"Ġresistentes":10301,"Ġcerebrovascular":10302,"ĠCasa":10303,"ĠsuspensiÃ³n":10304,"ward":10305,"ĠhipotensiÃ³n":10306,"tn":10307,"ĠMexic":10308,"Ġcat":10309,"Ġseden":10310,"ĠLan":10311,"Ġdesarrollando":10312,"xial":10313,"ĠHor":10314,"Ġconferencia":10315,"Ġasumir":10316,"Ġimpro":10317,"TUAL":10318,"ĠGlob":10319,"Ġnegoci":10320,"Ġdespe":10321,"tectomÃŃa":10322,"dicaciÃ³n":10323,"Ġestandar":10324,"ĠTipo":10325,"Ġdefici":10326,"ĠglÃ¡ndulas":10327,"osu":10328,"Ġplacer":10329,"Ġinjerto":10330,"ĠNie":10331,"Ġencontrarse":10332,"ĠIgn":10333,"Ġempleado":10334,"Ġradical":10335,"ĠIR":10336,"ĠCONS":10337,"Ġrica":10338,"Ġagrad":10339,"ĠXIX":10340,"ĠMicrobi":10341,"Ġhablamos":10342,"ĠEmpres":10343,"ĠDepen":10344,"Ġreserva":10345,"Ġnecesitar":10346,"ORMA":10347,"ĠlogrÃ³":10348,"Ġproven":10349,"Ġ08":10350,"Ġdejan":10351,"Ġarritmias":10352,"Ġbis":10353,"ĠQU":10354,"Ġopio":10355,"mL":10356,"Ġexpuls":10357,"ĠinserciÃ³n":10358,"ĠresecciÃ³n":10359,"ams":10360,"ĠApar":10361,"Ã¨ncia":10362,"donos":10363,"ĠafirmÃ³":10364,"ĠayudarÃ¡":10365,"Ġcomplemento":10366,"itmo":10367,"Ġinfluyen":10368,"NO":10369,"Ġrecto":10370,"ĠNiÃ±o":10371,"ĠInternational":10372,"2015":10373,"ĠRevoluciÃ³n":10374,"Ġfla":10375,"uta":10376,"ocal":10377,"ĠseÃ±alar":10378,"ÃŃfer":10379,"entario":10380,"ĠretenciÃ³n":10381,"ĠfenÃ³menos":10382,"ĠEuropeo":10383,"ĠempezÃ³":10384,"Ġconviv":10385,"ĠIAM":10386,"psias":10387,"Ġatribu":10388,"ragias":10389,"zquez":10390,"Ġrecoger":10391,"ebook":10392,"Ġcliente":10393,"cÃ³mo":10394,"omÃ©dica":10395,"amanca":10396,"ĠFl":10397,"adro":10398,"Ġricos":10399,"ĠcongÃ©nita":10400,"deraciÃ³n":10401,"ĠPopular":10402,"igilancia":10403,"viendo":10404,"Ġbasales":10405,"facial":10406,"Ġenter":10407,"ĠBA":10408,"ĠGuti":10409,"ĠConsumo":10410,"Ġ130":10411,"ĠEu":10412,"Ġcopa":10413,"ĠpeticiÃ³n":10414,"Ġgases":10415,"ĠexclusiÃ³n":10416,"Ġequip":10417,"Ġimpide":10418,"Ġdeamb":10419,"ĠTEP":10420,"ĠÃŃtems":10421,"ĠHal":10422,"!!!!":10423,"ning":10424,"Ġdispuesto":10425,"tetricia":10426,"ium":10427,"Ġdiarios":10428,"ĠFlor":10429,"Ġantiguo":10430,"tribuciÃ³n":10431,"ĠreconstrucciÃ³n":10432,"Ġrecomendado":10433,"Ġsubray":10434,"Ġigualdad":10435,"ogen":10436,"Ã³ricas":10437,"Ġmusical":10438,"ilidad":10439,"derÃŃa":10440,"Ã±oz":10441,"Ġnaus":10442,"Ġcrepitantes":10443,"cales":10444,"Ġhumanas":10445,"Ġ00":10446,"ĠPin":10447,"grÃŃa":10448,"ĠEspaÃ±ol":10449,"formaciones":10450,"Ġdominio":10451,"Ġplu":10452,"ĠLaboratorio":10453,"bili":10454,"Ġune":10455,"ĠJornada":10456,"nÃ©":10457,"Ġpalpitaciones":10458,"ĠGrado":10459,"Ġreuniones":10460,"Ġ1000":10461,"telial":10462,"GE":10463,"Ġcontex":10464,"Ġpostoperatorio":10465,"Ġcorona":10466,"ĠInvestigadores":10467,"Ġcosta":10468,"Ġpiensa":10469,"Ġpertenece":10470,"ĠDerecho":10471,"Ġhemb":10472,"ĠquerÃŃa":10473,"ĠEdu":10474,"Ġaudio":10475,"Ġcuchar":10476,"Ġduro":10477,"ĠUC":10478,"Ġdescriben":10479,"neo":10480,"Ġsurge":10481,"(...)":10482,"Ġcali":10483,"Ġaportan":10484,"Ġondas":10485,"Ġmarcas":10486,"Ġllamados":10487,"ĠCantabria":10488,"Ã¶":10489,"turia":10490,"fusiÃ³n":10491,"Ġcodific":10492,"umatoide":10493,"ðŁ":10494,"Ġcomprob":10495,"Ġconsumidores":10496,"ĠNavarro":10497,"ustria":10498,"Ġingu":10499,"Ġevita":10500,"Ġpracticar":10501,"onado":10502,"Ġvacaciones":10503,"Ġdarse":10504,"umbre":10505,"Ġ%,":10506,"Ġcapilar":10507,"Ġglucemia":10508,"alizÃ³":10509,"Ġamong":10510,"ĠNuevo":10511,"ĠglÃ¡ndula":10512,"ĠrepeticiÃ³n":10513,"Ġramas":10514,"vero":10515,"Ġcoordinador":10516,"Ġfuturos":10517,"Ġexternas":10518,"ĠdejÃ³":10519,"ĠvehÃŃculos":10520,"fisi":10521,"ĠSEM":10522,"Ġfertilidad":10523,"Ġcafe":10524,"2013":10525,"Ġexperiment":10526,"ĠrÃŃt":10527,"Ġespecificidad":10528,"ĠEntonces":10529,"let":10530,"ĠBajo":10531,"Ġminuto":10532,"Ġdependientes":10533,"Ġextiende":10534,"Ġinquie":10535,"Ġmadera":10536,"Ġasc":10537,"Ġestilos":10538,"ĠCOL":10539,"ezas":10540,"ĠSociety":10541,"ĠGinecologÃŃa":10542,"celular":10543,"cope":10544,"Ġlenta":10545,"ĠViv":10546,"Ġdificul":10547,"Ġdirigidos":10548,"ĠIng":10549,"ĠquirÃ³f":10550,"ĠUI":10551,"Ġretirar":10552,"Ġome":10553,"tring":10554,"Ġpositivas":10555,"ĠREC":10556,"grantes":10557,"ĠEB":10558,"gico":10559,"Ġlabios":10560,"NI":10561,"Ġlinfo":10562,"Ġtrop":10563,"cionamiento":10564,"Ġintolerancia":10565,"eria":10566,"ĠLE":10567,"ĠcampaÃ±as":10568,"Ġmusculatura":10569,"Ã©rrez":10570,"aridad":10571,"Ġtradu":10572,"Ġdejando":10573,"ĠHen":10574,"Ġdesea":10575,"ĠcompresiÃ³n":10576,"ĠInnov":10577,"ĠrelajaciÃ³n":10578,"ĠCef":10579,"Ġasistentes":10580,"Ãļ":10581,"ĠDiges":10582,"ĠHon":10583,"quito":10584,"Ġbenig":10585,"Fi":10586,"lub":10587,"ĠManual":10588,"TICA":10589,"ĠBR":10590,"Ġhave":10591,"ĠserÃŃan":10592,"Ġiniciado":10593,"Ġinspir":10594,"Ġage":10595,"Ġcoloca":10596,"ĠdesarrollÃ³":10597,"IAL":10598,"''":10599,"Ġrural":10600,"ĠTB":10601,"ĠTDAH":10602,"Ġparent":10603,"Ġdetalle":10604,"2011":10605,"Ġantioxidantes":10606,"Ġperfectamente":10607,"Ġaleg":10608,"Ġpresentando":10609,"ĠProtecciÃ³n":10610,"tedes":10611,"ĠSangre":10612,"mox":10613,"ĠindicÃ³":10614,"Ġportal":10615,"Ġintrac":10616,"ĠCÃ³rdoba":10617,"Ġjuega":10618,"ĠVicente":10619,"ĠactÃºan":10620,"Ġasocian":10621,"Ġdim":10622,"Ġtrasplantes":10623,"Ġvenas":10624,"ĠcorrecciÃ³n":10625,"ĠHuman":10626,"emias":10627,"ĠCastel":10628,"Ġtumorales":10629,"ĠÃ³seo":10630,"sensibilidad":10631,"Ġcorteza":10632,"Ġliter":10633,"ĠTener":10634,"ĠApro":10635,"Ġresistente":10636,"Ġentiende":10637,"Ġdiagnosticada":10638,"Ġhol":10639,"Ġpotenciar":10640,"Ġ1991":10641,"Ġeuropea":10642,"ĠdesviaciÃ³n":10643,"usiones":10644,"Ġvitales":10645,"ĠAustral":10646,"Ġmejorando":10647,"Ġnecesit":10648,"Ã±Ã³n":10649,"ĠRA":10650,"olina":10651,"Ġexci":10652,"treo":10653,"ĠNews":10654,"ĠIgu":10655,"gru":10656,"Ġoste":10657,"Ġestructur":10658,"Ġtolerada":10659,"CIAS":10660,"Ġpierde":10661,"docrin":10662,"Ġkm":10663,"gram":10664,"ĠCare":10665,"Ġsimples":10666,"Ġestimular":10667,"Ġmagnitud":10668,"Ġvay":10669,"ĠInform":10670,"itz":10671,"Ġultrason":10672,"Ġlineal":10673,"ĠconfusiÃ³n":10674,"ĠSalvador":10675,"Ġsituado":10676,"Ġalem":10677,"RAS":10678,"Ġdomiciliaria":10679,"esc":10680,"Ġcalendario":10681,"Ġdolorosa":10682,"Ġteatro":10683,"ogle":10684,"ĠSalamanca":10685,"ĠLN":10686,"ĠMÃºlti":10687,"Ġubicado":10688,"ĠExploraciÃ³n":10689,"Ġexcesivo":10690,"ĠInicio":10691,"Ġconsistente":10692,"iendas":10693,"ĠdomÃ©s":10694,"Ġuniversitarios":10695,"ĠIsabel":10696,"Ġaparatos":10697,"quÃŃa":10698,"ĠtorÃ¡cica":10699,"Ġretrospectivo":10700,"pril":10701,"Ġcabal":10702,"Ã³fago":10703,"Ġsienten":10704,"Ġcoher":10705,"Ġnovedos":10706,"Ġhuel":10707,"ĠValle":10708,"ĠSecretarÃŃa":10709,"ĠOctubre":10710,"Ġsecreciones":10711,"Ġreforma":10712,"Ġlimitado":10713,"ticidad":10714,"oli":10715,"Ġcuentas":10716,"Ġcreencias":10717,"Ġpase":10718,"Ġasegurado":10719,"tat":10720,"Ġadvier":10721,"rectal":10722,"Ġdesconoce":10723,"Ġcomunicaciones":10724,"Ã¡nicas":10725,"ĠEstrateg":10726,"imina":10727,"Ġacid":10728,"Ġvienen":10729,"Ġraza":10730,"Ġtransmis":10731,"ĠExcel":10732,"urosemida":10733,"Ġindustrial":10734,"Ġgenoma":10735,"ĠsaturaciÃ³n":10736,"Ġtarje":10737,"ament":10738,"gri":10739,"ĠPresent":10740,"Ġpersonaje":10741,"ĠbritÃ¡n":10742,"Ġconducto":10743,"Ġlavado":10744,"Ġesposa":10745,"minar":10746,"ĠhabitaciÃ³n":10747,"ximas":10748,"Ġleucemia":10749,"ĠNutri":10750,"Ġcandidatos":10751,"Ġconsiderados":10752,"Ġdesac":10753,"ĠcolecciÃ³n":10754,"Ġvec":10755,"END":10756,"Ġcabecera":10757,"ĠHA":10758,"Ġinac":10759,"Ġpreguntar":10760,"Ġamenaza":10761,"fonso":10762,"umologÃŃa":10763,"ĠTrastorno":10764,"etina":10765,"apÃ³n":10766,"Ġecu":10767,"venida":10768,"Ġrese":10769,"ĠHospit":10770,"Ġanalysis":10771,"ĠconsideraciÃ³n":10772,"????":10773,"ords":10774,"Ġlim":10775,"Ġprestar":10776,"ĠDetermin":10777,"plasias":10778,"Ġganado":10779,"Ġconsolidaciones":10780,"Ġrevascular":10781,"Ġtheir":10782,"mpli":10783,"Ġelegido":10784,"ĠComunitaria":10785,"tua":10786,"ĠGalicia":10787,"Ġindicador":10788,"Ġexisti":10789,"nab":10790,"ĠPueden":10791,"ĠsÃºbita":10792,"Ġinhibidor":10793,"Ġmaneras":10794,"ĠComunicaciÃ³n":10795,"Ġpantalla":10796,"Ġwomen":10797,"ĠdivisiÃ³n":10798,"CIAL":10799,"ĠEse":10800,"MG":10801,"Ġqual":10802,"igeno":10803,"Ġvigor":10804,"uca":10805,"Ġportadores":10806,"ĠMIR":10807,"ĠDiv":10808,"gativo":10809,"Ġutilizaron":10810,"Ġhigh":10811,"Ã¡lico":10812,"Ġwhich":10813,"ĠparticipÃ³":10814,"aro":10815,"Ã¡zquez":10816,"orax":10817,"ĠArte":10818,"ĠAlta":10819,"tation":10820,"Ġsubir":10821,"Ġpalp":10822,"tela":10823,"ĠMÃ¡ster":10824,"ĠmolÃ©cula":10825,"Ġmelanoma":10826,"Ġcols":10827,"ĠBIO":10828,"Ġerrad":10829,"TAMIENTO":10830,"Ġestres":10831,"Ġconstantes":10832,"ĠEcuRed":10833,"Ġod":10834,"Ġasunto":10835,"ped":10836,"unda":10837,"drÃ¡n":10838,"Ġsemej":10839,"Ġepidemia":10840,"ĠRegional":10841,"Ġinvierno":10842,"alim":10843,"Ġprobar":10844,"Ġcomplejas":10845,"Ġsenos":10846,"Ġvisitar":10847,"Ġelaborar":10848,"Ġfortalecer":10849,"ĠINTER":10850,"Ġinvi":10851,"Ġaceptable":10852,"ĠSP":10853,"ĠSegui":10854,"Des":10855,"Ġrefieren":10856,"Ġindicada":10857,"Ġacord":10858,"ĠContinu":10859,"Ġcuidador":10860,"Ġrecorrido":10861,"Ġespor":10862,"rano":10863,"ĠmillÃ³n":10864,"ĠinstalaciÃ³n":10865,"Ġincontinencia":10866,"Ġsyn":10867,"ĠSAN":10868,"poy":10869,"Inter":10870,"Ġche":10871,"ĠAyuntamiento":10872,"tismos":10873,"Ġcigarrillos":10874,"fagia":10875,"Ġpudieran":10876,"Ġ(\"":10877,"Ġintenta":10878,"iosa":10879,"ĠSM":10880,"grupo":10881,"liz":10882,"ezcan":10883,"Ġpiens":10884,"GA":10885,"Ġpsoriasis":10886,"Ġcritic":10887,"Ġ575":10888,"Ġanaliza":10889,"ĠDiego":10890,".),":10891,"ĠimplicaciÃ³n":10892,"iales":10893,"Ġinse":10894,"Ġllegando":10895,"Ġcuesta":10896,"ĠbiolÃ³gica":10897,"Ġfruto":10898,"Ġliti":10899,"ĠderivaciÃ³n":10900,"ĠMC":10901,"Ġespinal":10902,"MICA":10903,"Ġdas":10904,"vido":10905,"Ġperros":10906,"Ġplaza":10907,"Ġafter":10908,"tasia":10909,"vencion":10910,"Ġprestaciones":10911,"ĠinscripciÃ³n":10912,"Ġ_":10913,"Ġguer":10914,"Ġsobrecarga":10915,"enfer":10916,"Ġantrop":10917,"Ġtendencias":10918,"Ġmejorado":10919,"Ġcarre":10920,"oper":10921,"lga":10922,"Ġcontribuyen":10923,"Ġpermanece":10924,"ĠdimensiÃ³n":10925,"Ġfrotis":10926,"ÃŃnica":10927,"Ġevent":10928,"ee":10929,"Ġrespirar":10930,"Ġprofila":10931,"ĠcolÃ¡":10932,"Ġobtuvieron":10933,"ied":10934,"Ġreempla":10935,"adic":10936,"Ġalm":10937,"2009":10938,"ĠCC":10939,"ĠIden":10940,"Ġ135":10941,"Ġagrup":10942,"Ġodont":10943,"ĠIncluso":10944,"arme":10945,"Ġtienden":10946,"ĠSOL":10947,"ĠPuedes":10948,"SH":10949,"Ġemplea":10950,"americanos":10951,"Ġastenia":10952,"Ġ06":10953,"ĠmÃ³d":10954,"Ġeritematos":10955,"Ġ000":10956,"terra":10957,"ĠoC":10958,"plom":10959,"Ġbasadas":10960,"iero":10961,"keting":10962,"Ġarmas":10963,"Ġsuficientemente":10964,"Ġpolim":10965,"Ġvicepres":10966,"ĠMAN":10967,"Ġantigua":10968,"Ġyears":10969,"Ġoficina":10970,"ĠcapacitaciÃ³n":10971,"Ġaplicada":10972,"ĠER":10973,"ecas":10974,"ĠPat":10975,"Ġinmunosu":10976,"ĠLondres":10977,"icante":10978,"nesis":10979,"Ġguardia":10980,"Ġfibromialgia":10981,"Ġnocturno":10982,"Ġcambiado":10983,"Ġcocina":10984,"lago":10985,"Ġdenominada":10986,"Ġincluidas":10987,"estival":10988,"als":10989,"ĠEupne":10990,"Ġpredecir":10991,"Ġgramos":10992,"Ġgros":10993,"ĠDÃŃ":10994,"ider":10995,"xona":10996,"ĠAmericana":10997,"Ġinsuficiente":10998,"Ġacontecimientos":10999,"tifica":11000,"ĠMuÃ±oz":11001,"Ġhs":11002,"ĠespÃŃ":11003,"tula":11004,"Ġgobier":11005,"Ġ03":11006,"ĠEV":11007,"Ġconjunta":11008,"ĠÃ³v":11009,"ĠEstoy":11010,"Ġmoleculares":11011,"Ġplena":11012,"ĠgÃ¡strico":11013,"pidez":11014,"ĠTO":11015,"Ġengros":11016,"ĠaÃ±adiÃ³":11017,"ĠexpansiÃ³n":11018,"Ġcorresponden":11019,"tex":11020,"isiera":11021,"Ġavi":11022,"Ġangina":11023,"eco":11024,"ences":11025,"Ġmedicin":11026,"ronic":11027,"Ġgig":11028,"Ġobtenida":11029,"Ġprofesora":11030,"ĠEsper":11031,"Ġinfluir":11032,"Ã³xido":11033,"Ġmetal":11034,"Ġinfraestruc":11035,"TH":11036,"Ġnav":11037,"orro":11038,"rica":11039,"iosos":11040,"ĠDar":11041,"Ġbuscan":11042,"tizado":11043,"ĠresultÃ³":11044,"Ġmodalidad":11045,"ĠproliferaciÃ³n":11046,"2014":11047,"enciar":11048,"hip":11049,"ĠTecnologÃŃa":11050,"ĠDirectiva":11051,"ĠUrea":11052,"Ġdominante":11053,"ĠBon":11054,"Lo":11055,"Ġpasada":11056,"Ġglic":11057,"Ġlistas":11058,"Ġcultiv":11059,"Ġcentra":11060,"ĠOftalm":11061,"Ġgir":11062,"Ġevit":11063,"ĠanestÃ©s":11064,"Ġemis":11065,"Ġnauseas":11066,"Ġcromosoma":11067,"ĠAragÃ³n":11068,"Ġmoral":11069,"Ġparticulares":11070,"ĠParÃŃs":11071,"Ġaccesibilidad":11072,"ĠPAS":11073,"ĠTengo":11074,"ĠEndocrin":11075,"foro":11076,"ĠMEN":11077,"ĠFigura":11078,"Ġtesis":11079,"Ġvariantes":11080,"Ġjusticia":11081,"ĠkilÃ³metros":11082,"Ġcondu":11083,"eck":11084,"ĠClub":11085,"ĠJe":11086,"ĠSala":11087,"dil":11088,"piÃ©":11089,"Ġlegales":11090,"rosa":11091,"Ġdefinido":11092,"ĠGutiÃ©rrez":11093,"Ġprospectivo":11094,"dares":11095,"Ġconsistencia":11096,"gem":11097,"php":11098,"Ġpreparado":11099,"Ġfij":11100,"Ġshock":11101,"ĠtomografÃŃa":11102,"Ġdistinta":11103,"ĠCanadÃ¡":11104,"pun":11105,"Ġprofilaxis":11106,"Ġaneuris":11107,"tant":11108,"Ġjam":11109,"ĠABD":11110,"Ġcorne":11111,"ĠantÃŃgeno":11112,"ĠhidrÃ³geno":11113,"ĠOx":11114,"Ġsonido":11115,"Ġprena":11116,"Ġmantenido":11117,"ĠKo":11118,"Ġperfecto":11119,"Ġexactamente":11120,"ĠIgualdad":11121,"Ġvio":11122,"Ġdeportistas":11123,"Ġ04":11124,"Ġproducirse":11125,"Ġvenoso":11126,"med":11127,"ĠNefro":11128,"Ġyog":11129,"Ġintermitente":11130,"Ġimpe":11131,"taje":11132,"gÃ³g":11133,"Ġproduciendo":11134,"Ġfisioterapeu":11135,"ĠDada":11136,"Ġdiscurso":11137,"Ġidio":11138,"Ġcontrolados":11139,"ĠVasco":11140,"Ġformada":11141,"Ġfutbol":11142,"Ġmaravil":11143,"Ġenfoc":11144,"Ġpreparados":11145,"Ġconsiguiente":11146,"maduras":11147,"ĠSos":11148,"Ġelecciones":11149,"ĠPolÃŃtica":11150,"Ġdocencia":11151,"VD":11152,"Ġprenatal":11153,"Ġsupervis":11154,"Ġrigidez":11155,"Ġcaliente":11156,"Ġactores":11157,"ose":11158,"ĠClar":11159,"ĠMartin":11160,"Ġtextos":11161,"ĠcuÃ¡ndo":11162,"ĠEA":11163,"Ġmetil":11164,"Ġartes":11165,"ivado":11166,"Ġcirujanos":11167,"ĠmÃ³viles":11168,"Ġlargos":11169,"UP":11170,"ĠIgnacio":11171,"Ġposicion":11172,"Ġpobreza":11173,"Ġambulatoria":11174,"Ġoculares":11175,"ĠdesnutriciÃ³n":11176,"uelos":11177,"ĠpsÃŃqu":11178,"ĠcirugÃŃas":11179,"Ġmostra":11180,"Ġesquema":11181,"Ġponerse":11182,"ĠMayo":11183,"quera":11184,"Ġocurren":11185,"Ġbru":11186,"ĠBre":11187,"Ġdisper":11188,"Ġfelici":11189,"chool":11190,"ĠsitÃºa":11191,"Ġincorporar":11192,"cionado":11193,"bur":11194,"ĠCaribe":11195,"ĠconsolidaciÃ³n":11196,"Ġinteresados":11197,"Ġseguida":11198,"retro":11199,"Ġalivio":11200,"Ġestrecha":11201,"Com":11202,"Ġhermana":11203,"Ġobservacional":11204,"index":11205,"Ġibuprofeno":11206,"Â·":11207,"vada":11208,"ĠECO":11209,"Ġprotector":11210,"Ġcuarta":11211,"Ġconjuntamente":11212,"ĠasintomÃ¡tica":11213,"endi":11214,"Ġprivados":11215,"ĠPartido":11216,"IOR":11217,"ventricular":11218,"Ġiv":11219,"ĠGastro":11220,"Ġhumo":11221,"Ġrecurrir":11222,"EE":11223,"Ġrotura":11224,"ĠIgualmente":11225,"Ġdermatitis":11226,"amnesis":11227,"ĠinhibiciÃ³n":11228,"Ġresultan":11229,"ĠResto":11230,"Ġcohorte":11231,"Ġ101":11232,"ĠRecomend":11233,"ĠsÃŃndromes":11234,"Ġvisuales":11235,"tana":11236,"Ġsense":11237,"ĠÃ³seas":11238,"Ã©ptico":11239,"Ġfluido":11240,"gus":11241,"ĠRiv":11242,"diciÃ³n":11243,"ĠSantos":11244,"ĠMill":11245,"Ġlimita":11246,"ĠWilli":11247,"ĠanatomÃŃa":11248,"blos":11249,"Ġgest":11250,"ĠPsico":11251,"Ġtribu":11252,"ullo":11253,"Ġmoda":11254,"Ġadoptar":11255,"Ġsilla":11256,"mortalidad":11257,"2007":11258,"Day":11259,"Ġincluida":11260,"ej":11261,"Ġexhaus":11262,"Ġunif":11263,"ĠEuropean":11264,"Ġgluten":11265,"Ġcalcula":11266,"ĠIntegral":11267,"Ġabsoluta":11268,"Ġdios":11269,"Ġconscientes":11270,"ĠnÃºmeros":11271,"Ġjustific":11272,"ĠGab":11273,"Ġbomba":11274,"zina":11275,"Ġdid":11276,"ĠcongÃ©nitas":11277,"Ġfactors":11278,"ĠCastillo":11279,"ĠEstÃ©tica":11280,"Ġprovis":11281,"Ġquedado":11282,"Ġdoce":11283,"Ãµ":11284,"Ġinstaur":11285,"Ġconfirmado":11286,"EDAD":11287,"usion":11288,"Ġclaros":11289,"Ġobstructiva":11290,"vez":11291,"Ġcongel":11292,"ĠSel":11293,"Ġaconseja":11294,"Ġlongitudinal":11295,"Ġsensor":11296,"2006":11297,"ĠHipertensiÃ³n":11298,"Ġpseudo":11299,"CoV":11300,"Ġpotente":11301,"ME":11302,"adal":11303,"ĠsintomÃ¡tico":11304,"Ġsecos":11305,"dados":11306,"Ġclim":11307,"ĠQuer":11308,"Ġrandom":11309,"ueva":11310,"Ġapari":11311,"Ġparo":11312,"Ġsexos":11313,"Ġdirige":11314,"FE":11315,"ecular":11316,"ĠobligaciÃ³n":11317,"Ac":11318,"ĠtÃŃtulos":11319,"zz":11320,"pidos":11321,"ĠTele":11322,"ĠDepor":11323,"Ġexpuesto":11324,"Ġpide":11325,"Ġexista":11326,"Ġrecomendada":11327,"paÃ±a":11328,"Ġsolucionar":11329,"Ġenviar":11330,"Ġresiduos":11331,"ĠmanifestaciÃ³n":11332,"Ġnoci":11333,"Ġinvit":11334,"Ġvariante":11335,"Ġestadounidenses":11336,"pri":11337,"ĠAlter":11338,"Ġdefinitivo":11339,"Ġexacer":11340,"Ġustedes":11341,"infecciÃ³n":11342,"Ġperiton":11343,"Ġcolaborar":11344,"ĠAra":11345,"itores":11346,"mental":11347,"ĠAumento":11348,"ĠAlejan":11349,"Ġmorbi":11350,"Ġaltern":11351,"ĠConf":11352,"Ġcuyas":11353,"Ġsecretario":11354,"deos":11355,"Ġbordes":11356,"ĠfrancÃ©s":11357,"Ġvid":11358,"Ġcompet":11359,"genia":11360,"Ġlinfoma":11361,"Ġcontinuada":11362,"Ġprioridad":11363,"Ġescalas":11364,"Ġanalizado":11365,"Ġseleccionado":11366,"ĠestÃŃmulo":11367,"ONA":11368,"Ġparche":11369,"ingÃ¼":11370,"ĠForm":11371,"ĠNR":11372,"ĠremisiÃ³n":11373,"ĠinformÃ³":11374,"control":11375,"ĠEnc":11376,"Ġpesos":11377,"Ã±ar":11378,"ĠvariaciÃ³n":11379,"ĠdeposiciÃ³n":11380,"Ġdie":11381,"ĠVent":11382,"Ġfuturas":11383,"ĠatÃŃ":11384,"Ġanor":11385,"ĠENF":11386,"salud":11387,"ĠTorre":11388,"Ġinmunitario":11389,"Ġvisible":11390,"ĠVida":11391,"Ġmanda":11392,"Ġ102":11393,"Ġterapeu":11394,"Ġpuertas":11395,"Ġordenador":11396,"Ġintegrado":11397,"umer":11398,"ĠexpectoraciÃ³n":11399,"ĠcomitÃ©":11400,"Ġadelga":11401,"Ġpermitiendo":11402,"Ġextrac":11403,"Ġ105":11404,"Ġrevela":11405,"ĠDaniel":11406,"temp":11407,"moxicilina":11408,"teles":11409,"ĠBu":11410,"PER":11411,"ĠHy":11412,"ĠMag":11413,"Ġprotein":11414,"Ġmanag":11415,"ĠInnovaciÃ³n":11416,"ĠacompaÃ±ada":11417,"loxacino":11418,"Ã±ad":11419,"ĠGR":11420,"Ġacostumb":11421,"Ġentrevistas":11422,"Ġglaucoma":11423,"ĠMuseo":11424,"ĠRespon":11425,"Ġmacro":11426,"ĠUE":11427,"ĠEmerg":11428,"ĠRecuer":11429,"frag":11430,"tea":11431,"Ã©nqui":11432,"Ġreumatoide":11433,"olarizaciÃ³n":11434,"ĠSar":11435,"ĠcrÃŃticos":11436,"ĠInstitute":11437,"ĠAGU":11438,"Ġcurar":11439,"Ġtrabajador":11440,"nera":11441,"Ġcombinado":11442,"ĠÃ¡l":11443,"Ġinfectados":11444,"ĠDIA":11445,"Ġcau":11446,"ĠWash":11447,"pasos":11448,"acete":11449,"Ġesof":11450,"carcinoma":11451,"Ġblancos":11452,"Ġmasaje":11453,"Ġempie":11454,"Ġdeten":11455,"demo":11456,"Ġindispens":11457,"ĠSS":11458,"ĠResoluciÃ³n":11459,"Ġfiguras":11460,"Ġimag":11461,"Ġnovedades":11462,"PD":11463,"ĠVenoso":11464,"crin":11465,"ĠEduardo":11466,"ĠEf":11467,"ĠcardiologÃŃa":11468,"Ġruido":11469,"Ġexclusiva":11470,"Ġuniverso":11471,"Ġsuponen":11472,"ĠbiologÃŃa":11473,"ogene":11474,"2016":11475,"ĠRevisiÃ³n":11476,"ĠPrimera":11477,"ĠUrologÃŃa":11478,"prim":11479,"ĠDef":11480,"ANTE":11481,"To":11482,"garse":11483,"Ġcien":11484,"ĠcrÃ©di":11485,"ĠDiuresis":11486,"ĠisquÃ©mico":11487,"Ġ103":11488,"aunque":11489,"Cons":11490,"Ġasistida":11491,"Ġflo":11492,"fl":11493,"Ġpobres":11494,"udas":11495,"Ġincons":11496,"ĠToda":11497,"trom":11498,"ĠRehabilitaciÃ³n":11499,"eld":11500,"ĠpodÃŃan":11501,"ÃŃlico":11502,"ARA":11503,"ĠpodrÃ¡s":11504,"Ġmagnesio":11505,"HealthDay":11506,"Ġrectal":11507,"Ġhil":11508,"icipios":11509,"olia":11510,"Ġrecetas":11511,"inales":11512,"Ġdenunci":11513,"Ġfluc":11514,"Ã¡ndolo":11515,"Ã¡rea":11516,"Ġhemorragias":11517,"2008":11518,"Ã¡rez":11519,"Ġbarreras":11520,"orden":11521,"Ġtantos":11522,"Ġvirtual":11523,"Ġunido":11524,"ĠInfecciÃ³n":11525,"Ġmalos":11526,"Ġdistinto":11527,"ĠhÃºme":11528,"Ġrecomiendo":11529,"Ġvigente":11530,"ĠAlfonso":11531,"Ġinteresantes":11532,"Ġperiodon":11533,"ĠJapÃ³n":11534,"icÃ¡r":11535,"ĠDen":11536,"erop":11537,"Ġhormonales":11538,"Ġmarcada":11539,"Ġasistir":11540,"Ġdistinguir":11541,"ĠautÃ³noma":11542,"iologÃŃa":11543,"Ġneutr":11544,"Ġgota":11545,"Ġasimismo":11546,"Ġaborto":11547,"ĠtransiciÃ³n":11548,"muscular":11549,"Ġdial":11550,"Ġbusc":11551,"ĠmorfologÃŃa":11552,"Ġprocesamiento":11553,"mano":11554,"Ġrepeti":11555,"ĠTRATAMIENTO":11556,"Ġmalformaciones":11557,"Ġexige":11558,"Ġmarido":11559,"isco":11560,"Ġdigestiva":11561,"Ġestadios":11562,"................................":11563,"ĠSEG":11564,"ĠfracciÃ³n":11565,"ĠBueno":11566,"Ġgestionar":11567,"fila":11568,"ĠmetastÃ¡s":11569,"ĠCuer":11570,"coco":11571,"rico":11572,"Ġmarcado":11573,"Ġinex":11574,"Ġgotas":11575,"ĠGRA":11576,"ison":11577,"Ġoficiales":11578,"Ġfrus":11579,"Ġolor":11580,"ĠEle":11581,"Ġcarbohidra":11582,"Ġprospec":11583,"Car":11584,"ÃŃcl":11585,"ĠHM":11586,"Ġnecesitamos":11587,"Ġmiccional":11588,"ij":11589,"cher":11590,"Ãµes":11591,"ĠdiabÃ©tica":11592,"Ġefectivos":11593,"ĠTiempo":11594,"ĠcÃ¡lculos":11595,"Ġenfermero":11596,"Ġwork":11597,"ĠrotaciÃ³n":11598,"Ġdeportivo":11599,"Ġsing":11600,"Ġprogen":11601,"Ġacercar":11602,"ĠRecur":11603,"Ġ136":11604,"ĠseparaciÃ³n":11605,"ĠintoxicaciÃ³n":11606,"Ġluchar":11607,"uld":11608,"rile":11609,"ĠcÃ³rnea":11610,"oterapia":11611,"Ġquera":11612,"ĠoposiciÃ³n":11613,"Ġmari":11614,"Ġfemenina":11615,"Ġdebil":11616,"pone":11617,"Ġtome":11618,"ĠBlanco":11619,"Ġpreopera":11620,"ĠvehÃŃculo":11621,"Ġprivadas":11622,"Ġtric":11623,"Ġagradecer":11624,"Ġrecurrente":11625,"ÃŃmetro":11626,"Ġalgor":11627,"ĠMeta":11628,"Ġtuve":11629,"Ġcausado":11630,"ĠperÃŃodos":11631,"Ġsuspender":11632,"ĠSant":11633,"Ġrobo":11634,"Ġvivienda":11635,"Ġelimina":11636,"Ġacumul":11637,"ĠTampoco":11638,"ĠpsiquiatrÃŃa":11639,"ĠadicciÃ³n":11640,"iter":11641,"Ġ05":11642,"ĠWashington":11643,"quip":11644,"Ġestructural":11645,"Ġquitar":11646,"Ġalcanzado":11647,"Ġsuministro":11648,"Ġcursa":11649,"ÃŃfico":11650,"Ġstudi":11651,"Ġpropens":11652,"ĠEditorial":11653,"ĠestÃ¡ndares":11654,"Ġhabilidad":11655,"ucar":11656,"tren":11657,"bum":11658,"Ġarco":11659,"ĠDiscapacidad":11660,"uya":11661,"Ġextremos":11662,"Ġinfantiles":11663,"Ġenga":11664,"Ġformando":11665,"jal":11666,"ADOS":11667,"Ġabandono":11668,"Ġignor":11669,"ĠSam":11670,"ram":11671,"Ġalma":11672,"Ġcolectivos":11673,"ĠTVP":11674,"ĠcolÃ¡geno":11675,"Ġpuls":11676,"Ġllegue":11677,"Ġsomnolencia":11678,"Ġrepresentante":11679,"Ġherpes":11680,"ĠPrincip":11681,"Ġpartida":11682,"ĠesÃ³fago":11683,"Ġliqu":11684,"tacion":11685,"ĠAfec":11686,"Ġantir":11687,"ĠIbuprofeno":11688,"Ġescaso":11689,"ĠERC":11690,"sito":11691,"ĠARN":11692,"Ġcentrado":11693,"Ġpreventivas":11694,"ĠPC":11695,"ĠprecauciÃ³n":11696,"vila":11697,"ĠFrac":11698,"trocin":11699,"Ã©ridos":11700,"Ġiso":11701,"gy":11702,"Ġautora":11703,"ĠUnidades":11704,"Ġneoplasia":11705,"Tabla":11706,"Ġeritema":11707,"Ġfelicidad":11708,"pÃŃa":11709,"ĠMediante":11710,"Ġcercana":11711,"Ġcreer":11712,"oscopia":11713,"Ġimpre":11714,"Ġderivadas":11715,"ĠfundaciÃ³n":11716,"ocin":11717,"inado":11718,"Ġalumno":11719,"%:":11720,"Ġcomunicar":11721,"Ġhumanidad":11722,"ĠdestrucciÃ³n":11723,"Ġgafas":11724,"Ġencefal":11725,"Ġresidual":11726,"bilical":11727,"Ġmantenerse":11728,"Ġextin":11729,"ĠinmunolÃ³gico":11730,"Ã©ase":11731,"Ġblanque":11732,"Ġarre":11733,"San":11734,"Ġestablecimientos":11735,"tativo":11736,"Ġabus":11737,"Ã©nquima":11738,"efec":11739,"Ġenfrentar":11740,"Ġemergencias":11741,"triaxona":11742,"ULO":11743,"teliales":11744,"Ġmide":11745,"ĠPortu":11746,"Ġpoblacional":11747,"pacidades":11748,"Ġreferencias":11749,"Ġtolera":11750,"did":11751,"lite":11752,"Ġlento":11753,"ĠoclusiÃ³n":11754,"Ġnovela":11755,"ofar":11756,"Ġderiva":11757,"Ġati":11758,"acidad":11759,"Ġmarcador":11760,"Ġverbal":11761,"pacional":11762,"ĠbioquÃŃ":11763,"Ġcontactos":11764,"Ġcolegas":11765,"Ġtier":11766,"Ġsexualidad":11767,"Ġrecordado":11768,"venta":11769,"Ġantiv":11770,"Ġvalvular":11771,"ĠChi":11772,"Ġdefender":11773,"ĠBienestar":11774,"Ġreducida":11775,"Ġconstruc":11776,"Ġcabel":11777,"Ġespiri":11778,"MP":11779,"ĠExtra":11780,"ĠÃ¡ngulo":11781,"Ġaquello":11782,"ĠTÃ©cnica":11783,"ening":11784,"cipe":11785,"viamente":11786,"ĠFAR":11787,"Ġnecesariamente":11788,"dibular":11789,"Ġconvulsiones":11790,"ĠðŁ":11791,"Ġdiast":11792,"Ġhaberse":11793,"Ġassociated":11794,"Ġcaer":11795,"ĠpaÃ±":11796,"Ġanticonceptivos":11797,"Ġinfluye":11798,"NF":11799,"pados":11800,"ĠuÃ±as":11801,"Ġpercep":11802,"Ġmineral":11803,"here":11804,"Ġratas":11805,"Ġcentrales":11806,"Ġeducativos":11807,"Ġpuntuaciones":11808,"Ġnasales":11809,"ĠQuiz":11810,"bran":11811,"Ġhumedad":11812,"ĠcrÃ¡neo":11813,"Ġposibil":11814,"Ġdoctores":11815,"Ġmerece":11816,"ĠTraumatologÃŃa":11817,"Ġplantear":11818,"Ġparecido":11819,"Ma":11820,"asia":11821,"Ġrapidez":11822,"Ġcereales":11823,"CLUS":11824,"Ġextraer":11825,"Ġtrac":11826,"dedores":11827,"tam":11828,"Ġanorm":11829,"Ã³nicas":11830,"cientemente":11831,"itra":11832,"UMEN":11833,"ĠsensibilizaciÃ³n":11834,"ĠComplejo":11835,"inta":11836,"formina":11837,"Ġ800":11838,"Ġaprovechar":11839,"Ġveter":11840,"ocer":11841,"dimens":11842,"Ġcorrer":11843,"IAS":11844,"teres":11845,"Ġimpulso":11846,"Ġdejo":11847,"tag":11848,"gÃ©nico":11849,"Ġcontactar":11850,"Ġnotific":11851,"Ġintersticial":11852,"Ġvom":11853,"ĠPod":11854,"Ġulcer":11855,"Ġreducen":11856,"Ġregla":11857,"Ġhago":11858,"Ġabsoluto":11859,"polar":11860,"ĠRHA":11861,"ĠestadÃŃsticas":11862,"Ġmach":11863,"Ġsatisfec":11864,"ĠepidemiolÃ³gico":11865,"ĠmÃŃnimos":11866,"risa":11867,"Ġpersonalizada":11868,"Ġapariencia":11869,"Ġcasas":11870,"Ġoscur":11871,"Ġserio":11872,"ĠtradiciÃ³n":11873,"ĠteÃ³rico":11874,"Ġedificios":11875,"Ġdeje":11876,"animaciÃ³n":11877,"Ġdeportes":11878,"Ġosci":11879,"uto":11880,"Ġcolabora":11881,"ĠAmbos":11882,"ĠMayor":11883,"Ġidentifican":11884,"Ġaver":11885,"RCV":11886,"laterra":11887,"Ġpertenecientes":11888,"ortunadamente":11889,"Ġcontamos":11890,"Ġpensando":11891,"Ġhabido":11892,"ĠRevis":11893,"Ġpares":11894,"algias":11895,"Ġ107":11896,"Ġcircula":11897,"ival":11898,"ĠMiembro":11899,"Ġplen":11900,"Ġvel":11901,"Ġatle":11902,"Ġavent":11903,"Ã³bulo":11904,"Ġeditorial":11905,"ĠProfesional":11906,"ĠPrimer":11907,"Ġvale":11908,"Ġimplicaciones":11909,"ĠdeshidrataciÃ³n":11910,"Ġconsiderando":11911,"Ġhambre":11912,"Ġinternos":11913,"Ġhinch":11914,"ĠsustituciÃ³n":11915,"versible":11916,"Ġexperta":11917,"bon":11918,"ĠfilosofÃŃa":11919,"Ġaislada":11920,"Ġital":11921,"Ġ160":11922,"Ġdependen":11923,"Ġidioma":11924,"Ġajustar":11925,"tÃ¡ndose":11926,"Ġgama":11927,"ames":11928,"Ġpredominante":11929,"Ġprofundi":11930,"ĠEdad":11931,"Sin":11932,"Ġlema":11933,"Ġdiscapaci":11934,"iÃ©n":11935,"Ġaber":11936,"ĠCristina":11937,"ĠanalgÃ©sicos":11938,"EST":11939,"iosas":11940,"bros":11941,"cultaciÃ³n":11942,"ĠmuÃ±eca":11943,"Ġequilibrada":11944,"ĠsignificaciÃ³n":11945,"cc":11946,"eciendo":11947,"Ġreforzar":11948,"Ġcolegios":11949,"ĠDER":11950,"ĠcompaÃ±ero":11951,"Ġnuclear":11952,"ĠDS":11953,"ĠconcepciÃ³n":11954,"Ġglomer":11955,"ĠSierra":11956,"300":11957,"ĠCiv":11958,"ĠsupervisiÃ³n":11959,"NE":11960,"exo":11961,"Ġcurs":11962,"Ġequivalente":11963,"Ġartrosis":11964,"Ġprogresivamente":11965,"ĠReyes":11966,"ĠAlejandro":11967,"ĠCarta":11968,"Ġsuponer":11969,"ĠmediterrÃ¡n":11970,"tice":11971,"Ġmejoran":11972,"QUÃį":11973,"delo":11974,"ĠfijaciÃ³n":11975,"abo":11976,"ÃŃces":11977,"ĠDermatologÃŃa":11978,"ĠEjecu":11979,"ĠRT":11980,"FICI":11981,"Ġdistribu":11982,"Ġgerente":11983,"ĠMÃ©todo":11984,"Ġconvencionales":11985,"ĠOPS":11986,"boles":11987,"ĠAsia":11988,"aller":11989,"Ã³gra":11990,"Ġtanta":11991,"ĠENFERM":11992,"onarios":11993,"Ġexpresar":11994,"ĠmovilizaciÃ³n":11995,"Ġsemin":11996,"Ġquiera":11997,"ĠAndalu":11998,"Ġanalitica":11999,"Ġreflexi":12000,"ĠneurolÃ³gicas":12001,"Ġreiv":12002,"Ġfaciales":12003,"Ġchoc":12004,"cesos":12005,"Ġsusceptibles":12006,"tte":12007,"Ġdescrita":12008,"Ġseria":12009,"ĠCOR":12010,"cura":12011,"ĠCabe":12012,"Ġmalaria":12013,"trito":12014,"ĠObes":12015,"Mar":12016,"ĠLDL":12017,"tabla":12018,"Ġrescate":12019,"Ġhetero":12020,"Ġgris":12021,"its":12022,"Ġperro":12023,"Ġaplicado":12024,"Ġtocar":12025,"TIVA":12026,"Ġtembl":12027,"Ġreglas":12028,"Ãºmenes":12029,"eciÃ³":12030,"mith":12031,"ĠPlata":12032,"Ġty":12033,"ĠED":12034,"ĠGoogle":12035,"the":12036,"Ġimporta":12037,"ĠRomero":12038,"entaria":12039,"ĠdecÃŃa":12040,"Ġnon":12041,"Ġlament":12042,"colesterol":12043,"ĠvÃŃctima":12044,"Ġoxigeno":12045,"Ġcompuesta":12046,"ĠMT":12047,"Ġplantilla":12048,"tato":12049,"ĠProvincial":12050,"ĠUU":12051,"Ġcans":12052,"Ġlactantes":12053,"hy":12054,"Ġnace":12055,"ĠHDM":12056,"ĠDeporte":12057,"Ġvagina":12058,"licÃ©ridos":12059,"Ġrell":12060,"Ġmantuvo":12061,"Ġinmigrantes":12062,"ielo":12063,"Ġdiagnostico":12064,"ĠtendrÃŃa":12065,"ĠSimp":12066,"lantes":12067,"absor":12068,"ĠtomÃ³":12069,"Ġmaestro":12070,"Ġleucocitosis":12071,"Ġceb":12072,"ases":12073,"Ġprogreso":12074,"Ġterror":12075,"ÃŃmetros":12076,"Ġtap":12077,"Ġinspec":12078,"ĪĴ":12079,"ĠSUS":12080,"Ġdeterminantes":12081,"cica":12082,"Ġterm":12083,"vor":12084,"Ġdesequilib":12085,"Ġversus":12086,"Ġespl":12087,"Ġarroz":12088,"ĠCT":12089,"Ġespe":12090,"Ġbatalla":12091,"gestiÃ³n":12092,"Ġviajes":12093,"Ġeritro":12094,"SD":12095,"ĠIngen":12096,"Ġcomparado":12097,"cusiones":12098,"icional":12099,"ĠJoan":12100,"loso":12101,"ĠAlicante":12102,"ĠespÃŃritu":12103,"Ġortop":12104,"Ġrico":12105,"Ġlocalizado":12106,"Ġmembran":12107,"Ġreflejo":12108,"ĠMara":12109,"Ġtriple":12110,"ĠTest":12111,"Ġcuero":12112,"Ġinsectos":12113,"ĠmÃ¡quinas":12114,"ĠdiscriminaciÃ³n":12115,"Ne":12116,"Ġderivada":12117,"Ġcapas":12118,"ĠACTUAL":12119,"Ġcortes":12120,"ĠmanipulaciÃ³n":12121,"pasmo":12122,"Ġcristi":12123,"feras":12124,"Ġdesplazamiento":12125,"Ġcarbohidratos":12126,"Ġbrindar":12127,"uco":12128,"Ġpiloto":12129,"Ġestrech":12130,"Ġcombate":12131,"carditis":12132,"Ġhipertrofia":12133,"oledo":12134,"amino":12135,"Ã¡lica":12136,"Ġsalv":12137,"Ġdisli":12138,"Ã³li":12139,"ĠcaÃŃdas":12140,"produc":12141,"ĠVPH":12142,"rina":12143,"color":12144,"Ġconcomitante":12145,"Ġinguinal":12146,"Ġdeses":12147,"ĠÃ³ptica":12148,"efacciÃ³n":12149,"Ġcomienzan":12150,"Ġdeclaraciones":12151,"Ġdelgado":12152,"ĠJornadas":12153,"ĠPLAN":12154,"Ġexperimentar":12155,"ings":12156,"epi":12157,"ĠSoy":12158,"Ġorganizada":12159,"Ġresponden":12160,"Ġocasionar":12161,"brales":12162,"ĠapuntÃ³":12163,"nidad":12164,"ĠApo":12165,"ificado":12166,"Ġmucosas":12167,"destaciÃ³n":12168,"Ġllu":12169,"ĠFisioterapia":12170,"itritos":12171,"Ã©ntrico":12172,"Ġcaracterizada":12173,"Ġcomprobado":12174,"ĠcÃ¡psula":12175,"Ġrup":12176,"ĠEpidemiologÃŃa":12177,"Ġparenteral":12178,"lab":12179,"Ġperdida":12180,"ĠcontÃ³":12181,"ĠEU":12182,"-(":12183,"GRA":12184,"cond":12185,"Ġtantas":12186,"Ġprecip":12187,"ĠevaluÃ³":12188,"Ġsibil":12189,"ĠActividades":12190,"Ġretin":12191,"Ġcase":12192,"Ġpatient":12193,"ĠAustralia":12194,"Ġencuestados":12195,"Ġjab":12196,"ĠelectrÃ³nicos":12197,"ĠplÃ¡stico":12198,"ĠhemodinÃ¡mica":12199,"ĠÃºlcera":12200,"Dr":12201,"Ġdijeron":12202,"Ġaudios":12203,"Ġtiende":12204,"Ġmenstr":12205,"Ġdebida":12206,"OX":12207,"Ġdemandas":12208,"Ġtermina":12209,"Ġcumplen":12210,"Ġbarrio":12211,"ĠhinchazÃ³n":12212,"ĠRicar":12213,"Ġacuerdos":12214,"Ġllevando":12215,"Ġpelvis":12216,"Ġmencionado":12217,"ĠInglaterra":12218,"Ġinneces":12219,"Ġsinte":12220,"ĠNaciones":12221,"Ġvuelto":12222,"Ġcran":12223,"Ġvoluntaria":12224,"dnisona":12225,"ĠepidemiolÃ³gicos":12226,"Ġrecurrencia":12227,"ĠCalcio":12228,"olate":12229,"Ġrealice":12230,"toriamente":12231,"Ġparadig":12232,"omegal":12233,"ĠEqui":12234,"ĠAgr":12235,"certid":12236,"Ġsabes":12237,"ĠTres":12238,"Ġintestinales":12239,"Ġlicencia":12240,"ĠFacebook":12241,"Ġantidepresivos":12242,"Ġhial":12243,"ĠMonte":12244,"iss":12245,"RES":12246,"VE":12247,"Ġlentes":12248,"Ġdefinida":12249,"Ġinto":12250,"Ġfosa":12251,"ĠEsclerosis":12252,"Ġsecundarias":12253,"AA":12254,"Ġambulatorio":12255,"Ã©ptido":12256,"ls":12257,"Ã¡ndole":12258,"Ġsirven":12259,"ĠNivel":12260,"ĠLes":12261,"ĠIndia":12262,"Ġremedio":12263,"ĠCualquier":12264,"by":12265,"Ġagudos":12266,"ĠneurolÃ³gico":12267,"Ġsalvar":12268,"Ġdesarrollada":12269,"Ġ1989":12270,"Ġabundantes":12271,"inidad":12272,"ĠSL":12273,"Ġpueblos":12274,"Ġemplear":12275,"reus":12276,"Ġlevel":12277,"Ġcaries":12278,"ĠlÃŃpidos":12279,"ĠHumanos":12280,"Ġgrab":12281,"URA":12282,"Ġdestinado":12283,"parto":12284,"Ġintegra":12285,"Ġracional":12286,"core":12287,"inaria":12288,"filo":12289,"ĠclÃ¡sico":12290,"Ġdiana":12291,"quedad":12292,"ĠpediatrÃŃa":12293,"ĠPatologÃŃa":12294,"ĠOme":12295,"Ġconduce":12296,"gs":12297,"bias":12298,"tifi":12299,"mÃ©":12300,"Ġpediatras":12301,"Ġcell":12302,"Ġmatrimonio":12303,"ĠPilar":12304,"Ġdengue":12305,"----------------":12306,"Ġproduzca":12307,"zon":12308,"Ġuterino":12309,"amen":12310,"ĠFG":12311,"gramas":12312,"Ġblandas":12313,"Ġtherapy":12314,"ĠVa":12315,"Ġchicos":12316,"Ġnegra":12317,"Ġbiomarc":12318,"Ġgobiernos":12319,"Ġtransfer":12320,"angio":12321,"Ġexudado":12322,"Ġsaludo":12323,"Ġinstitucional":12324,"Ġmunicipal":12325,"Ġvit":12326,"publ":12327,"ipe":12328,"pel":12329,"Ġfirmado":12330,"Ġobtienen":12331,"Ġcalcific":12332,"ized":12333,"Ġminimizar":12334,"ĠFDA":12335,"Ġpiedra":12336,"fig":12337,"Hay":12338,"Ġapuesta":12339,"ĠteorÃŃas":12340,"Ġcuento":12341,"ICAS":12342,"Ġpapil":12343,"bial":12344,"ĠautÃ©n":12345,"ĠcutÃ¡neo":12346,"ĠvÃŃnculo":12347,"ĠMagn":12348,"atorio":12349,"Ġavanzadas":12350,"ĠTeresa":12351,"CN":12352,"Ġmunicipios":12353,"Ġpez":12354,"Ġprovocando":12355,"Ġcay":12356,"ĠÃ³ptimo":12357,"hr":12358,"Ġcomunica":12359,"ĠBea":12360,"jano":12361,"ĠCanarias":12362,"ĠubicaciÃ³n":12363,"Ġinduc":12364,"ĠKar":12365,"ĠWal":12366,"Ġprestigio":12367,"Ġviviendas":12368,"ĠFEVI":12369,"diales":12370,"Ġautoridad":12371,"Ġproporcionan":12372,"Ġregistrado":12373,"tiu":12374,"ĠproblemÃ¡tica":12375,"Ġartistas":12376,"ĠPodemos":12377,"ĠHepa":12378,"Ġconoc":12379,"ĠdarÃ¡":12380,"ĠProb":12381,"Ġmasiva":12382,"ĠNA":12383,"JA":12384,"Ġenro":12385,"ĠJosep":12386,"Ġimpulsar":12387,"Ġtrascen":12388,"MENTE":12389,"Ġgranul":12390,"Ġplaque":12391,"++":12392,"ĠHeart":12393,"ĠbalÃ³n":12394,"ĠraÃŃces":12395,"Ġadaptar":12396,"Ġnico":12397,"ĠManten":12398,"ĠUnidas":12399,"fato":12400,"Ġsintomas":12401,"Ġcorporales":12402,"osidad":12403,"ĠprÃ¡ctico":12404,"ĠMat":12405,"ĠValoraciÃ³n":12406,"Ġcoe":12407,"Ġconcord":12408,"Ġpreli":12409,"ormes":12410,"ĠcomentÃ³":12411,"Ġ125":12412,"ÃŃgenas":12413,"Ġraro":12414,"ĠMorales":12415,"Ġnoches":12416,"Ġdiariamente":12417,"ĠreÃºn":12418,"Ġfechas":12419,"ĠTel":12420,"Ġmatriz":12421,"Ġrojos":12422,"quÃŃn":12423,"riculares":12424,"ĠcreÃ³":12425,"ĠanÃ¡":12426,"ĠFeb":12427,"Ã¡ctico":12428,"Ġgenital":12429,"ĠElena":12430,"Ġsanas":12431,"Ġimpresion":12432,"ĠinducciÃ³n":12433,"ocito":12434,"ĠmetabÃ³lica":12435,"ĠIF":12436,"fasis":12437,"ĠHEMAT":12438,"indo":12439,"Ġautos":12440,"ĠPreval":12441,"ĠAlbacete":12442,"Ġgarantiz":12443,"Ġtablas":12444,"meno":12445,"Ġdisminuido":12446,"Ġjar":12447,"ĠcontribuciÃ³n":12448,"Ġtratadas":12449,"Ġmcg":12450,"ĠScience":12451,"Ġahorro":12452,"Ġagradable":12453,"Ġpatrocin":12454,"Ġfues":12455,"Ġgene":12456,"ĠBiologÃŃa":12457,"Ġaislados":12458,"ieran":12459,"Ġcotidiana":12460,"Ġsentimiento":12461,"Ġpresentados":12462,"erta":12463,"ĠsedaciÃ³n":12464,"ĠciudadanÃŃa":12465,"velopment":12466,"ĠBay":12467,"ĠXXI":12468,"terapÃ©u":12469,"ĠÃ©n":12470,"ĠperifÃ©rico":12471,"DIO":12472,"ĠAvan":12473,"ĠTab":12474,"ĠAma":12475,"Ġcomplicada":12476,"ĠSurg":12477,"Ġjuz":12478,"LD":12479,"Ġtrasplan":12480,"Ġprocedente":12481,"Ġcatar":12482,"orf":12483,"Ġmoderna":12484,"ĠHg":12485,"tÃŃas":12486,"Ġoliva":12487,"jun":12488,"ĠHIP":12489,"Ġcubanos":12490,"ĠquirÃ³fano":12491,"Ġrenta":12492,"Ġvulnerables":12493,"Ġanticip":12494,"izÃ³":12495,"Ġsegment":12496,"Ġsust":12497,"Ġmeningitis":12498,"Ġespermato":12499,"ĠtrÃ¡n":12500,"2005":12501,"Ġcatedr":12502,"Ġllan":12503,"Ġestructurales":12504,"Ġcombus":12505,"Ġcodo":12506,"Ġencargado":12507,"ĠIB":12508,"apro":12509,"TAC":12510,"ĠLis":12511,"Ġinconven":12512,"Ġfeder":12513,"ĠQuÃ©":12514,"ĠTribunal":12515,"ĠestableciÃ³":12516,"Ġmatr":12517,"ĠcanciÃ³n":12518,"ĠChild":12519,"ĠacreditaciÃ³n":12520,"ĠImagen":12521,"Ġespu":12522,"Ġphys":12523,"umador":12524,"Ġgeneraciones":12525,"cencia":12526,"Ġaparte":12527,"ĠCubana":12528,"usas":12529,"ĠcÃŃr":12530,"Ġbici":12531,"hos":12532,"ĠMantener":12533,"ĠÎ¼g":12534,"ĠZa":12535,"iÃ©ndose":12536,"Ġinfrecu":12537,"Ġmencionar":12538,"Ġimpon":12539,"fri":12540,"ĠDD":12541,"Ġdirectivos":12542,"Ġoccidental":12543,"Ġatrofia":12544,"ĠLuc":12545,"ĠAdi":12546,"Ġimi":12547,"Ġencuestas":12548,"Ġferro":12549,"Ġalve":12550,"perit":12551,"ÃŃsima":12552,"iversario":12553,"Ġmediados":12554,"ĠÃ¡rboles":12555,"Ġneg":12556,"Ġligero":12557,"Ã©m":12558,"nado":12559,"Ġventas":12560,"Ġcirrosis":12561,"retrovir":12562,"ĠPUE":12563,"ĠWorld":12564,"Ġpronunci":12565,"uena":12566,"ursing":12567,"Ġperteneciente":12568,"UG":12569,"Ġincertid":12570,"ĠPel":12571,"Res":12572,"Ġexplorar":12573,"ota":12574,"ĠÃ³rdenes":12575,"2002":12576,"ato":12577,"Ġmedular":12578,"sessment":12579,"gÃ©nica":12580,"Ġreform":12581,"ĠSex":12582,"Ġtren":12583,"Ġescl":12584,"Ġtratando":12585,"Ġestatinas":12586,"Ġregal":12587,"ĠÃ©nfasis":12588,"ĠhepÃ¡ticas":12589,"Ġllevo":12590,"imÃ©":12591,"Ġactor":12592,"ĠPOL":12593,"Ġviendo":12594,"Ġliderazgo":12595,"Ġsostenibilidad":12596,"ĠVallad":12597,"ĠEconomÃŃa":12598,"flu":12599,"Ãºde":12600,"ĠUsuario":12601,"ĠEpiso":12602,"Ġpopulation":12603,"ĠAutor":12604,"Ġroja":12605,"Ġelas":12606,"ĠRi":12607,"Ġcandidato":12608,"ĠenseÃ±ar":12609,"Ġconferencias":12610,"aste":12611,"Ġenferma":12612,"Ġposiciones":12613,"Ġdiferenciar":12614,"ĠOro":12615,"ĠGir":12616,"Ã©ndez":12617,"ĠMVC":12618,"Der":12619,"Ġfemoral":12620,"Ġrelacionan":12621,"Ġnaran":12622,"Ġsp":12623,"Ġextensa":12624,"etÃŃn":12625,"Ġgeneralizado":12626,"Ġ1980":12627,"Ġrequerir":12628,"Ġacuden":12629,"Ġ1988":12630,"ĠlÃ¡cteos":12631,"ensis":12632,"osino":12633,"rilla":12634,"Ġcorrectas":12635,"ĠemisiÃ³n":12636,"Ġsales":12637,"Ġincorpora":12638,"hibir":12639,"yuvante":12640,"Ġlav":12641,"Ġbara":12642,"Ġjubil":12643,"Ġpneumonia":12644,"entamiento":12645,"Fig":12646,"Ġaceites":12647,"ĠEsp":12648,"Ġescon":12649,"ĠNeces":12650,"Ġescasos":12651,"Ġrecomendar":12652,"Ġsometido":12653,"Ġrecal":12654,"ĠEvaluar":12655,"Ġfrase":12656,"Ġvecinos":12657,"Ġllena":12658,"ĠcontrataciÃ³n":12659,"ĠlÃ³bulo":12660,"itares":12661,"poner":12662,"Ġhuevo":12663,"Ġmur":12664,"Ġvegetal":12665,"Ġvalorada":12666,"tÃ¡culos":12667,"metil":12668,"Ġconcer":12669,"putaciÃ³n":12670,"ĠDown":12671,"mbo":12672,"Ġrequerimientos":12673,"jados":12674,"Ġdifusa":12675,"Ġministra":12676,"Ġincent":12677,"bac":12678,"ĠÃł":12679,"BL":12680,"pue":12681,"ĠSeguimiento":12682,"blemas":12683,"ĠestarÃŃa":12684,"ĠConsulta":12685,"Ġnombrado":12686,"Ġdirigir":12687,"====":12688,"\")":12689,"iÃ¡":12690,"Ġquede":12691,"ĠML":12692,"izando":12693,"ĠmigraÃ±a":12694,"eraciÃ³n":12695,"Man":12696,"Ġsemes":12697,"Ġhemato":12698,"ĠColabor":12699,"rinÃ³geno":12700,"ĠtriglicÃ©ridos":12701,"Ġgestacional":12702,"Ġalimenticios":12703,"MI":12704,"ĠSen":12705,"Ġdroga":12706,"ĠtrÃ¡nsito":12707,"Ġestatu":12708,"ĠglÃ³bulos":12709,"ĠSV":12710,"creening":12711,"ĠRamos":12712,"Ġ112":12713,"uter":12714,"Ġmando":12715,"Ġpreocupa":12716,"ĠSNS":12717,"ĠaportaciÃ³n":12718,"lege":12719,"Ġdespues":12720,"Ġzapa":12721,"Ġinflamatorios":12722,"Ġcitado":12723,"ĠcocaÃŃna":12724,"lex":12725,"Ġsuprar":12726,"ĠTex":12727,"Ġover":12728,"Ġsiga":12729,"ÃŃticamente":12730,"ĠAten":12731,"Ġrestring":12732,"enio":12733,"ĠanalÃŃtico":12734,"Ġ139":12735,"Ġaparentemente":12736,"ilateral":12737,"ĠHidro":12738,"ĠMario":12739,"Ġdeberse":12740,"rimir":12741,"NR":12742,"Ġsiglos":12743,"ximab":12744,"ĠdebÃŃa":12745,"Ġmodal":12746,"ĠHern":12747,"Ġrutin":12748,"Ġmultiv":12749,"ĠCIB":12750,"ĠpsicÃ³logo":12751,"Ġagen":12752,"Ġcolaborador":12753,"Ġestatal":12754,"ULA":12755,"Ġcanciones":12756,"Ġembarazos":12757,"Ġquemaduras":12758,"rando":12759,"Ġperiodista":12760,"ĠGol":12761,"biÃ³ticos":12762,"Ġseveridad":12763,"inemia":12764,"Ġlleno":12765,"Ġtorax":12766,"ĠCivil":12767,"ĠorgÃ¡nica":12768,"ĠKey":12769,"Ġhospitalizados":12770,"Ġsituada":12771,"Ġforo":12772,"hacer":12773,"Ġconme":12774,"ĠDP":12775,"ĠIglesia":12776,"Ġprurito":12777,"Ġflor":12778,"aduras":12779,"Ġinteresa":12780,"Ġapr":12781,"ENO":12782,"iosis":12783,"ĠDol":12784,"Ġmenstru":12785,"Ġeducativas":12786,"OMA":12787,"Ġconsens":12788,"Ġacopl":12789,"Ġeros":12790,"Ġ138":12791,"Ġsindica":12792,"Ġalimentarios":12793,"favor":12794,"Ġduring":12795,"Ġsuav":12796,"Ġevaluado":12797,"Ġcontrovers":12798,"igu":12799,"Ġtira":12800,"Ġcontratos":12801,"aminas":12802,"Ġcognitivas":12803,"bieron":12804,"Ġpudieron":12805,"riles":12806,"oglob":12807,"ĠDiscusiÃ³n":12808,"Ġparque":12809,"Ġalmacenamiento":12810,"ĠRaras":12811,"Ġruedas":12812,"Ġconstantemente":12813,"nica":12814,"loro":12815,"PV":12816,"Ġoficinas":12817,"uman":12818,"ĠEcuador":12819,"ĠpatÃ³genos":12820,"formaciÃ³n":12821,"Ġpertin":12822,"Ġpleno":12823,"ĠAsociaciones":12824,"ĠgÃ¡strica":12825,"Ġinterpretar":12826,"Ġnotar":12827,"path":12828,"arcoma":12829,"Ġfuncionarios":12830,"ĠTroponina":12831,"Ġdiente":12832,"ĠITU":12833,"Ġmore":12834,"Ġpendientes":12835,"ĠdiferenciaciÃ³n":12836,"ĠCLÃįN":12837,"Ġcrece":12838,"fobia":12839,"ĠPACI":12840,"Ġaborda":12841,"Ġbeneficioso":12842,"ĠcÃ¡n":12843,"ĠcomÃºnmente":12844,"Ġtransparente":12845,"erdo":12846,"medad":12847,"atitis":12848,"orre":12849,"trof":12850,"bacter":12851,"Ġpele":12852,"ieve":12853,"inger":12854,"Ġfantas":12855,"ĠnÃ³dulos":12856,"Este":12857,"ĠCapit":12858,"Ġremedios":12859,"Ġpreventiva":12860,"Ġencamin":12861,"ĠPlaza":12862,"Ġanamnesis":12863,"Ġfija":12864,"ĠdiseÃ±ar":12865,"ory":12866,"ĠTea":12867,"degenera":12868,"ĠCOMPR":12869,"Ġexperimentos":12870,"Ġconcluir":12871,"Ġvigil":12872,"ĠDens":12873,"leto":12874,"Ġintegrantes":12875,"Ġlatino":12876,"mosis":12877,"Ġherencia":12878,"ĠProcedimiento":12879,"Ġportador":12880,"Ġcontrola":12881,"Ġsegmentos":12882,"Ġobesos":12883,"agre":12884,"ĠrepolarizaciÃ³n":12885,"Ġdelic":12886,"Ġapnea":12887,"Ġretar":12888,"activo":12889,"tilo":12890,"Ġimpedir":12891,"tinib":12892,"Ġmaterno":12893,"tÃ¡culo":12894,"ĠConferencia":12895,"fu":12896,"ĠArtes":12897,"ĠOdontologÃŃa":12898,"ĠLeg":12899,"Ġdedicada":12900,"Ġcontener":12901,"diagn":12902,"lasa":12903,"ULTA":12904,"Ġdecidido":12905,"ĠCÃ³digo":12906,"ĠConsciente":12907,"Ġgamma":12908,"ĠToledo":12909,"ĠEsa":12910,"ĠParque":12911,"Ġmediciones":12912,"Ġpropici":12913,"Ġestablecen":12914,"Ġpublicar":12915,"Ġresults":12916,"FC":12917,"Ġfiesta":12918,"Ġtemor":12919,"entino":12920,"gena":12921,"Ġpiso":12922,"Ġseleccionar":12923,"Ġcolorrectal":12924,"Ġrepercu":12925,"tega":12926,"Ġmarcapasos":12927,"plasma":12928,"Ġintensivos":12929,"ĠBuenas":12930,"ĠpediÃ¡tricos":12931,"Ġalber":12932,"Ġdisminuyendo":12933,"ĠimpresiÃ³n":12934,"Ġcovid":12935,"Ġplane":12936,"ORES":12937,"Ġproto":12938,"Ġoto":12939,"Ġcerrado":12940,"Ġ104":12941,"ĠGlobal":12942,"ĠNatural":12943,"ĠCAS":12944,"Ġaislado":12945,"paciente":12946,"lÃ³n":12947,"Ġgarantiza":12948,"ĠablaciÃ³n":12949,"ajaj":12950,"Ġrepas":12951,"Ġquedarse":12952,"Ġincomple":12953,"Ġcamas":12954,"Ġreflex":12955,"tain":12956,"ĠPeÃ±a":12957,"esias":12958,"ĠGuar":12959,"PCR":12960,"Ġdesori":12961,"ism":12962,"Ġenfa":12963,"Ġmareos":12964,"Ġcolg":12965,"atÃŃa":12966,"ĠGreg":12967,"Ġestudiada":12968,"muy":12969,"ĠComercio":12970,"ĠacnÃ©":12971,"Ġacetil":12972,"Ġcannab":12973,"Ġangustia":12974,"Ġnu":12975,"Ġset":12976,"torÃŃa":12977,"Ġneoplasias":12978,"gÃ©nesis":12979,"umbres":12980,"ĠMartÃŃ":12981,"ĠReina":12982,"Ġsecciones":12983,"ĠPM":12984,"ced":12985,"Ġpaliativos":12986,"Ġorganizar":12987,"Ġdegrad":12988,"Ġoeste":12989,"ĠdiabÃ©tico":12990,"Ġconcreta":12991,"Ġcorro":12992,"ĠlinfÃ¡ticos":12993,"dependiente":12994,"Ġreflujo":12995,"ĠMAS":12996,"ĠClara":12997,"iblemente":12998,"Ġsutura":12999,"Ġoptimizar":13000,"ĠOral":13001,"ĠpatolÃ³gica":13002,"Ġestrellas":13003,"Ġproveedor":13004,"enem":13005,"ĠRan":13006,"Ġestablecida":13007,"Para":13008,"toriales":13009,"ities":13010,"partamentos":13011,"ĠHospitalario":13012,"Ġcausadas":13013,"Ġfueran":13014,"Le":13015,"PEC":13016,"ĠCenter":13017,"Ġ145":13018,"Ġaureus":13019,"Ġdestinados":13020,"ĠaumentÃ³":13021,"ĠVHC":13022,"Ġadministrado":13023,"ĠJusticia":13024,"ĠOftalmologÃŃa":13025,"ĠRecursos":13026,"Ġ180":13027,"uce":13028,"Ġconstituido":13029,"quial":13030,"Ġtrate":13031,"Ġsevero":13032,"ĠhomogÃ©n":13033,"Ġperfiles":13034,"Ġcomis":13035,"ĠSEN":13036,"HE":13037,"Ġcientos":13038,"ĠestimaciÃ³n":13039,"Ġanalizados":13040,"ĠHom":13041,"Ġporcentajes":13042,"Ġgem":13043,"Ġsustituir":13044,"Ġabdominales":13045,"Ġcontado":13046,"Ġali":13047,"Ġesperan":13048,"amor":13049,"imnas":13050,"Ġfich":13051,"Ġmaterias":13052,"OME":13053,"ĠFuente":13054,"Ġdeportivas":13055,"Ġreferido":13056,"ĠproyecciÃ³n":13057,"ĠsÃ³lidos":13058,"osfato":13059,"Ġvariar":13060,"Ġother":13061,"Ġaparente":13062,"ĠFRCV":13063,"ĠvacÃŃo":13064,"ĠONG":13065,"Ġempu":13066,"Ġquistes":13067,"Ġ%)":13068,"Ġfrecuencias":13069,"ulados":13070,"Ã©pticos":13071,"ĠRecientemente":13072,"ĠbibliografÃŃa":13073,"ĠTE":13074,"Ġsolicitudes":13075,"Ġchan":13076,"terno":13077,"Ġcorri":13078,"arazo":13079,"Ġorientar":13080,"ÃŃrez":13081,"Ġresidente":13082,"Ro":13083,"ĠCora":13084,"Ġanticuerpo":13085,"ĠValladolid":13086,"Ġdetener":13087,"ĠRealiz":13088,"Ġfuncionar":13089,"Ġhipersensibilidad":13090,"Ġaqu":13091,"TIN":13092,"Ġendocrin":13093,"ĠEstamos":13094,"Ġancho":13095,"Ġinclus":13096,"Ġtransmite":13097,"Ġobtenidas":13098,"ĠsistÃ©mico":13099,"az":13100,"ampl":13101,"ĠprogramaciÃ³n":13102,"Ġpremi":13103,"ĠrevoluciÃ³n":13104,"Ġmamaria":13105,"Ġnerviosa":13106,"Ġbebida":13107,"ostic":13108,"Ġgastrointestinales":13109,"Ġtraumatismos":13110,"Ġpac":13111,"Ã¡cticas":13112,"ĠPerio":13113,"Ġopioides":13114,"ĠcartÃŃ":13115,"ILL":13116,"Ġtrabajado":13117,"Ġhidratos":13118,"cÃ³pico":13119,"cual":13120,"gÃ©nicos":13121,"ĠLeon":13122,"ĠCY":13123,"Ġingresa":13124,"Ġreum":13125,"torÃ¡ci":13126,"ociales":13127,"ĠSud":13128,"ĠNeumologÃŃa":13129,"Ġlogro":13130,"Ġflora":13131,"tivaciÃ³n":13132,"ĠFra":13133,"ĠsudoraciÃ³n":13134,"ĠTre":13135,"Ġtenia":13136,"Ġequidad":13137,"ĠVia":13138,"Ġpura":13139,"Ġpsicomo":13140,"ĠAnatomÃŃa":13141,"ĠalÃ©rgicas":13142,"ĠpCO":13143,"pha":13144,"idar":13145,"ĠRicardo":13146,"ĠObstetricia":13147,"Ġcoche":13148,"cra":13149,"cara":13150,"Ġmotora":13151,"Ġecos":13152,"Ġestoma":13153,"ĠmamÃŃfer":13154,"Ġterceros":13155,"Ġextranjero":13156,"Ġtristeza":13157,"hipertens":13158,"Ġdisor":13159,"Ġubicada":13160,"ĠMJ":13161,"Ġcomputar":13162,"ĠMU":13163,"ĠalcanzÃ³":13164,"ĠHombre":13165,"Ġsyndrome":13166,"Ġextremadamente":13167,"ĠclÃ¡sica":13168,"Ġdesaparecer":13169,"Ġlegisla":13170,"Ġfri":13171,"Ġintermedi":13172,"ika":13173,"ĠquÃŃmicas":13174,"Ġcreemos":13175,"Ġpodamos":13176,"Ġproducidas":13177,"ĠtardÃŃa":13178,"Ġoscuro":13179,"Ġvulnera":13180,"Ġingles":13181,"ĠJer":13182,"Ġdificulta":13183,"ĠCAM":13184,"Ġsecuencias":13185,"Ġendometri":13186,"Ġrum":13187,"Ġprotagonista":13188,"tegra":13189,"ĠDefin":13190,"ĠestaciÃ³n":13191,"Ġciego":13192,"ĠejÃ©rcito":13193,"unciones":13194,"Ġaline":13195,"ocor":13196,"ĠMaes":13197,"Ġvoluntar":13198,"Ġdrug":13199,"lares":13200,"Ġcero":13201,"RM":13202,"lÃ¡n":13203,"ĠAden":13204,"ĠNefrologÃŃa":13205,"ek":13206,"Ġmirar":13207,"dence":13208,"ĠIQ":13209,"uestion":13210,"Ġtam":13211,"Ġvidrio":13212,"Ġnew":13213,"Ġprotege":13214,"ĠPrecis":13215,"SC":13216,"Ġorienta":13217,"bis":13218,"ĠTwitter":13219,"Ġits":13220,"Ġaclarar":13221,"Ġinflamatorio":13222,"Ġlimitar":13223,"Ġcombina":13224,"ĠAcciÃ³n":13225,"Ġsorpres":13226,"Ġagricultura":13227,"Ġ1987":13228,"ativo":13229,"Ãºbito":13230,"ĠBanco":13231,"ĠSIDA":13232,"educ":13233,"ĠparÃ©nquima":13234,"Ġarreg":13235,"caciÃ³n":13236,"Ġreconocida":13237,"ENTA":13238,"Ġadministraciones":13239,"ĠAÃºn":13240,"Ġretra":13241,"uth":13242,"Ġadaptado":13243,"ĠPhys":13244,"ĠpsicolÃ³gicas":13245,"Ġrecibiendo":13246,"Ġadju":13247,"Ġtable":13248,"Ġrea":13249,"Ġeru":13250,"idosis":13251,"Ġsometerse":13252,"trina":13253,"Ġquerer":13254,"ĠPte":13255,"ĠinvasiÃ³n":13256,"Ġrodillas":13257,"renalina":13258,"ĠvolviÃ³":13259,"Ġplie":13260,"Ġoriginales":13261,"ĠazÃºcares":13262,"QUÃįMICA":13263,"Ġespermatozo":13264,"gil":13265,"ele":13266,"Ġbios":13267,"Ġhogares":13268,"Ġfuncionan":13269,"ĠadenopatÃŃas":13270,".....":13271,"Ġfollow":13272,"Ġconsciencia":13273,"2003":13274,"Ġsugi":13275,"Ġhomen":13276,"ĠEstrategia":13277,"Ġespir":13278,"ĠStudy":13279,"Ġcicatrices":13280,"AF":13281,"ĠLM":13282,"Ġocurrido":13283,"pÃ¡tico":13284,"tter":13285,"Ġartifici":13286,"Ġapropiado":13287,"diciales":13288,"Ca":13289,"inio":13290,"Ġtomas":13291,"Ġendocr":13292,"tÃº":13293,"ĠMÃºltiple":13294,"Ġdr":13295,"Ġcelulitis":13296,"jÃ³":13297,"Ġtranquilo":13298,"Ġministro":13299,"ĠÃ¡tomos":13300,"Ġtierras":13301,"ĠaproximaciÃ³n":13302,"Ġbenzo":13303,"ejas":13304,"Ġvosotros":13305,"ĠStre":13306,"ĠaspiraciÃ³n":13307,"ĠExtremadura":13308,"ĠAngel":13309,"Ġexcelentes":13310,"Ġevaluados":13311,"ĠcelebrarÃ¡":13312,"Ġcomenzado":13313,"Ġjuventud":13314,"Ġcaja":13315,"junto":13316,"Ġtoca":13317,"ĠdedicaciÃ³n":13318,"Ġabandonar":13319,"Ġcartera":13320,"Ġrecidiva":13321,"Ġig":13322,"Ġquisiera":13323,"Ġanos":13324,"Ġestrella":13325,"Ġ1986":13326,"ĠParte":13327,"ĠcrÃŃticas":13328,"Ġanorexia":13329,"ĠvÃ³mito":13330,"ĠfusiÃ³n":13331,"ĠbiolÃ³gicas":13332,"Ġdulce":13333,"ĠRepres":13334,"Ġdisciplinas":13335,"Ġenlaces":13336,"ĠpO":13337,"Ġcomorbilidad":13338,"ĠsÃŃmb":13339,"Ġlitiasis":13340,"Ġpopulares":13341,"Ġprepara":13342,"ĠGU":13343,"Ġcentrada":13344,"Ġvalora":13345,"Ġmag":13346,"Ġquiste":13347,"ĠCuenta":13348,"Ġhermos":13349,"Ġlesion":13350,"Ġpain":13351,"Ġnef":13352,"Ġreactiva":13353,"Ġduer":13354,"tedra":13355,"Ġende":13356,"Ġanciano":13357,"Ġvuestra":13358,"Ġspeci":13359,"Ġcases":13360,"ertos":13361,"ĠanticoagulaciÃ³n":13362,"agÃ¼":13363,"Ġepider":13364,"ĠEra":13365,"dÃ³":13366,"Ġinmovil":13367,"Ġmanagement":13368,"ĠlÃŃderes":13369,"ĠReun":13370,"ĠCollege":13371,"ĠHaci":13372,"ocimiento":13373,"Ã³vil":13374,"IDOS":13375,"ĠHema":13376,"cita":13377,"Ġgenerado":13378,"CG":13379,"Ġpaquete":13380,"guin":13381,"Ġdiagnosis":13382,".[":13383,"Ġocurr":13384,"Ġrefu":13385,"cuidado":13386,"ĠPediÃ¡trica":13387,"BE":13388,"cÃ³n":13389,"ross":13390,"Ġbronquial":13391,"ĠCÃ©s":13392,"ĠUsted":13393,"ĠerrÃ³n":13394,"Ġatiende":13395,"ĠSD":13396,"Ġpresentaciones":13397,"Internet":13398,"Ġgenitales":13399,"Ġchronic":13400,"Ġestuvieron":13401,"ĠMunicipal":13402,"Ġescritor":13403,"deza":13404,"Ġdirectrices":13405,"ĠRiesgo":13406,"care":13407,"Ġprovincias":13408,"ĠRico":13409,"Ġexperimentado":13410,"ĠcontracciÃ³n":13411,"ĠCaracterÃŃsticas":13412,"Ġcadenas":13413,"tÃ©rmica":13414,"Ġintervalos":13415,"zi":13416,"Ġparox":13417,"ĠcapÃŃtulos":13418,"Val":13419,"Ġpastillas":13420,"ĠagresiÃ³n":13421,"uden":13422,"Ġviscer":13423,"iner":13424,"ĠAuto":13425,"Ġprotes":13426,"ĠCN":13427,"ĠsÃ³":13428,"Ġvideoj":13429,"ĠOficina":13430,"Ġreivindic":13431,"cepto":13432,"ĠGL":13433,"ĠVie":13434,"inosa":13435,"ĠAcudir":13436,"eja":13437,"jamiento":13438,"ĠestarÃ¡n":13439,"ĠmÃ¡quina":13440,"Ġintegrada":13441,"rÃ©":13442,"opatÃŃa":13443,"Ġvertical":13444,"tanos":13445,"Ġinfiltrado":13446,"erci":13447,"Ġamig":13448,"dicamente":13449,"Ġflexible":13450,"Ġodino":13451,"dium":13452,"ĠocurriÃ³":13453,"2004":13454,"ĠPI":13455,"Ã§a":13456,"ĠEstim":13457,"ĠStan":13458,"IZADO":13459,"Ġstudies":13460,"Ġseguramente":13461,"Ġpresenten":13462,"Ġcamp":13463,"ization":13464,"Ġradiof":13465,"Ġestimula":13466,"amas":13467,"Ġmodalidades":13468,"mel":13469,"Ġarrugas":13470,"Ġentregar":13471,"Ġads":13472,"Ġ137":13473,"yecciÃ³n":13474,"ĠPalacio":13475,"Ġpicor":13476,"123":13477,"okies":13478,"Ġprimavera":13479,"Ġformulario":13480,"ficar":13481,"Ġlados":13482,"Ġintracraneal":13483,"120":13484,"Ġinducida":13485,"enzo":13486,"ĠAmbiente":13487,"Ġdespertar":13488,"ĠSegunda":13489,"ĠGEN":13490,"ĠmiocÃ¡rdica":13491,"ĠDicho":13492,"ENTO":13493,"Ġhinchas":13494,"Ġantis":13495,"Ġfarmaco":13496,"ĠEndocrinologÃŃa":13497,"Ġelig":13498,"Ġmira":13499,"ĠDex":13500,"ĠMarta":13501,"Ġconsiderablemente":13502,"Ġlitros":13503,"ĠHCO":13504,"ĠrestricciÃ³n":13505,"ĠIndic":13506,"ĠParece":13507,"Ġcoronarias":13508,"Ġdele":13509,"Ġretino":13510,"cilla":13511,"ĠformulaciÃ³n":13512,"Ġcitas":13513,"ĠconfirmaciÃ³n":13514,"tosterona":13515,"Ġviajar":13516,"Ġresponsabilidades":13517,"Ġsalas":13518,"ĠUri":13519,"ĠasociÃ³":13520,"ĠalegrÃŃa":13521,"Ġcabellu":13522,"tÃŃculos":13523,"ĠPoco":13524,"istiÃ³":13525,"Ġrecaud":13526,"inga":13527,"Ġtranquila":13528,"lav":13529,"ĠPromociÃ³n":13530,"Ġgalle":13531,"now":13532,"ĠLES":13533,"ĠRoma":13534,"ĠacadÃ©mica":13535,"Ġcuestionarios":13536,"ĠMetab":13537,"ĠrevascularizaciÃ³n":13538,"Ġhomeo":13539,"Ġsuplemento":13540,"his":13541,"ĠCalle":13542,"ĠRI":13543,"critos":13544,"ĠRodri":13545,"ĠIgG":13546,"ries":13547,"Ġcalles":13548,"enza":13549,"Ġambul":13550,"Ġsupera":13551,"Ġfocal":13552,"ĠAU":13553,"Ġ1985":13554,"enciada":13555,"Ġcalcular":13556,"Ġfiabilidad":13557,"125":13558,"Ġdesin":13559,"yacentes":13560,"Ġprimarios":13561,"Ġextender":13562,"Ġtromboemb":13563,"ĠPET":13564,"ĠMundo":13565,"ÃģN":13566,"ĠDensidad":13567,"ĠEspero":13568,"Ġeupneico":13569,"Ġexpone":13570,"Ġocio":13571,"ĠanalizÃ³":13572,"ĠÃ¡lbum":13573,"ĠBIOQUÃįMICA":13574,"vide":13575,"Ġnerviosas":13576,"ĠLeve":13577,"ĠLar":13578,"Ġusos":13579,"Ġponiendo":13580,"Ġindispensable":13581,"Ġepitelio":13582,"Ġanestes":13583,"CON":13584,"Ġcerrar":13585,"Ġduelo":13586,"Ġdisminuyen":13587,"ĠDieta":13588,"Ġorigina":13589,"Ġcoma":13590,"Ġevaluaciones":13591,"Ġbrad":13592,"ĠHIV":13593,"Ġretira":13594,"camiento":13595,"Ġrever":13596,"quitos":13597,"Ġhisto":13598,"PSS":13599,"Ġratio":13600,"Ġreduciendo":13601,"Ġarran":13602,"Ġuniversitario":13603,"ĠMaria":13604,"Ġlocalizada":13605,"ĠgarantÃŃa":13606,"Ġrique":13607,"Ġatendido":13608,"ĠCali":13609,"Ġmodos":13610,"Ġruta":13611,"Ġmantenida":13612,"ĠÃ³ptima":13613,"ĠPresentamos":13614,"Ġadaptarse":13615,"Ġoptar":13616,"Ġnegocios":13617,"Ġgraso":13618,"ajal":13619,"Ġintegridad":13620,"Ġchicas":13621,"ITA":13622,"Ġdelimi":13623,"ĠNuestros":13624,"Ġaportaciones":13625,"Ġagar":13626,"Ġdemocr":13627,"Ġ141":13628,"pata":13629,"Ġinterro":13630,"Ġbl":13631,"ĠGuer":13632,"ĠdegeneraciÃ³n":13633,"Ġadvierte":13634,"ĠdeterminÃ³":13635,"Ġnotas":13636,"Ġcep":13637,"rÃ³tesis":13638,"Ġantiguos":13639,"cadas":13640,"ĠVII":13641,"ĠRich":13642,"Ã³metro":13643,"Ġdesconocido":13644,"Ġrodea":13645,"ĠSr":13646,"Ġcromosomas":13647,"ĠGastroenter":13648,"Ġiones":13649,"ĠdiÃ¡logo":13650,"ĠSanitarios":13651,"ĠCin":13652,"ĠasintomÃ¡tico":13653,"Ġllevaron":13654,"Ã¡bamos":13655,"VES":13656,"Ġrehabil":13657,"Ã§Ãµes":13658,"bola":13659,"Ġsuperficies":13660,"ĠDerechos":13661,"ĠCIBER":13662,"Ġlargas":13663,"Ġinmunidad":13664,"Ġdescarga":13665,"ĠGroup":13666,"Ġconcretas":13667,"tremia":13668,"ĠQuÃŃ":13669,"Ġfiestas":13670,"Ã©nica":13671,"Ġproceder":13672,"Ġmencionados":13673,"ĠFelipe":13674,"ĠEjecutivo":13675,"ĠepidemiologÃŃa":13676,"ĠMicro":13677,"ĠMolecular":13678,"Ġjuvenil":13679,"ĠProductos":13680,"Ġbandas":13681,"loide":13682,"ĠhistÃ³rica":13683,"ĠDigestivo":13684,"Ġcubierta":13685,"formas":13686,"Ġduoden":13687,"izantes":13688,"Ġhaz":13689,"ĠRioja":13690,"Ġhabil":13691,"Ġconsumen":13692,"ĠBeb":13693,"Ġcalibre":13694,"Ġconsideramos":13695,"Ġcongresos":13696,"Ġmalas":13697,"ĠCONCLUS":13698,"Ġdilu":13699,"Ġiglesia":13700,"400":13701,"aa":13702,"orra":13703,"Ġble":13704,"Ãªncia":13705,"ĠRespira":13706,"Ġinfeccioso":13707,"Ġhabiendo":13708,"ĠFM":13709,"ĠvalidaciÃ³n":13710,"ĠepidemiolÃ³gica":13711,"Ġcontempor":13712,"ĠBiblioteca":13713,"Ġtengas":13714,"Ã±ado":13715,"Ġesteroides":13716,"ĠMejor":13717,"idazol":13718,"Ġreclu":13719,"Ġsostenible":13720,"Ġperfecta":13721,"inÃ³geno":13722,"Ġdedica":13723,"Ġcateter":13724,"Ġartro":13725,"ĠPortugal":13726,"Ġeng":13727,"ĠcoloraciÃ³n":13728,"ANTES":13729,"Ġcontradic":13730,"Ã©rgicos":13731,"Ġlipos":13732,"ions":13733,"Ġdesconocida":13734,"Ġveinte":13735,"pulmonar":13736,"ĠCF":13737,"ĠpsicÃ³logos":13738,"ĠfÃ³lico":13739,"cultivos":13740,"Ġantiinflamatorios":13741,"ĠmÃ¡r":13742,"tidad":13743,"ĠLima":13744,"uyentes":13745,"ĠPrac":13746,"ĠestrÃ³genos":13747,"Ġinvestiga":13748,"ĠPsychia":13749,"udos":13750,"Ġavanzados":13751,"Ġcombinada":13752,"Ġrelaj":13753,"ĠLibro":13754,"Ġpecul":13755,"Ġfui":13756,"Ġpulso":13757,"ÃŃaca":13758,"ĠBAS":13759,"Ã³nicos":13760,"undaciÃ³n":13761,"Ġventana":13762,"emo":13763,"Ġestabil":13764,"ĠRoberto":13765,"ĠcaptaciÃ³n":13766,"ĠAlimentaciÃ³n":13767,"Ġextremidad":13768,"Ġusados":13769,"Ġfuncionalidad":13770,"Ġpedido":13771,"Ġcoinciden":13772,"Ġthan":13773,"patolÃ³gico":13774,"Ġarma":13775,"Ġrepresentar":13776,"Ġvib":13777,"uo":13778,"bla":13779,"Ġafirman":13780,"ĠDismin":13781,"imamente":13782,"Ġantibioterapia":13783,"Ġformal":13784,"ĠICT":13785,"Ġlogros":13786,"Ġsalen":13787,"icosis":13788,"Ġejerce":13789,"Ġtarjeta":13790,"ampiÃ³n":13791,"Ġagon":13792,
[...]
